#version: 0.2
e r
e n
t h
s t
a r
i n
a n
p o
e s</w>
q u
a s</w>
o s</w>
c o
po s
t o</w>
& a
&a pos
&apos ;
r e
d e</w>
e r</w>
d o</w>
h a
e n</w>
i s</w>
o m</w>
a l
th e</w>
l a</w>
T om</w>
y o
o r
d i
u n
t i
e s
e d</w>
e st
qu e</w>
m e</w>
c i
o n</w>
in g</w>
o n
c a
l i
h e</w>
t e</w>
e l</w>
yo u</w>
a b
e l
t r
o u
o r</w>
s e</w>
a r</w>
v e</w>
n o
s i
a n</w>
r i
l e
a d
&apos; t</w>
a m
r o
n o</w>
i n</w>
a t</w>
c h
e m
v i
l e</w>
c u
u n</w>
t o
a s
r e</w>
o f</w>
l o</w>
í a</w>
i t
g u
a t
N o</w>
l o
a c
s o
m u
p ar
&apos; s</w>
i l
d e
d a
er e</w>
co m
g o</w>
a l</w>
p er
v er
p u
h i
s u
co n
s e
b e
o t
un a</w>
en t
th at</w>
c e</w>
a do</w>
n e
T he</w>
i t</w>
an d</w>
h o
M ar
p e
k e</w>
H e</w>
T h
m i
m e
l os</w>
ó n</w>
ha t</w>
á s</w>
d o
w as</w>
b u
l d</w>
b i
m a
Mar y</w>
E st
en te</w>
f i
l a
p i
ha ve</w>
r a
g o
f u
qu ot
s t</w>
quot ;</w>
& quot;</w>
l y</w>
ar e</w>
u r
f or</w>
g h
d a</w>
p ro
E l</w>
qu i
b o
po r</w>
Y o
s o</w>
s a
p a
Yo u</w>
m o
l as</w>
an do</w>
m y</w>
b e</w>
co n</w>
p re
e x
t en
no t</w>
Q u
an t
e y</w>
c a</w>
ha b
er o</w>
it h</w>
v er</w>
ou t</w>
est á</w>
c h</w>
e t</w>
er a</w>
no w</w>
s u</w>
m ás</w>
o y</w>
gh t</w>
w ith</w>
c o</w>
u r</w>
n i
par a</w>
an t</w>
m an
f r
p r
I t</w>
ca n</w>
i m
e d
&apos; m</w>
t a</w>
s a</w>
L a</w>
e c
yo ur</w>
th is</w>
ti en
S he</w>
on e</w>
W e</w>
th er</w>
il l</w>
d on</w>
w h
É l</w>
t er
t a
a y
E l
en t</w>
li ke</w>
i r</w>
m i</w>
g r
d es
da d</w>
h is</w>
w or
ad a</w>
j o</w>
M e</w>
ci ón</w>
d os</w>
th ing</w>
al l</w>
b r
W h
i s
f a
m or
g i
w ant</w>
o l
ab a</w>
h as</w>
f or
k now</w>
em p
da y</w>
a g
st a</w>
t er</w>
m in
j u
l l</w>
t u
a y</w>
d el</w>
po r
l u
o p
ou ld</w>
in g
ver y</w>
El la</w>
am os</w>
c ar
m o</w>
ch o</w>
h er</w>
h e
s on</w>
ha c
qu é</w>
m a</w>
é s</w>
hi m</w>
o d</w>
W hat</w>
pu e
d n</w>
h or
T o
f e
b re</w>
&apos; re</w>
a p
ti on</w>
en d
k ing</w>
el l</w>
p l
n u
v e
t e
al i
r a</w>
c re
e v
w hat</w>
a ñ
w ill</w>
Th is</w>
s h
p as
in k</w>
o k</w>
a d</w>
est a</w>
r u
i d</w>
mu y</w>
tien e</w>
em os</w>
re s
Th ey</w>
t u</w>
r o</w>
s ab
E s</w>
ti me</w>
t y</w>
C u
an a</w>
l l
p en
D o</w>
&apos; ll</w>
n a
an te</w>
Qu i
fr om</w>
st e</w>
d er
w e
ab out</w>
a j
com o</w>
u d
d r
u p</w>
i en
l le
m on
k s</w>
Qu é</w>
u s
w e</w>
co r
ha d</w>
P or</w>
i r
an d
M y</w>
ci a</w>
m en
es e</w>
th e
t ar
le a
m ar
b y</w>
a m</w>
c an
d u
é l</w>
t ed</w>
t s</w>
ou r</w>
es o</w>
g et</w>
p ri
th ink</w>
k ed</w>
p la
a u
f ri
t al
ci on
g a
&apos; ve</w>
bu t</w>
ab le</w>
b er
a qu
f o
per o</w>
í as</w>
L os</w>
g e</w>
pro b
di dn</w>
en do</w>
hac er</w>
h ere</w>
s on
fa v
f in
l as
H o
tr ab
ca sa</w>
en tr
o f
c ri
u s</w>
c he</w>
mor e</w>
al ly</w>
i g
s pe
o m
fu e</w>
go ing</w>
l es</w>
á n
g un
de ci
á n</w>
é n</w>
t h</w>
po n
con tr
s i</w>
ca r</w>
w ere</w>
z a</w>
th ere</w>
Th ere</w>
e p
T en
w n</w>
h er
est aba</w>
on g</w>
c al
di d</w>
Y o</w>
hor a</w>
d er</w>
co me</w>
h a</w>
mi s
b le</w>
h u
M i</w>
w i
s he</w>
hab l
co u
c es
s al
f er
am ente</w>
t ur
aqu í</w>
th an</w>
T hat</w>
i o</w>
Ho w</w>
so me
y o</w>
h el
D on</w>
go od</w>
e ar
emp o</w>
t an</w>
ti empo</w>
s el
f e</w>
gu sta</w>
t t
m ente</w>
y thing</w>
u st
to do</w>
v o</w>
ha p
c er
est e</w>
y ing</w>
a jo</w>
s er</w>
a f
v es</w>
Est oy</w>
v a</w>
c in
li br
D e
el la</w>
ac k</w>
es n</w>
st ar
es t</w>
s er
do esn</w>
se e</w>
mu cho</w>
P u
er s</w>
i do</w>
g ar</w>
l ar
m bre</w>
di s
est o</w>
t el
bi en</w>
n os</w>
ou ght</w>
m an</w>
in ter
en d</w>
ve z</w>
T e</w>
n ada</w>
w ould</w>
prob le
cu l
v en
est u
d in
d s</w>
er es</w>
be en</w>
a ción</w>
d ía</w>
re e</w>
re d</w>
ne ed</w>
t os</w>
ch o
tr a
E n
op le</w>
v en</w>
ed es</w>
i a</w>
al go</w>
fav or</w>
ar d</w>
wh en</w>
c k</w>
ho w</w>
o l</w>
es s</w>
er on</w>
w ay</w>
go t</w>
ad os</w>
s h</w>
d em
spe a
ant es</w>
j o
l an
ad re</w>
tr i
an y</w>
h ou
en to</w>
y s</w>
o tr
mu ch</w>
lea se</w>
s ed</w>
pue de</w>
wor k</w>
n e</w>
a si
un ca</w>
c es</w>
su s</w>
qu e
ne ver</w>
ju st</w>
ó mo</w>
th ey</w>
por t
z o</w>
pue do</w>
ó n
m os</w>
u se</w>
g a</w>
di f
c t
an o</w>
g h</w>
cu ando</w>
co no
un i
to o</w>
i f</w>
ni ñ
y a</w>
F r
ón de</w>
pe ople</w>
v ol
r y</w>
t w
me j
j a</w>
g e
di e</w>
S e</w>
ne ces
me di
un d</w>
t ter</w>
wh o</w>
ou s</w>
S o
E n</w>
Wh y</w>
m at
ac e</w>
sh ould</w>
e p</w>
emp re</w>
com pr
ne w</w>
d as</w>
r es</w>
k es</w>
re ad
fu l</w>
s é</w>
w at
n ing</w>
b ro
ay s</w>
s ent
st a
E s
v ed</w>
añ os</w>
es a</w>
ar on</w>
gu i
vi si
am i
re n</w>
L o</w>
S i</w>
Ten go</w>
per son
B o
w ant
lo o
hel p</w>
to dos</w>
ha y</w>
I f</w>
the m</w>
o ther</w>
lo ve</w>
sa id</w>
b er</w>
t as</w>
st or
e ce</w>
w ays</w>
ch il
m p
ag e</w>
al l
d y</w>
tr u
an c
s as</w>
re g
bo ok</w>
de j
ten go</w>
on ly</w>
ú n</w>
b a
sel f</w>
ti on
d ur
es per
el o</w>
b re
o cu
A l
trab ajo</w>
bu en
b a</w>
di jo</w>
d en
ll am
or es</w>
&apos; d</w>
v o
ma ñ
ta ke</w>
man y</w>
mu ch
Est e</w>
in o</w>
al ways</w>
di ó</w>
w hi
se gu
es cu
ch i
re c
qu er
N o
las t</w>
I s</w>
Cu án
so me</w>
e ver
ro w</w>
com p
nu ev
w a
in a</w>
pre gun
P ar
n i</w>
an s
A re</w>
T ien
L e</w>
st r
p e</w>
mañ ana</w>
di o</w>
w s</w>
lo t</w>
vi da</w>
Qui ero</w>
L as</w>
C re
est oy</w>
l ed</w>
t ell</w>
some thing</w>
b ack</w>
is n</w>
mej or</w>
st o</w>
din ero</w>
v ing</w>
her man
s ho
ro om</w>
si n</w>
an g
i de
ver dad</w>
e ve</w>
mon ey</w>
hou se</w>
an to</w>
sa y</w>
m as</w>
tw o</w>
ra z
s en
st on</w>
re ally</w>
a te</w>
est án</w>
H ay</w>
habl ar</w>
í o</w>
s es</w>
qui ero</w>
po co</w>
nu est
st ud
ou gh</w>
libr o</w>
Bo ston</w>
H a
ent s</w>
p a</w>
ing s</w>
c ha
e at</w>
cion es</w>
J ap
t ing</w>
ho me</w>
fi r
ri ght</w>
in e</w>
i to</w>
ma ke</w>
t en</w>
bo dy</w>
s p
j os</w>
ha ce</w>
f t</w>
ent a</w>
c lo
a gu
so tr
es cri
st i
C h
cou ld</w>
spea k</w>
con t
p al
Est a</w>
D i
m un
m il
hap p
so lo</w>
l dn</w>
ar é</w>
mu st</w>
ci l</w>
C an</w>
to ld</w>
estu di
Wh ere</w>
Wh en</w>
bu s
an ything</w>
er te</w>
ag a
b ar
g ente</w>
L et</w>
w ent</w>
ca m
c en
est i
le ar
ci o</w>
ma de</w>
g ar
C o
g an
li sh</w>
en contr
añ o</w>
en ch</w>
trab aj
fri end</w>
a ch
m es</w>
un der
si empre</w>
m er
t es</w>
ci d
in to</w>
dem asi
co un
J o
fa ther</w>
wh ere</w>
c k
is h</w>
qu ed
b or
so bre</w>
be ca
st ill</w>
read y</w>
on es</w>
al mente</w>
En g
e ver</w>
w ell</w>
st o
yo ne</w>
g re
cu er
e do</w>
ac h</w>
de ber
k no
Fr ench</w>
l ong</w>
P lease</w>
la te</w>
ear s</w>
o b
g ra
c ant
for e</w>
ay ud
n a</w>
en cia</w>
en ce</w>
po li
co l
qui ere</w>
m í</w>
o ld</w>
to day</w>
t ar</w>
mo st</w>
ho mbre</w>
st u
ca b
S u</w>
sotr os</w>
mun do</w>
gi r
the ir</w>
est ar</w>
li fe</w>
v ía</w>
s cho
tr y</w>
al es</w>
ent es</w>
m br
im port
li ve</w>
er ta</w>
an ce</w>
c os</w>
as t</w>
so l
demasi ado</w>
of f</w>
un o</w>
s or
g as</w>
be tter</w>
t or
Wh o</w>
n unca</w>
h ar
no che</w>
p adre</w>
ni ght</w>
m ar</w>
lan gu
C ómo</w>
d ed</w>
tr es</w>
st and</w>
t am
anc és</w>
scho ol</w>
pa ñ
tt le</w>
fr ancés</w>
El los</w>
Jo h
pro f
v u
th ree</w>
be fore</w>
hab ía</w>
m em
end s</w>
Cre o</w>
m is</w>
S oy</w>
w on</w>
I n
a hora</w>
t em
er to</w>
pl an
ca p
end er</w>
ing l
Y a</w>
k e
sab e</w>
fir st</w>
t ó</w>
mor row</w>
el y</w>
y ears</w>
s em
ar i
li ttle</w>
m ent</w>
gu st
e la</w>
Eng lish</w>
ide a</w>
si st
tar de</w>
Joh n</w>
di do</w>
ar me</w>
s le
Mar ía</w>
th ought</w>
a pr
w ri
P o
ñ o</w>
w er</w>
ust ed</w>
do es</w>
le ft</w>
ct or</w>
n ed</w>
in d</w>
er lo</w>
est er
so y</w>
at ed</w>
w as
D ónde</w>
E so</w>
ar y</w>
o ver</w>
be li
neces it
su r
pos i
da vía</w>
N a
est ás</w>
wi th
e very</w>
ar io</w>
D id</w>
ingl és</w>
c e
v a
di c
min u
ec es</w>
gi ve</w>
f am
am ig
A n
ri ó</w>
ad or</w>
m al
p h
c ep
c as</w>
hi zo</w>
mo ther</w>
ci as</w>
c le
g er</w>
to morrow</w>
mis mo</w>
t re
tal k</w>
p o</w>
do wn</w>
d ing</w>
do g</w>
ca do</w>
e ar</w>
pri m
ester day</w>
gui en</w>
se ñ
p el
ten ía</w>
ar te</w>
R e
F u
g en
beca use</w>
r as</w>
b l
e go</w>
d ren</w>
I n</w>
w al
b ot
d or
sa w</w>
ca me</w>
a tr
U n</w>
us ed</w>
ac cid
nuev o</w>
T a
d ías</w>
pen s
at ing</w>
v ent
er ra</w>
in i
ex tr
mu j
ca s
ar se</w>
aga in</w>
D e</w>
lle v
deci r</w>
per ro</w>
hab er</w>
l ti
re ad</w>
Qui én</w>
g s</w>
le t</w>
as í</w>
ar á</w>
na me</w>
wor ld</w>
t ú</w>
í an</w>
f ec
we e
he cho</w>
fi ci
ho y</w>
t on
pre s
i di
fe li
ha sta</w>
su l
si ón</w>
C on
co che</w>
want ed</w>
vi vi
with out</w>
as ked</w>
p ed</w>
bu y</w>
b ri
l en
te ach
m al</w>
no thing</w>
c r
Tien es</w>
ri ed</w>
under stand</w>
in t
al g
fin d</w>
lo ok</w>
Ha ve</w>
pla y</w>
ever ything</w>
c la
H ab
ter min
ec es
com er</w>
ten er</w>
N eces
er r
com i
ocu p
H is</w>
Est á</w>
s in
pe c
ti do</w>
To más</w>
pu t</w>
o so</w>
fri ends</w>
á l</w>
j a
á r
er as</w>
af ter</w>
pal ab
To dos</w>
f un
al ready</w>
de b
b ed</w>
m adre</w>
co sas</w>
an im
por que</w>
e i
t i</w>
prof es
i ce</w>
y esterday</w>
agu a</w>
ch a</w>
pu és</w>
s hi
be au
hap pen
gu star
happ y</w>
hab it
chil dren</w>
f lo
jo b</w>
in vi
d on
na die</w>
c el
fu era</w>
cam bi
or i
bi én</w>
Est o</w>
á pi
po dr
do ing</w>
ab an</w>
d ri
si g
men os</w>
it al</w>
í s</w>
k i
v oy</w>
r os</w>
an ge</w>
wat er</w>
se a</w>
N unca</w>
at os</w>
tt ing</w>
da do</w>
ad u
E res</w>
e g
c ómo</w>
E ver
v as</w>
j e
a tion</w>
it y</w>
to ok</w>
lea ve</w>
su re</w>
est ado</w>
mi r
quer ía</w>
in s</w>
tion s</w>
beli eve</w>
S i
con si
S ab
ca l</w>
gustar ía</w>
sa me</w>
ti ve</w>
otr a</w>
Y an
proble ma</w>
ne x
ma yo
bi r
lo st</w>
ci endo</w>
want s</w>
w om
nex t</w>
ci ó</w>
Yan ni</w>
c las
fe el</w>
f al
d ónde</w>
res pon
langu age</w>
l un
par ece</w>
do ctor</w>
ó lo</w>
a way</w>
n or
niñ os</w>
li g
li a</w>
ca da</w>
amig os</w>
th ings</w>
ar ri
ca min
é is</w>
p lease</w>
b ought</w>
S é</w>
ol vi
an k</w>
c lu
tu s</w>
j e</w>
i l</w>
z ar</w>
u dad</w>
pr on
l at
cu r
pu edes</w>
pa p
beau ti
at ur
tien es</w>
s ing</w>
dif í
tr ans
escu ela</w>
be g
on s</w>
e j
v eces</w>
D es
beauti ful</w>
an y
Cu ando</w>
ci udad</w>
yo ur
s m
l s</w>
person as</w>
el los</w>
Y our</w>
í cu
ú lti
ent os</w>
d ar</w>
ami go</w>
hi stor
qui én</w>
pl an</w>
Cu ál</w>
qui eres</w>
it s</w>
gr an
ay u
a z
ex i
mor ning</w>
hac erlo</w>
a par
bu en</w>
com pu
pas ado</w>
ga ve</w>
l í
g ó</w>
e qui
b est</w>
do or</w>
un to</w>
da ys</w>
raz ón</w>
cin a</w>
S am
comp le
a di
y ear</w>
w in
m pi
b li
p es
d re
yo un
t able</w>
fo und</w>
tam bién</w>
h un
c all</w>
i ght</w>
tien en</w>
st e
bo l</w>
f l
otr o</w>
buen a</w>
ab i
ti mes</w>
n er</w>
c er</w>
vu el
proble m</w>
niñ o</w>
n ing
men to</w>
lo w</w>
as k</w>
De ber
z ó</w>
ti l</w>
sem ana</w>
m s</w>
b ad</w>
Pu edes</w>
wh y</w>
r ía</w>
pu erta</w>
S u
ou ldn</w>
l ar</w>
at h</w>
st ru
o s
l la</w>
ali a</w>
em pe
e y
v el
bu s</w>
si on</w>
f on
difí cil</w>
ar a</w>
ad as</w>
r ápi
p li
d one</w>
d en</w>
si de</w>
Sam i</w>
f ami
h ur
pi c
lear n</w>
M u
f á
b o</w>
tu re</w>
vi e
teach er</w>
ev en</w>
z e</w>
Pu edo</w>
N os</w>
C om
y er</w>
d es</w>
des de</w>
no sotros</w>
l lo
bro ther</w>
bre a
st ay</w>
o se</w>
h ard</w>
entr e</w>
was n</w>
qu esti
herman o</w>
cu enta</w>
d ad
be ing</w>
di ce</w>
habit ación</w>
no mbre</w>
gr an</w>
gir l</w>
so on</w>
il y</w>
en fer
ay er</w>
Est ás</w>
bo o
o und</w>
mo vi
or a</w>
ch e
re ali
an s</w>
le v
kno ws</w>
al guien</w>
bo y</w>
t anto</w>
j ar
cuer do</w>
des pués</w>
w r
m é
B e
tr at
re mem
li kes</w>
fi cul
é r
e ba</w>
person a</w>
gu e</w>
J u
v al
pe que
aj e</w>
ne ed
se em
di e
di ed</w>
si ca</w>
vi sto</w>
s k
m it
len gu
Na die</w>
cou ldn</w>
c ía</w>
per son</w>
N u
u re</w>
muj er</w>
A ust
ti ó</w>
ho pe</w>
pi en
dor mi
c le</w>
loo king</w>
wr ong</w>
si ble</w>
V i
hab la</w>
f ast</w>
al one</w>
V oy</w>
s í</w>
li st
di st
all í</w>
a vi
pu ed
fr u
T ú</w>
gr and
A ll</w>
0 0</w>
ex per
much os</w>
h and
coun try</w>
d ar
tel e
ú ni
se en</w>
ha n</w>
en ough</w>
o wn</w>
m en</w>
can s
l ado</w>
segu ro</w>
escri bi
ma g
ar s</w>
to das</w>
l ing</w>
To do</w>
lu gar</w>
of ten</w>
ma y</w>
he ar</w>
gr y</w>
v ino</w>
tur n</w>
p ad
h ed</w>
sto p</w>
o c
ci ty</w>
e a</w>
tru e</w>
U na</w>
feli z</w>
o í
y et</w>
p an
H as</w>
uni ver
u gh
D o
se cre
dur ante</w>
pl ace</w>
man o</w>
ac ti
sab er</w>
st ed</w>
mu si
H oy</w>
th ese</w>
t é</w>
so lu
happen ed</w>
s s</w>
co ld</w>
ar ound</w>
ac t
A hora</w>
h on
b an
bi g</w>
ñ a</w>
gust an</w>
ti red</w>
ca t</w>
ti r
gran de</w>
ex am
can not</w>
boo ks</w>
mar ried</w>
Aust r
wee k</w>
en cant
deber ía</w>
B u
po d
dr ink</w>
ci al</w>
l la
f ra
k en</w>
re ci
remem ber</w>
é n
sle ep</w>
it a</w>
to m
ca f
m ú
to davía</w>
pr in
whi le</w>
g ri
buen o</w>
stud y</w>
libr os</w>
P en
compr ar</w>
comi da</w>
Cuán do</w>
Austr alia</w>
T r
sab ía</w>
in ed</w>
cu i
re sul
So lo</w>
u su
fo od</w>
entr o</w>
con du
Neces ito</w>
pa ís</w>
al gun
í amos</w>
er en</w>
caf é</w>
vi o</w>
pre par
mi go</w>
hi ci
h í</w>
fe e</w>
ayu da</w>
par te</w>
fo re
E se</w>
su ch</w>
par ents</w>
cre o</w>
co f
dif ficul
cla se</w>
an other</w>
ga to</w>
dif fer
mer i
he ard</w>
ti r</w>
gre at</w>
con migo</w>
wor d</w>
w ed</w>
bu r
vi ve</w>
j un
ac er
M on
tra in</w>
pad res</w>
h ot
ci do</w>
b as
el lo</w>
d res
apr ender</w>
el ec
mi sta
g er
g ado</w>
al s</w>
youn g</w>
nuest ra</w>
ar ía</w>
A meri
l on
p le</w>
inter est
int ent
gr o</w>
t ado</w>
ro b
A r
th ers</w>
ter s</w>
k new</w>
cal led</w>
t ren</w>
sist er</w>
si do</w>
l ess</w>
mi edo</w>
in for
ch ar
z co</w>
an as</w>
t al</w>
re la
on ce</w>
herman a</w>
cof fee</w>
Ten emos</w>
Si empre</w>
ra in</w>
So me
li ght</w>
c are</w>
min d</w>
ha ciendo</w>
vi a</w>
to da</w>
c ed</w>
much as</w>
le er</w>
pro pi
alg una</w>
í n</w>
wom an</w>
pron to</w>
di r
P er
loo ks</w>
á ti
su e
nuest ro</w>
li ves</w>
ra id</w>
wa it
w ish</w>
r s</w>
en g
ar t</w>
hi jo</w>
er ía</w>
th in
af raid</w>
wi fe</w>
rápi do</w>
par ty</w>
im por
en a</w>
con se
c li
L i
y ó</w>
vi en
c ro
tru th</w>
m y
ke ep</w>
qui era</w>
ho sp
e ach</w>
le tter</w>
an cia</w>
op en</w>
ha ven</w>
fam ily</w>
pro du
k ind</w>
ti vo</w>
Tien e</w>
fá cil</w>
podr ía</w>
ti go</w>
fi esta</w>
car ta</w>
an j
x im
ca si</w>
c ru
as y</w>
si l
vivi r</w>
whi ch</w>
u m
mo mento</w>
an ti
a hí</w>
mú sica</w>
no ti
i z
cin co</w>
e vi
por t</w>
pel ícu
ge tting</w>
die z</w>
ab ri
con tigo</w>
Ta to
st s</w>
s mo
fami lia</w>
am a</w>
ac t</w>
w ar
profes or</w>
L o
u ro
s ólo</w>
ab o
a ste</w>
P re
m er</w>
jo ven</w>
co sa</w>
y ed</w>
su fici
s ci
es pe
Tato eba</w>
op ini
hot el</w>
cor re
ans wer</w>
Jap an</w>
p á
mayo r</w>
tu vo</w>
s ali
fe w</w>
Cuán to</w>
v os</w>
en señ
d ro
ch ange</w>
b el
ar lo</w>
Par a</w>
M i
l and</w>
Jap ón</w>
m esa</w>
est ro</w>
ch es</w>
ga me</w>
fi ve</w>
er i
e asy</w>
bus y</w>
bu il
b lan
th ose</w>
pa ci
o ma</w>
st ante</w>
inter es
chil d</w>
pued en</w>
pa y</w>
g g
ca u
sal ir</w>
man os</w>
e dad</w>
ag es</w>
star ted</w>
m es
import ant</w>
di a</w>
di co</w>
histor ia</w>
W ould</w>
tri ed</w>
ta in</w>
me t</w>
f er</w>
at a</w>
posi ble</w>
ca ma</w>
k il
w on
tele visi
es pos
T u</w>
Es per
pre si
e te</w>
com pañ
au to
a go</w>
n ad
al o</w>
th r
cor rec
your self</w>
u do</w>
at es</w>
W hi
tal king</w>
di fer
com ing</w>
and on
a co
H er</w>
t ty</w>
al most</w>
U ni
o jos</w>
To davía</w>
ph one</w>
mbr es</w>
cu án
ar en</w>
s ha
ge ther</w>
le mente</w>
Po dr
e o</w>
cer ca</w>
prim era</w>
p in
l lu
difficul t</w>
don de</w>
musi c</w>
e f
a gr
to gether</w>
some one</w>
pos sible</w>
ch os</w>
wri te</w>
d el
wa it</w>
si ento</w>
pu esto</w>
ja pon
est os</w>
ca so</w>
ou s
ab u
Jap an
wat ch</w>
a cuerdo</w>
v est
seem s</w>
sa ys</w>
A qu
hor as</w>
e de</w>
O ur</w>
su c
s po
p s</w>
er os</w>
Di os</w>
&apos ;</w>
w ing</w>
tel é
fon o</w>
en di
atr o</w>
x i
w ho
trabaj ar</w>
to mar</w>
se e
Japan ese</w>
Est amos</w>
Es pero</w>
tr adu
t un
pa z</w>
hosp ital</w>
. .</w>
we en</w>
th en</w>
per fec
is hed</w>
Pu ede</w>
P e
hu bi
su per
palab ras</w>
al e
t ec
import ante</w>
ri st
proble mas</w>
ey es</w>
E sa</w>
v ay
entr as</w>
. ..</w>
ll or
el se</w>
ear ly</w>
au to</w>
loo ked</w>
ad vi
ab andon
read ing</w>
S e
su m
pu esta</w>
b ra
G er
i mag
hi jos</w>
ci r</w>
ci erto</w>
To k
Pen sé</w>
De b
j ec
d est
Est aba</w>
lev ant
an yone</w>
we a
telé fono</w>
s ing
pla ying</w>
in ten
am or</w>
v ari
f re
c l
á is</w>
re almente</w>
pu so</w>
f lu
c ando</w>
thr ough</w>
my self</w>
tur a</w>
to p</w>
ha te</w>
e ating</w>
en tien
G od</w>
mi ento</w>
di cho</w>
re sta
cu al
f ar</w>
de li
Fu e</w>
resta ur
r an</w>
g las
dormi r</w>
deci r
accid ente</w>
tur ned</w>
el e</w>
b all</w>
ex pli
wor ds</w>
si mp
min e</w>
co le
Do es</w>
1 9
wal k</w>
po in
po día</w>
i ve</w>
cu ar
ju g
hi m
Th ese</w>
su b
mi ght</w>
er no</w>
ven ir</w>
pre ci
ba stante</w>
st er</w>
sin ce</w>
ac k
á b
f ol
er an</w>
si tu
con fi
palab ra</w>
p p
ocup ado</w>
ca be
o sa</w>
extr anj
accid ent</w>
vien e</w>
ur a</w>
par ec
pa in</w>
m ero</w>
cer r
win do
l f</w>
est as</w>
questi on</w>
him self</w>
consi der
mi entras</w>
de be</w>
un til</w>
th ir
sm all</w>
si ve</w>
camin o</w>
al to</w>
or s</w>
lle gar</w>
wor king</w>
ou t
nu m
j as</w>
fe el
st re
hou rs</w>
ha ir</w>
h and</w>
d ang
r á</w>
pas ó</w>
mat ter</w>
b il
ti s
f il
din ner</w>
s y
n ess</w>
l ad
d or</w>
com es</w>
ar ro
any more</w>
U n
un der</w>
ou r
ju gar</w>
f el
em ente</w>
b it</w>
Co me</w>
t ween</w>
qui er</w>
lengu a</w>
f ace</w>
at s</w>
in ing</w>
i gu
c lar
Qui eres</w>
ma kes</w>
c s</w>
a ti
ro ad</w>
ocu r
for get</w>
A l</w>
v el</w>
gen er
w o
ti po</w>
need s</w>
necesit a</w>
an o
par ti
tem pr
me e
en ing</w>
cu mp
c ó</w>
b lo
a po
ter ri
ten emos</w>
shi p</w>
pr ó
va ca
bot h</w>
L le
ni fi
Sab es</w>
ever yone</w>
en em
ed u
dej ar</w>
se t</w>
est aban</w>
bi do</w>
ar ti
s os</w>
men udo</w>
gu it
do l
encontr ar</w>
O ne</w>
tempr ano</w>
s hor
for ma</w>
d ge</w>
T V</w>
S on</w>
G ra
Ever yone</w>
re as
mu rió</w>
be tween</w>
poli cía</w>
po pu
n ú
impor ta</w>
dis cu
est amos</w>
bor n</w>
ar ing</w>
E uro
s pi
b aj
T ell</w>
3 0</w>
w ouldn</w>
E x
f in</w>
wat ch
ust edes</w>
sent ence</w>
fi re</w>
vi ó</w>
pregun ta</w>
exper ien
do min
A s</w>
pelícu la</w>
ien to</w>
fi sh</w>
estudi ar</w>
der e
be b
T u
t amente</w>
happ en</w>
al so</w>
C ould</w>
c á
fr ío</w>
con ver
ori te</w>
sig nifi
ha ving</w>
col or</w>
fav orite</w>
ar re
So me</w>
Deber ías</w>
o t</w>
he al
he ad</w>
fu er
di j
si ck</w>
pre tty</w>
pi dió</w>
p un
of fi
ho mbres</w>
f ell</w>
idi oma</w>
dres s</w>
c y
b on
G re
n atur
g ro
d í</w>
cont in
L e
sur pri
pró xim
prin ci
est ación</w>
espos a</w>
T i
últi ma</w>
z ado</w>
langu ages</w>
contr a</w>
Ch ina</w>
per i
ne i
b ú
w ers</w>
pod emos</w>
n er
im os</w>
ho t</w>
fel t</w>
an i
vol ver</w>
lun es</w>
li dad</w>
go es</w>
ac tu
un os</w>
tr o
ser á</w>
le che</w>
lar es</w>
l es
e di
clas s</w>
star t</w>
s w
mu erte</w>
in st</w>
equi vo
ch ang
agr ad
S pan
No body</w>
tr ying</w>
stor y</w>
en o</w>
di ver
con di
cabe za</w>
a ún</w>
a i
y body</w>
so l</w>
pi ano</w>
p unto</w>
mee ting</w>
fu erte</w>
fu eron</w>
fav or
in ess</w>
er ed</w>
car a</w>
en ti
aga inst</w>
much a</w>
mis ma</w>
dej ó</w>
C an
mil k</w>
li e</w>
f ree</w>
car e
su p
err or</w>
de ath</w>
compu ter</w>
úni co</w>
whi te</w>
sta tion</w>
minu tos</w>
l lo</w>
an gry</w>
a to</w>
ex pec
co o
nuev a</w>
mon th</w>
ien do</w>
ha cia</w>
est ra</w>
dr in
cap ital</w>
at ten
v end
mo l
cual quier</w>
b ab
ti es</w>
que da</w>
per mi
com m
z ap
t ou
pa in
ayud ar</w>
sho es</w>
her mo
for tun
es pañ
lo g
er me</w>
deci ded</w>
ci cle
a v
ser i
s how</w>
ent ly</w>
cin e</w>
M ay</w>
pap er</w>
p elo</w>
acer ca</w>
us ar</w>
re uni
no on</w>
lun ch</w>
Mon day</w>
vi sta</w>
o thers</w>
num ber</w>
nad ar</w>
minu tes</w>
me et</w>
m ad
c ción</w>
A yer</w>
wait ing</w>
ta x
ri ch</w>
p le
lo ves</w>
ju ego</w>
f un</w>
R o
usu ally</w>
t y
pas ar</w>
st and
otr os</w>
li ving</w>
cu atro</w>
man era</w>
a cab
Gra cias</w>
u d</w>
re lo
qu it
ni ce</w>
ex act
Span ish</w>
zap atos</w>
sue ño</w>
hur t</w>
b al
Par ece</w>
tel y</w>
r un</w>
poli ce</w>
ning ún</w>
l am
chi ca</w>
arri ved</w>
segu ir</w>
pre sent
nú mero</w>
in te
di je</w>
N e
to wn</w>
so ci
differ ent</w>
ca ción</w>
s wi
da ugh
G o
v ac
Ta ke</w>
t ree</w>
stud ents</w>
offi ce</w>
ca t
v i</w>
bi cicle
G ive</w>
Ch rist
sor pr
g one</w>
en cu
vi r
U sted</w>
sor ry</w>
l in
he art</w>
di rec
v an</w>
ton ight</w>
e ta</w>
jun tos</w>
Al guien</w>
sufici ente</w>
i ste</w>
windo w</w>
swi m</w>
si gui
an os</w>
re co
re al</w>
o fi
m as
llam a</w>
habl ando</w>
com en
Whi ch</w>
spea ks</w>
cep t</w>
ti ca</w>
mé dico</w>
man z
cans ado</w>
c ali
bro ke</w>
af ter
z ed</w>
pi er
lu z</w>
cal le</w>
at ely</w>
T o</w>
t in
am or
ver ano</w>
tr ou
televisi ón</w>
re li
movi e</w>
escribi r</w>
encant a</w>
alg ún</w>
li mpi
fal ta</w>
ent emente</w>
ad ores</w>
ac ep
vi aj
s car
qui en</w>
bo l
reali dad</w>
presi d
ad ora</w>
a ca
par t</w>
comp any</w>
c ó
Est ados</w>
A t</w>
ou d</w>
fu ll</w>
tien da</w>
p t</w>
lle va</w>
infor ma
i se</w>
hubi era</w>
ab solu
ten ido</w>
s ou
hand s</w>
f ac
ex pla
c t</w>
b ajo</w>
ano che</w>
W ill</w>
sa tis
o ver
te a</w>
sh ouldn</w>
relo j</w>
it ed</w>
cuar to</w>
vi endo</w>
re cor
ant a</w>
Uni dos</w>
pu do</w>
or y</w>
lon ger</w>
gu erra</w>
fin al</w>
bicicle ta</w>
bab y</w>
s pen
fin ished</w>
vent ana</w>
olvi d
n s</w>
k is
cu ri
ant s</w>
Al gun
vie jo</w>
kil led</w>
den ti
d ra
Aqu í</w>
z as</w>
s n</w>
ro pa</w>
in ce</w>
ho se</w>
brea k
an ci
M o
C on</w>
y e</w>
s we
s ino</w>
dri ve</w>
sum mer</w>
st as</w>
sle ep
pi e
muj eres</w>
k ey</w>
gi o</w>
con ven
c ked</w>
ofi cina</w>
m ent
ir i</w>
f our</w>
compr ó</w>
at t
L on
Est u
visi t</w>
t era</w>
ning una</w>
m ío</w>
clo ck</w>
an za</w>
univer si
r .</w>
qui te</w>
ex pen
en ed</w>
de ad</w>
con stru
ca se</w>
ca mi
an e</w>
M any</w>
stu pi
co razón</w>
st op
be come</w>
so la</w>
ra dio</w>
ma king</w>
le y
exam en</w>
españ ol</w>
w ard</w>
ri co</w>
j al
Z iri</w>
No sotros</w>
pu r
or den
dre am</w>
Neces it
qu il
medi o</w>
lo gi
ces s</w>
wor ks</w>
pu bli
lo se</w>
k ill</w>
fr on
res pec
hi gh</w>
gh ts</w>
d ó
sh ed</w>
s ac
a ciones</w>
G o</w>
par k</w>
la v
ho me
hi ja</w>
f le
tu vi
r ío</w>
l á
interest ing</w>
deber ías</w>
daugh ter</w>
S ólo</w>
me an</w>
m ing</w>
an g</w>
al em
r un
des per
cy cle</w>
con f
res puesta</w>
prim er</w>
per dido</w>
medi a</w>
en amor
bú s</w>
bus cando</w>
a se</w>
sab es</w>
sa ying</w>
en ces</w>
da te</w>
contin u
auto bús</w>
algun os</w>
chi co</w>
ca ja</w>
b lu
g an</w>
dic cion
c tion</w>
break fast</w>
br a</w>
pregun tó</w>
ne ws</w>
cono ci
v amos</w>
ta d</w>
st ay
mista ke</w>
li ty</w>
l las</w>
em bar
ch as</w>
fra se</w>
esper ar</w>
dic tion
who le</w>
th er
se ver
pa gar</w>
om as</w>
ne t</w>
ca mp
beca me</w>
b es
after noon</w>
ab as</w>
V amos</w>
un d
ten dr
sel ves</w>
hi ce</w>
clo se</w>
ca paz</w>
ñ os</w>
vi dad</w>
stu mbr
in clu
gu ar
em a</w>
di sa
beg an</w>
son g</w>
pu di
po der</w>
li ved</w>
en o
co cin
cen a</w>
bo x</w>
D é
Com pr
ár bol</w>
un as</w>
stor e</w>
p lo
p at
m b
lle gó</w>
can ción</w>
b and</w>
S us</w>
pas a</w>
p an</w>
men ti
k a</w>
estudi antes</w>
ck et</w>
as es</w>
H a</w>
ver dad
reuni ón</w>
pens ar</w>
h our</w>
fun cion
escu cha
coun t</w>
a ver
a cu
Co mo</w>
w ro
th s</w>
home work</w>
h us
des cu
wro te</w>
stre et</w>
or k</w>
ne ar</w>
lar ge</w>
c ent</w>
ap pe
M a
stud ent</w>
si era</w>
m ed</w>
ev a</w>
cono zco</w>
Christ mas</w>
ti c</w>
tax i</w>
se is</w>
niñ a</w>
li sta</w>
le jos</w>
kno wn</w>
g al
bi ó</w>
at er</w>
P as
vol ver
st ra
p ar</w>
H ace</w>
pá jar
peque ño</w>
aco stumbr
S top</w>
Ger man</w>
pe di
des pi
ci dad</w>
cal or</w>
bl ack</w>
ad es</w>
M is</w>
wea ther</w>
lat er</w>
co lle
at ure</w>
uni dad</w>
th es</w>
pue da</w>
per der</w>
me tr
con cer
com e
An d</w>
ta king</w>
stupi d</w>
stud ying</w>
per ros</w>
or der</w>
cu t</w>
watch ing</w>
u l
tru st</w>
s un</w>
re p
g os</w>
e ca</w>
ar ás</w>
Cuán tos</w>
ve o</w>
mu er
dol or</w>
ar m</w>
am ás</w>
G et</w>
D is
w in</w>
reas on</w>
pi e</w>
japon és</w>
interes ante</w>
gr am
est re
des ay
w ar</w>
vi ol
trou ble</w>
ol der</w>
k o</w>
in os</w>
in di
ent on
diccion ario</w>
st om
sp ent</w>
ri ca</w>
pic ture</w>
li bre</w>
ha mbre</w>
fl ores</w>
esper ando</w>
dad es</w>
cab al
anim ales</w>
S un
we aring</w>
thin king</w>
spen d</w>
prob ab
m el
lear ning</w>
for got</w>
diction ary</w>
a me</w>
Ameri ca</w>
án do
st ri
si x</w>
s ent</w>
m am
lar go</w>
idi omas</w>
hu ev
ha ya</w>
extranj ero</w>
en dido</w>
clo thes</w>
í do</w>
expen sive</w>
er se</w>
en ci
anim al</w>
2 0
s or</w>
fu mar</w>
cre er</w>
beb é</w>
No w</w>
A f
ver ed</w>
ri ver</w>
m ou
in cre
S í</w>
u m</w>
r ing</w>
n is</w>
gra f
estu vo</w>
en f
de dor</w>
ch ance</w>
al ity</w>
won der</w>
so mbr
po lí
par e
enton ces</w>
co late</w>
c ent
K en</w>
E ra</w>
w ine</w>
pu l
nei gh
ma te</w>
im a</w>
i es</w>
c en</w>
a w
vi aje</w>
se gun
list en</w>
jec t</w>
cho colate</w>
am iento</w>
al ong</w>
ot a</w>
n y</w>
mal o</w>
gan as</w>
fi c</w>
I t
v ec
t ab
shor t</w>
qued ó</w>
pi z
p il
flo wers</w>
wom en</w>
th ough</w>
j oy</w>
ide as</w>
i dad</w>
hun gry</w>
do ll
d ín</w>
tion al</w>
ti co</w>
neces ito</w>
mo un
mo ment</w>
jal á</w>
d ou
popu lar</w>
o port
j ó</w>
er ci
ci r
wh e
su erte</w>
pres ent</w>
pl ac
le g
la ugh
gi ó</w>
f res
entr ar</w>
emp le
dur o</w>
ali dad</w>
stop ped</w>
li ber
cole gio</w>
cau ght</w>
ca st
Y ork</w>
P ero</w>
so mos</w>
reg alo</w>
po or</w>
l er</w>
estu vi
cul pa</w>
ca ke</w>
O jalá</w>
t est</w>
ser ía</w>
s now</w>
ri endo</w>
jar dín</w>
e br
P ien
tt en</w>
pue b
ig n</w>
b les</w>
ad mi
ac cu
pe lig
pelig ro
pa tien
h ind</w>
anim als</w>
T ur
S t
si ete</w>
se con
re st</w>
poin t</w>
ni eve</w>
mis s</w>
le ast</w>
g or
er ous</w>
az u
ar emos</w>
Hab ía</w>
ten nis</w>
see m</w>
m á
Pe ople</w>
un que</w>
t ex
t bol</w>
si on
ser vi
mo str
ig nor
car ne</w>
si a</w>
nuest ros</w>
k er</w>
i da</w>
ab ur
un ds</w>
ti o</w>
re fu
ra ther</w>
hu man</w>
fi co</w>
f ú
comp li
avi ón</w>
pon e</w>
oí do</w>
enfer mo</w>
e t
br ing</w>
be hind</w>
b año</w>
an ks</w>
advi ce</w>
th em
po s</w>
pl es</w>
pañ a</w>
imag in
ha sn</w>
chang ed</w>
ch ed</w>
a ir
To day</w>
Ju st</w>
sen tido</w>
f ing
en vi
dang erous</w>
ci elo</w>
Con o
tu d</w>
pregun tas</w>
mo s
m ot
li es</w>
cre e</w>
co cina</w>
bir th
C ada</w>
t ent
qui eren</w>
os os</w>
or ig
no via</w>
il ed</w>
fu l
dur ing</w>
dar k</w>
G u
shi r
sal ud</w>
m ía</w>
gir l
dem ás</w>
de p
cui dado</w>
ba il
1 0</w>
tr as</w>
thin ks</w>
terri ble</w>
so f
qui ck
mar a</w>
escu ch
er g
am es</w>
pregun to</w>
la d</w>
glas ses</w>
err ores</w>
cre es</w>
cle ar</w>
Lo ok</w>
ten is</w>
s un
pre fer</w>
ne go
mo ve</w>
hu man
gar den</w>
cab o</w>
buil ding</w>
Po d
Est án</w>
Deb es</w>
par que</w>
p ped</w>
o d
mon ta
hus band</w>
ha ga</w>
gu é</w>
est é</w>
dó lares</w>
cul p
blu e</w>
all á</w>
áb amos</w>
sk y</w>
rec ei
questi ons</w>
per dió</w>
or gu
la w</w>
la u
ir s</w>
fú tbol</w>
birth day</w>
al e</w>
plan e</w>
lo ved</w>
dre am
compu t
c raz
algun as</w>
Bu t</w>
ver te</w>
vaca ciones</w>
ur se</w>
surpri sed</w>
on a</w>
mi d
g atos</w>
estudi ante</w>
ei ther</w>
di eron</w>
ai re</w>
C or
sen ti
out side</w>
le y</w>
in ta</w>
ep t</w>
e asi
cono ce</w>
ar le</w>
alem án</w>
Th ank</w>
C ar
trabaj a</w>
to car</w>
ta kes</w>
sali ó</w>
pueb lo</w>
proble ms</w>
le años</w>
in st
e li
do gs</w>
cump leaños</w>
ay la</w>
é x
pu de</w>
p en</w>
mu r
lo gr
k ept</w>
in as</w>
com par
S om
P or
M ay
vuel ta</w>
th y</w>
spea king</w>
si quiera</w>
ru ido</w>
quick ly</w>
li sto</w>
ge ts</w>
g ed</w>
fu i</w>
em ent</w>
e f</w>
des er
con sci
c y</w>
b la
Af ter</w>
wri ting</w>
prim ero</w>
flo or</w>
fam ous</w>
apr endi
H u
F or</w>
w el
o di
la tion</w>
i m</w>
hi t</w>
e ga</w>
L ayla</w>
De ja</w>
ú pi
éx ito</w>
pr acti
lla ve</w>
ha lf</w>
fin ish</w>
ent ender</w>
craz y</w>
be ber</w>
al ta</w>
vest ido</w>
termin ar</w>
pla yed</w>
k it
k et</w>
i ba</w>
girl friend</w>
fi cio</w>
est úpi
a ve</w>
Nu estro</w>
E very</w>
vol vió</w>
sw im
ra te</w>
pos ed</w>
por te</w>
j ado</w>
enf ad
en as</w>
com pla
bi cycle</w>
at en</w>
str ong</w>
ja me</w>
interest ed</w>
condu cir</w>
J ane</w>
Ch in
wri tten</w>
tar ea</w>
smo king</w>
in medi
cle an</w>
M añ
pon er</w>
heal th</w>
di entes</w>
d am
a st
Y es</w>
No t</w>
Mañ ana</w>
sent ences</w>
s at</w>
reli gi
it u
f as
er o
at or</w>
A c
sto od</w>
se x
reg re
ous ly</w>
opini ón</w>
mu se
mista kes</w>
me ans</w>
equi po</w>
di v
d entro</w>
S pain</w>
wor ry</w>
tien do</w>
su el
sen se</w>
pre ocup
pie za</w>
le ep</w>
grand es</w>
fi ero</w>
ch ec
bo ard</w>
L u
Es paña</w>
Chin ese</w>
0 00</w>
últi mo</w>
st ar</w>
peque ña</w>
care ful</w>
Som os</w>
H i
B e</w>
your s</w>
ven ido</w>
th i
t ío</w>
t all</w>
sa d</w>
or ia</w>
ne w
go l
fron t</w>
blan co</w>
al re
or gan
mayo ría</w>
llu via</w>
llor ar</w>
il lo</w>
em o
cu anto</w>
a pa
so c
r en
pro me
ple as
g ot
ep h
c ry</w>
br ought</w>
vo z</w>
señ or</w>
secre t</w>
li ked</w>
g lad</w>
empe zó</w>
dou b
May be</w>
tom ó</w>
ot os</w>
oport unidad</w>
me at</w>
disa p
conse jo</w>
at en
úni ca</w>
ó ni
won der
t ón</w>
pen a</w>
fin e</w>
bus iness</w>
ar r
ag re
pre sa</w>
or o</w>
mes es</w>
m or</w>
de f
d an</w>
cá mara</w>
c ti
ar reg
V en
ñ as</w>
we ar</w>
vi mos</w>
te am</w>
oí r</w>
mal a</w>
exi st
ex tre
es p
co vered</w>
ci os</w>
Podr ía</w>
Ne w</w>
Est os</w>
w it
vi vo</w>
pien sa</w>
lo wed</w>
gra cias</w>
fu ego</w>
dr un
deli ci
A le
mu erto</w>
in stru
entien do</w>
d i</w>
vay a</w>
h emos</w>
g amos</w>
espe ci
es cal
drin king</w>
d ly</w>
ca use</w>
ari os</w>
Qu er
s lo
r ar
mon ths</w>
her self</w>
fi ed</w>
clo sed</w>
alre dedor</w>
so und</w>
shir t</w>
se ven</w>
parec ía</w>
l and
gr at
extr año</w>
Sun day</w>
stand ing</w>
po l
du l
ca tion</w>
bre ad</w>
b at
R us
Qu e</w>
P ro
Na vidad</w>
K e
tr as
sever al</w>
se c
re z</w>
pap el</w>
need ed</w>
n ar
ju sto</w>
il la</w>
ha gas</w>
en s</w>
e ts</w>
doll ars</w>
ap ple</w>
a ir</w>
í si
re gi
pa cio</w>
l ine</w>
cer ve
cant ar</w>
cambi ar</w>
ca yó</w>
ar ra</w>
al can
T hose</w>
C as
tra v
tou ch</w>
poli ti
pe dir
co st</w>
N or
Al g
A ún</w>
t or</w>
sti c</w>
ck y</w>
cam era</w>
Des pués</w>
vol u
secre to</w>
qui eras</w>
próxim o</w>
pos e</w>
pe li
gh t
ful ly</w>
e aten</w>
bi bli
beli ev
ag ree</w>
V i</w>
Un ited</w>
su f
str ange</w>
pre ocu
pp ing</w>
g on
es os</w>
en dió</w>
In ter
B er
whe ther</w>
v í
sotr as</w>
min i
li z
hel ped</w>
f all</w>
bibli ot
termin ado</w>
s mar
pr oud</w>
mo der
er á</w>
dist in
deb es</w>
cre am</w>
bo ca</w>
bir d</w>
aten ción</w>
ar t
aj ed
E m
B ill</w>
B i
Ameri can</w>
ve ge
tri p</w>
signifi ca</w>
secon d</w>
re sol
in tel
fr ente</w>
cur so</w>
Podr ías</w>
to tal
ro mpi
po st
p ú
lo co</w>
ki ds</w>
fo to</w>
f ar
as leep</w>
ac e
Tok yo</w>
Ever ybody</w>
tr an
th re
si t</w>
ob je
o re
co ok</w>
brea k</w>
bot t
am ar
Ever ything</w>
v as
t emp
mu cha
mor ir</w>
huev os</w>
hici ste</w>
escucha r</w>
es cap
edi ficio</w>
dere cho</w>
ap pro
Fr ancia</w>
Cuán tas</w>
t ados</w>
scar ed</w>
peri ó
ir se</w>
feel ing</w>
cuán do</w>
compañ ía</w>
bo s
Fr ance</w>
E ven</w>
C ol
str on
simp le</w>
se par
restaur ant</w>
re mos</w>
ot h</w>
neces s
mi entos</w>
li gente</w>
f ly</w>
eg gs</w>
cr ying</w>
clu b</w>
as unto</w>
ad amente</w>
&apos; clock</w>
ve in
ti v
tal ked</w>
piz za</w>
orgu llo
opini on</w>
new s
gir ls</w>
er da</w>
cuer da</w>
comple tamente</w>
Pu t</w>
Fu i</w>
some times</w>
sal v
restaur ante</w>
pas t</w>
pa id</w>
o cho</w>
no ise</w>
libr ary</w>
ley endo</w>
g ent
ex pres
em áti
ban co</w>
I s
vi de
pre ten
nor mal</w>
des cri
d red</w>
Tok io</w>
T ry</w>
O n
Esper anto</w>
í r
vo ice</w>
t wi
s k</w>
pl ant
end ed</w>
cerve za</w>
cabal lo</w>
be er</w>
apar e
Some one</w>
un cle</w>
un ci
sleep ing</w>
si endo</w>
par tido</w>
p lu
p ing</w>
li ar</w>
il s</w>
igu al</w>
comple tely</w>
am bi
ad v
wa ke</w>
vi ven</w>
v in
st edes</w>
situ ación</w>
si tio</w>
pro mi
princi pi
ma d</w>
la w
hun dred</w>
hab ría</w>
gu ys</w>
fu ture</w>
fu r
a hor
U stedes</w>
Qui siera</w>
tre inta</w>
glas s</w>
es as</w>
ent end
encontr ó</w>
en se</w>
ec to</w>
de pen
cion al</w>
ca ted</w>
bibliot eca</w>
ab road</w>
Tr ab
Ke ep</w>
trabaj ando</w>
te ach</w>
t ando</w>
re turn</w>
r é</w>
pre cio</w>
on y</w>
no ve
ne gro</w>
inte ligente</w>
gr u
d é
ch en</w>
ca ts</w>
ca mente</w>
blo od</w>
as es
al co
O h</w>
Cre es</w>
un t</w>
su elo</w>
smo ke</w>
sal e</w>
run ning</w>
ro jo</w>
r at
pla ya</w>
he ad
fici al</w>
ale gr
sho p</w>
seem ed</w>
pro mis
pa st
hor se</w>
cono c
con ten
ci encia</w>
cat ch</w>
am o</w>
Ti erra</w>
N i</w>
El las</w>
wor ked</w>
v ot
m ant
li ter
jug ando</w>
ir me</w>
d ance</w>
ch ess</w>
bar co</w>
as e
ajed rez</w>
ta tion</w>
stay ed</w>
sab en</w>
res pe
probab ly</w>
k in
in vent
i go</w>
ha m
ex am</w>
O K</w>
Cas i</w>
we ight</w>
u p
thir ty</w>
o per
mat emáti
im posible</w>
go lf</w>
expla in</w>
e ch
dur mi
cu p</w>
com pe
bro ken</w>
ar la</w>
ac cept</w>
St ates</w>
tem per
te en</w>
ta ste</w>
s al</w>
pro tec
necesit as</w>
mo do</w>
go ver
fu tur
e th</w>
be ach</w>
ar nos</w>
am ed</w>
ac to</w>
tri ste</w>
natur al</w>
k ni
favor ito</w>
eng añ
con st
com iendo</w>
bo y
al la</w>
abur ri
Mu chos</w>
wor th</w>
tur es</w>
t í
se as</w>
pas sed</w>
mi le</w>
ma ch
m ents</w>
der s</w>
cu esta</w>
beg in
atten tion</w>
W a
F in
u t</w>
pe or</w>
lad r
es ca
encontr é</w>
clas es</w>
sombr ero</w>
s ell</w>
patien t</w>
no vio</w>
invi erno</w>
hac es</w>
fi gu
es con
equivo cado</w>
enfer me
du ele</w>
ch ur
azu l</w>
any body</w>
amig a</w>
ali ve</w>
Par is</w>
No thing</w>
Dé jame</w>
w eren</w>
vi l</w>
res er
ra ining</w>
pr u
movi es</w>
llev ar</w>
g n
fore ign</w>
ab or
H ere</w>
w il
st ado</w>
situ ation</w>
si tting</w>
propi a</w>
pi ece</w>
os cu
na tive</w>
k ers</w>
im possible</w>
guit ar</w>
ex cep
drun k</w>
di gas</w>
ba g</w>
ar gu
Par ís</w>
P i
ú til</w>
u ti
tra vel
st es</w>
re y</w>
re ma
presid ente</w>
p ho
op ened</w>
lear ned</w>
hac en</w>
f all
com for
ar ed</w>
z ando</w>
sol ía</w>
les ia</w>
guit arra</w>
exact ly</w>
do cu
d ó</w>
cuán to</w>
b ank</w>
S in</w>
ú n
ru les</w>
qu es</w>
peli gro</w>
p ra
m í
li do</w>
in side</w>
Algun os</w>
sha ll</w>
ser v
r on
r as
qu ina</w>
pon go</w>
llam ar</w>
it ali
gre en</w>
fi f
em br
el las</w>
agu as</w>
O s</w>
J im</w>
wal ked</w>
val e</w>
tra vel</w>
tor io</w>
mou th</w>
manz ana</w>
for m</w>
ex plo
elec tri
e cono
car o</w>
c ted</w>
boy friend</w>
Th anks</w>
L es</w>
Est as</w>
tar on</w>
ta te</w>
swim ming</w>
sa ge</w>
ra to</w>
pre fer
lea ving</w>
i an</w>
en es</w>
emp lo
d amente</w>
c entr
w all</w>
si gue</w>
p ó
llo ver</w>
kit chen</w>
futur o</w>
deci sión</w>
cion ado</w>
cen ar</w>
arri ve</w>
abu elo</w>
Li fe</w>
A pr
ser io</w>
reg al
pu erto</w>
moun tain</w>
men sa
lu cky</w>
ent as</w>
en joy</w>
en de</w>
camp o</w>
O dio</w>
sh ing</w>
rompi ó</w>
reg res
pla ys</w>
pes ar</w>
o w
l ying</w>
j amás</w>
i c</w>
gu ap
fru it</w>
expec ted</w>
esper anto</w>
di da</w>
b os</w>
V as</w>
S al
vo sotros</w>
universi dad</w>
ro ss</w>
pú bli
neces ario</w>
mo ved</w>
mit ted</w>
llam ó</w>
li on</w>
ir é</w>
cono cido</w>
cambi o</w>
anti gu
abu ela</w>
Al ger
s mil
por ts</w>
pens ando</w>
mam á</w>
hermo sa</w>
ev ening</w>
estudi ando</w>
encontr ado</w>
direc ción</w>
dij iste</w>
di vi
Deber ía</w>
D ame</w>
win ter</w>
vi lla
tu gu
ta ken</w>
spo ke</w>
pi ed
pas s</w>
otr as</w>
necess ary</w>
fol low</w>
contr ol</w>
cami sa</w>
al im
abo gado</w>
Qui z
ten ga</w>
su i
su d
fr ases</w>
exact amente</w>
ent y</w>
en erg
co urse</w>
cali ente</w>
an ing</w>
ad o
Alg una</w>
y as</w>
sa fe</w>
mis sed</w>
log y</w>
escribi ó</w>
differ ence</w>
comi ó</w>
ci gar
b í</w>
Pre fiero</w>
D an</w>
C i
w ly</w>
vol un
um bre
tri es</w>
so li
sing ing</w>
s no
s cre
pas ada</w>
m it</w>
gan ar</w>
encu entr
difer encia</w>
cu ad
con fu
an da</w>
U no</w>
En contr
viaj ar</w>
tu ve</w>
si len
s ang
respon sab
produ c
mon tón</w>
f ant
escri to</w>
dej es</w>
de fin
camin ar</w>
alco ho
Bo b</w>
re pe
peligro so</w>
noti cias</w>
monta ña</w>
ll eno</w>
in sul
com ien
chur ch</w>
ca us
b é
Mi ra</w>
Can adi
wor se</w>
u al</w>
sigui ente</w>
s es
publi c</w>
po bre</w>
p es</w>
fin ally</w>
cu chil
bor ra
A sí</w>
y el
si an</w>
re gu
o ds</w>
ne ar
la go</w>
informa ción</w>
hi gh
gu es</w>
fe ar</w>
des k</w>
cho ice</w>
be bi
S k
Pien so</w>
ti va</w>
ta za</w>
su ce
p eso</w>
mar ido</w>
ig lesia</w>
har ía</w>
got ten</w>
di re
d é</w>
cu se</w>
abi lity</w>
S o</w>
B raz
sang re</w>
sal a</w>
ri te</w>
promi se</w>
posi tion</w>
pedi r</w>
par aguas</w>
orden ador</w>
n ment</w>
ho ld</w>
ex cel
e z
d le</w>
correc to</w>
ca te</w>
az ú
O n</w>
De j
D u
umbre lla</w>
slo wly</w>
seri ous</w>
propi o</w>
paci ente</w>
orig in
kis s</w>
j unto</w>
is mo</w>
invi ted</w>
in v
est ará</w>
est abas</w>
di go</w>
des e
can adi
bo ss</w>
b s</w>
N ada</w>
Go od</w>
í ses</w>
wee k
sho wed</w>
res s</w>
pro te
minu te</w>
m b</w>
lu ego</w>
hur ry</w>
hab lo</w>
gi ft</w>
g es</w>
empe zar</w>
comm on</w>
ber s</w>
azú car</w>
aqu el</w>
abri r</w>
ícu lo</w>
ti vos</w>
st ó</w>
s end</w>
medi cine</w>
law yer</w>
lar ga</w>
intel lig
gu y</w>
fo ot</w>
f otos</w>
ey e</w>
dis par
dis fru
dang er</w>
co at</w>
cas ado</w>
bos que</w>
b it
Re almente</w>
visi ted</w>
vay as</w>
tr af
soc cer</w>
sig n</w>
s an
re st
pro y
pri sa</w>
ll en
list ening</w>
li st</w>
ke ys</w>
je fe</w>
cuer po</w>
com ido</w>
ci er
buen as</w>
atur a</w>
al muer
abandon ed</w>
a k</w>
N ing
u sa</w>
ocur rió</w>
ner vi
mon os</w>
mej or
l ated</w>
herman os</w>
fa ul
en jo
dormi do</w>
b le
añ a</w>
ac ross</w>
De bo</w>
A n</w>
z o
to mar
t on</w>
so unds</w>
so bre
pi es</w>
n as</w>
ha te
gr adu
experien cia</w>
esper aba</w>
e -
dr ank</w>
div or
deci dió</w>
deb o</w>
compr ado</w>
ad op
M r</w>
J ack</w>
H emos</w>
Deb emos</w>
youn ger</w>
traf fic</w>
sol ve</w>
mar ket</w>
kno w
gi ven</w>
clar o</w>
buen os</w>
ag ed</w>
a ero
In tent
Euro pa</w>
A li
was h</w>
wait ed</w>
vaca tion</w>
s is</w>
o be
ju sti
informa tion</w>
ho od</w>
ear th</w>
apo logi
ad or
ad el
aca ba</w>
Necesit amos</w>
L in
th ous
televisi on</w>
ta ción</w>
t ter
sle pt</w>
perfec t</w>
gener al</w>
dr es</w>
di es</w>
d om</w>
cro s
corre r</w>
ar án</w>
vi ste</w>
ver de</w>
su gar</w>
ste is</w>
si to</w>
pien sas</w>
mu lti
kni fe</w>
hate ver</w>
go bi
experien ce</w>
ever ybody</w>
es es</w>
e ch</w>
bo ys</w>
as ust
Tu ve</w>
Lon dres</w>
Lon don</w>
Euro pe</w>
tr ás</w>
pro hi
o cul
histor y</w>
g ü
f act</w>
expec t</w>
e qu
cau sa</w>
ac á</w>
M r.</w>
J es
2 0</w>
ó gi
twi ce</w>
to l
si lla</w>
ri d</w>
pájar o</w>
no body</w>
inter ru
deci sion</w>
cou ple</w>
com ún</w>
car tas</w>
adu l
T am
Hab l
z os</w>
wor ried</w>
wi se</w>
wal king</w>
trans late</w>
th ank</w>
suc cess</w>
s mile</w>
re vi
próxim a</w>
pri v
p ant
mo on</w>
mil l
happen s</w>
ha go</w>
feli ces</w>
e k</w>
domin go</w>
diver tido</w>
di endo</w>
cou ra
con seguir</w>
c ks</w>
c em
bir ds</w>
bi r</w>
V en</w>
Nu eva</w>
M il
A cabo</w>
suc ce
see ing</w>
r í
po n</w>
pla yer</w>
pien so</w>
pa íses</w>
n or</w>
llev aba</w>
lle gar
g ni
eg os</w>
des i
c ra
c entro</w>
ar th</w>
am able</w>
y si
w ed
visi tar</w>
vas o</w>
tel eph
st er
si r
si ones</w>
s li
reg las</w>
mi l</w>
man ia</w>
lengu as</w>
iz qui
i denti
fa iled</w>
f as</w>
doub t</w>
correc t</w>
ci ud
cha ir</w>
car s</w>
ca paci
a chi
Sk ura</w>
Mar ia</w>
Compr é</w>
B us
ta ins</w>
sho pping</w>
sa ve</w>
pes cado</w>
gu ess</w>
g est</w>
g el
ej emp
conver sa
c ally</w>
bla me</w>
av y</w>
S ince</w>
P on
vend rá</w>
teleph one</w>
t est
sufici entemente</w>
sing le</w>
se ar
ri sa</w>
qu it</w>
pre sión</w>
pi so</w>
na ció</w>
mej ores</w>
lle gado</w>
le t
hi de</w>
grand father</w>
gover nment</w>
es fuer
dri ver</w>
di ciendo</w>
comen zó</w>
cas ó</w>
atr ás</w>
an ces</w>
a vo
a us
v ini
v ali
ur y</w>
re cuerdo</w>
pi r
mer cado</w>
hu manos</w>
enci ma</w>
e ats</w>
cor ding</w>
W i
S ta
Inter net</w>
G e
usu al</w>
tre es</w>
perió dico</w>
llev ó</w>
lle g
know le
i as</w>
fi ght</w>
est és</w>
cri min
cont ar</w>
car ro</w>
begin ning</w>
a compañ
ti erra</w>
te eth</w>
s he
recei ved</w>
per ten
per man
m p</w>
en or
decir le</w>
confi ar</w>
ci an</w>
b en
ac he</w>
To das</w>
Alger ia</w>
villa ge</w>
total mente</w>
ti cket</w>
t ment</w>
respon der</w>
news paper</w>
mach ine</w>
in es</w>
i or</w>
hon est</w>
ge lia</w>
exper im
er le</w>
enferme dad</w>
ei ght</w>
der ed</w>
dep end
cuchil lo</w>
b es</w>
a fuera</w>
a cor
a conse
In g
C hi
Ar gelia</w>
vari as</w>
them selves</w>
tal ler</w>
t ly</w>
sm ell</w>
si mil
se at</w>
proy ecto</w>
per s</w>
pas o</w>
le c
ke ep
im pro
he avy</w>
har á</w>
ent er
difer ente</w>
den ly</w>
car r
ba th
aprendi endo</w>
alcoho l</w>
acostumbr ado</w>
ac o</w>
S or
á c
su gg
sh es</w>
sem anas</w>
ri eron</w>
resol ver</w>
prof un
mar avi
intent ando</w>
in no
exi st</w>
entr ó</w>
ent al</w>
dri ving</w>
de trás</w>
cu ál</w>
con cierto</w>
ch ino</w>
almuer zo</w>
aero puerto</w>
Ten ía</w>
Es cri
Canadi an</w>
to es</w>
ste m</w>
st ro</w>
r or</w>
r ent</w>
quer emos</w>
pe ace</w>
pas s
pas ando</w>
metr os</w>
mensa je</w>
ir ía</w>
gen i
g row</w>
fri end
fre cu
el os</w>
e ball</w>
dej ado</w>
da ño</w>
concer t</w>
cer tain</w>
bas eball</w>
al mor
E arth</w>
vari os</w>
u se
ti e</w>
st y</w>
sh ar
pri ce</w>
presid ent</w>
log ía</w>
lea ves</w>
in f
i dos</w>
easi ly</w>
at amente</w>
am ento</w>
a p</w>
C am
áti co</w>
smar t</w>
plan e
pic tures</w>
ocup ada</w>
mé rica</w>
mir ando</w>
leg al</w>
la ke</w>
is bol</w>
im medi
h ing</w>
evi tar</w>
escri torio</w>
es co
de cep
d anc
bil le
an no
air port</w>
ach ed</w>
Qu ería</w>
vi ento</w>
v al</w>
un ded</w>
sou p</w>
so pa</w>
par ar</w>
mir ó</w>
mat eri
l ack</w>
k id</w>
hel ado</w>
gu sto</w>
f at</w>
coun tries</w>
can o</w>
B oth</w>
A mérica</w>
war m</w>
vuel to</w>
que j
nuest ras</w>
manz anas</w>
gust aba</w>
f it</w>
ases in
Some times</w>
Ha sta</w>
A unque</w>
A noche</w>
u e</w>
tel ling</w>
spo ken</w>
r in
per don
mo to</w>
in cen
fun ny</w>
fil m</w>
es pal
enem y</w>
e cu
dem o
deber es</w>
d ón</w>
cri ti
compr é</w>
c án
c el</w>
b as</w>
ad dress</w>
ac es</w>
ac cep
a prob
O l
Des de</w>
é c
uni den
ta u
sent ado</w>
ri es</w>
rep ente</w>
posi ción</w>
par ed</w>
pap á</w>
nove la</w>
matemáti cas</w>
ma estro</w>
m enta</w>
lla ves</w>
inmedi atamente</w>
il l
hor ri
h aré</w>
funcion a</w>
for ward</w>
faul t</w>
est ado
estado uniden
ec ha
desay uno</w>
de al</w>
c and
bro thers</w>
bi lidad</w>
am eri
ab lemente</w>
S m
Ho la</w>
Es cu
vie w</w>
vein te</w>
trat a</w>
neigh bor
lí ne
in vest
im p
hici eron</w>
fam oso</w>
estúpi do</w>
cul ar</w>
cono cer</w>
comfor table</w>
can cel
bé isbol</w>
beg in</w>
ayud arte</w>
al um
It ali
F or
A d
ven ga</w>
su ena</w>
sh ut</w>
respec to</w>
qui et</w>
poin ted</w>
pens aba</w>
pa ir</w>
of fer</w>
no vel</w>
mar ry</w>
liber tad</w>
ir á</w>
fru ta</w>
fri ca</w>
fi el
d ru
bail ar</w>
P au
Ger many</w>
z ca</w>
y es</w>
stu died</w>
segu ra</w>
pe dí</w>
la st
el ve</w>
e ty</w>
e fec
dic en</w>
co p
atr ap
ap ples</w>
Pod emos</w>
P ri
Ale mania</w>
tau ght</w>
sy stem</w>
so cial</w>
si ente</w>
sent ía</w>
s ar</w>
públi co</w>
pudi era</w>
po wer</w>
po ni
po e
or io</w>
o dio</w>
mes sage</w>
inter pre
ing ü
ing en
gi c</w>
ent re
e ter
dij eron</w>
bon ita</w>
be ha
au th
ar ma</w>
aj a</w>
a pro
a is</w>
En tr
sup posed</w>
s í
pájar os</w>
pá g
or ge</w>
nu eve</w>
l una</w>
f ro
esper a</w>
emp ty</w>
deb ajo</w>
buil t</w>
ab les</w>
V ol
M e
w ind</w>
tol er
so ñ
silen cio</w>
segun do</w>
olvi des</w>
noti cia</w>
le ído</w>
lat erra</w>
in ju
h y
gr ou
f em
drin ks</w>
contr i
ci en</w>
advi sed</w>
actu ally</w>
Sta y</w>
Ing laterra</w>
Cono zco</w>
ver a</w>
tam poco</w>
so spe
si ght</w>
ri ce</w>
o jo</w>
m ó
grand mother</w>
durmi endo</w>
distin gu
di ces</w>
conten to</w>
bi ke</w>
ac count</w>
abi erta</w>
Y esterday</w>
S h
H el
5 0</w>
ta me</w>
sist ema</w>
sho t</w>
sen ce</w>
pp er</w>
pas a
neigh b
ne gr
li k
le gs</w>
l ápi
is la</w>
is ed</w>
hu mano</w>
habl an</w>
favor ita</w>
er n
difer entes</w>
den ce</w>
cu bi
chi cos</w>
be be</w>
b ath</w>
arro z</w>
act or</w>
Wa it</w>
T end
S ol
S atur
R es
N i
It alia</w>
B ri
í fico</w>
y en</w>
vie ja</w>
ven es</w>
st ol
or ación</w>
minu to</w>
lau gh</w>
j ó
is m</w>
is land</w>
inte lig
gi do</w>
g ana</w>
fi shing</w>
feli cidad</w>
fa ir</w>
el ev
coo king</w>
ci ta</w>
agrad able</w>
T ra
L ast</w>
I tal
D ur
x ed</w>
wee ks</w>
us ing</w>
tr á
ton ces</w>
se gui
pro ject</w>
n ine</w>
le g</w>
jó venes</w>
in sec
gr as
gol pe
gan ó</w>
ga fas</w>
fr an
fo ot
di ste</w>
clas s
canadi ense</w>
bo les</w>
be ar</w>
ans w
W or
Rus sian</w>
En tonces</w>
z y</w>
y e
use ful</w>
termin ó</w>
sent ó</w>
satis fe
rápi damente</w>
reco gni
qued arse</w>
pelícu las</w>
parti ci
mol est
lik ely</w>
jo ke</w>
gust ó</w>
f f</w>
enamor ado</w>
en cias</w>
dream s</w>
cor riendo</w>
cli ma</w>
be at</w>
absolu tely</w>
V u
N ever</w>
Eng land</w>
yel low</w>
w is
ton to</w>
sti co</w>
sho wer</w>
qu em
pru eba</w>
promis ed</w>
n on
n ers</w>
mat ar</w>
m entos</w>
k i</w>
gobi erno</w>
go od
ef for
ear ía</w>
dir ty</w>
cocin ar</w>
bra zo</w>
bi o
ac ción</w>
W ith</w>
Vi vo</w>
O b
Nu estra</w>
Ch il
who se</w>
tu al</w>
trav és</w>
tran qui
tr aje</w>
ro mp
qu a
necesit aba</w>
le ad
j ar</w>
hi er
hel d</w>
esper anza</w>
er al</w>
enem igo</w>
correc ta</w>
bri ll
am as</w>
agrad e
ac ked</w>
T ony</w>
T al</w>
On ly</w>
Ital y</w>
Algun as</w>
én do
ár boles</w>
z en</w>
tra di
spe ech</w>
se g
regre t</w>
pied ra</w>
ph ysi
ob lig
m almente</w>
let ters</w>
immedi ately</w>
ha tes</w>
ga z
g en</w>
em i
ec er</w>
e to</w>
cu lo</w>
contri bu
cont ó</w>
anc y</w>
ab sur
a tions</w>
Mi ke</w>
Ha z</w>
Di me</w>
B ra
z aron</w>
week end</w>
ver lo</w>
sue ños</w>
pr ing</w>
pa se</w>
mi embr
inter na
inclu so</w>
in tro
ho li
habl ó</w>
gre at
gal le
ej erci
dest ro
des eo</w>
co pi
c eso</w>
abri go</w>
Est aré</w>
ér amos</w>
to ca</w>
thous and</w>
str ang
sta irs</w>
st en</w>
resul tado</w>
ra ins</w>
pl atos</w>
person al</w>
mis sion</w>
li cen
le za</w>
heal thy</w>
gu r
g un</w>
el eg
cr í
cono cer
b ar</w>
ac y</w>
Sab ía</w>
1 00</w>
ó r
ty pe</w>
t amos</w>
stor m</w>
ste ad</w>
some body</w>
re ly</w>
re cu
profes ora</w>
pi ck</w>
ju ega</w>
in flu
il las</w>
i os</w>
estre llas</w>
enfer ma</w>
car d</w>
capaci dad</w>
c ed
br u
ab rió</w>
S os</w>
Ma ke</w>
Lo ve</w>
Hab la</w>
Chil dren</w>
w et</w>
univer so</w>
univer se</w>
tr am
te ars</w>
sigui ó</w>
satis fied</w>
re fle
qu eso</w>
principi o</w>
pri son</w>
p as</w>
o dia</w>
o bra</w>
m ó</w>
m om</w>
l ó</w>
hu mor</w>
horri ble</w>
hi ding</w>
f la
e da</w>
dres sed</w>
di al</w>
d aré</w>
ct ing</w>
ci s
al lowed</w>
T w
Ju an</w>
war ds</w>
us es</w>
ten gas</w>
ta in
simil ar</w>
s la
s en</w>
qued ar</w>
po ca</w>
ot s</w>
organ iz
metr o</w>
menti ra</w>
llu eve</w>
lle ga</w>
l ent</w>
ju ice</w>
exi ste</w>
er tas</w>
desay un
de par
com port
bri dge</w>
b ata</w>
am en
Tam bién</w>
Sm ith</w>
R i
K i
K ate</w>
wal let</w>
ti cos</w>
stol en</w>
si dad</w>
sal t</w>
s y</w>
s and
qued arme</w>
plan es</w>
ocur ri
ner v
ne v
m elo</w>
izqui erda</w>
ir te</w>
intent ó</w>
end í</w>
el s</w>
el e
di ga</w>
descu bri
con su
con clu
chi cas</w>
char ac
c king</w>
borra cho</w>
bi li
a fortun
Mo st</w>
Le ave</w>
C all</w>
wa ste</w>
tam ento</w>
sen ci
sal ud
sa ka</w>
re com
rar o</w>
pri ma
me ters</w>
maravi llo
hici era</w>
happen ing</w>
ev ol
di se
deber íamos</w>
de ta
cans ada</w>
c lear
apare ció</w>
a pre
Sor ry</w>
S ha
R u
O saka</w>
In dia</w>
A b
tradu cir</w>
tor menta</w>
pur pose</w>
nuev os</w>
last im
gru po</w>
de ep</w>
cu esti
com uni
colle ge</w>
car ry</w>
car re
br as</w>
bo m
b añ
ap enas</w>
a unque</w>
Itali an</w>
F ri
under stood</w>
te or
su it
spe ci
ro ja</w>
re du
ra di
mit ad</w>
ll ena</w>
ig a</w>
fi x</w>
fas cin
estuvi era</w>
ent u
ef fec
e as</w>
deci dido</w>
compr as</w>
che ese</w>
bl ind</w>
ace book</w>
a ther</w>
T er
T an
F acebook</w>
vide o</w>
ver s</w>
ti em
tel e</w>
t aba</w>
so ld</w>
si l</w>
sh ou
s áb
respec t</w>
pregun tar
p hi
mo da</w>
men or</w>
j i</w>
inter esa</w>
gü en
gu il
escri be</w>
des pe
au di
am ong</w>
ale za</w>
Tien en</w>
P ap
ver me</w>
vel o
tem o</w>
t ch</w>
su pi
st one</w>
sp ace</w>
sh are</w>
segu ri
re í
prob able</w>
prima vera</w>
plan s</w>
pens ó</w>
no vel
mem ori
man i
im pres
fuer za</w>
em presa</w>
elec tr
du da</w>
domin gos</w>
di bu
dere cha</w>
del ante</w>
com ent
ci miento</w>
ch u
at tr
ad ver
ac ted</w>
T us</w>
Deber íamos</w>
A y
wonder ful</w>
verdad ero</w>
us an</w>
tal es</w>
t ía</w>
t es
t ant
seguri dad</w>
sac ó</w>
qued é</w>
polí tica</w>
podr ías</w>
p al</w>
orgullo so</w>
olvid ó</w>
olvi dado</w>
no ches</w>
nerv ous</w>
m ado</w>
lá gri
hi elo</w>
ex ten
est ros</w>
emple o</w>
ear li
di r</w>
cump li
cion ar</w>
cho ose</w>
bi a</w>
ag er</w>
Tur n</w>
H un
, 000</w>
ándo se</w>
tt on</w>
trat ó</w>
th o
some where</w>
sab emos</w>
reali zed</w>
re turned</w>
re a</w>
pued as</w>
pu ente</w>
natur aleza</w>
mat ch</w>
man tener</w>
lu ck</w>
hac ía</w>
g ly</w>
fore st</w>
fac tor
f ed</w>
est áis</w>
est ab
di ente</w>
delici ous</w>
decir me</w>
de tal
ci l
cel ebr
c ciones</w>
bol sa</w>
ad d</w>
a pe
Se e</w>
Mu chas</w>
H ey</w>
H an</w>
Ex cuse</w>
Be cause</w>
y endo</w>
wor st</w>
senti mientos</w>
pi s
má quina</w>
kis sed</w>
il ing</w>
ho l
fi gh
feel ings</w>
encuentr a</w>
em ber</w>
cro w
con fun
chec k</w>
bi lity</w>
acu s
Tw o</w>
P rob
H e
A mb
uti li
tu yo</w>
tab les</w>
sto le</w>
star s</w>
si ons</w>
s qu
s na
or din
mem oria</w>
lle gue</w>
le o</w>
hermo so</w>
fore ver</w>
for give</w>
flo wer</w>
es pacio</w>
dr y</w>
dest ru
de ja</w>
ch ing</w>
bel leza</w>
S r.</w>
J ack
u so</w>
su ele</w>
se pa</w>
s ports</w>
li n</w>
intro du
har dly</w>
g ers</w>
ejemp lo</w>
corre o</w>
ci ent
bor ing</w>
aw are</w>
an ja</w>
M ad
L l
vi ct
tw enty</w>
swe et</w>
simp lemente</w>
s cen
ri de</w>
pre mi
o il</w>
nei ther</w>
ne y</w>
mu ñ
ex erci
ex ci
entien de</w>
encu entro</w>
el ess</w>
edu cación</w>
du e</w>
da me</w>
d í
d arme</w>
d ados</w>
ca su
bath room</w>
Jack son</w>
B ro
B ring</w>
wo ke</w>
wed ding</w>
to ma</w>
tex to</w>
tal ks</w>
son s</w>
sol di
rec ha
re port</w>
r ás</w>
pen sé</w>
laugh ed</w>
i li
grou p</w>
gro und</w>
g ger</w>
feel s</w>
cambi ado</w>
bo red</w>
bel on
beha vi
b ye</w>
b an</w>
at er
as king</w>
W rite</w>
S pe
M an
Ge orge</w>
A sk</w>
í fi
z u
y -
val or</w>
ter r
su fri
stay ing</w>
solu ción</w>
re sto</w>
pu si
pu estas</w>
pro pó
presi on
preocup es</w>
par tir</w>
on io</w>
n ari
n amed</w>
llam o</w>
li ed</w>
it os</w>
in oc
in e
fe ed</w>
fa ster</w>
es condi
cu te</w>
co t
bo at</w>
be t</w>
b all
ayud arme</w>
as ed</w>
ar ia</w>
apologi ze</w>
abo ve</w>
V o
Per dí</w>
A caso</w>
1 8
á ni
watch ed</w>
trat ando</w>
tr im
ti ll</w>
them ati
su it</w>
ru so</w>
me aning</w>
ladr ón</w>
ju gu
expla ined</w>
ex cept</w>
er amente</w>
ent ered</w>
di shes</w>
cuer das</w>
cri me</w>
char ge</w>
ca sas</w>
ayud ó</w>
at a
Qui ere</w>
Pe ter</w>
tem a</w>
surpri se</w>
stand s</w>
spe cial</w>
sm el
sing er</w>
ro sa</w>
refu sed</w>
recu per
rec ently</w>
re ached</w>
pl á
pe z</w>
pain ting</w>
ou rs</w>
mp ed</w>
medi cina</w>
mat ó</w>
ma gaz
it as</w>
happ iness</w>
ha dn</w>
guap a</w>
g lo
fe et</w>
fant as
er y</w>
ent er</w>
earli er</w>
dul ce</w>
cru el</w>
coo ki
consi der</w>
con tar
ca dos</w>
ca ba</w>
c ár
at ch</w>
am bu
V a</w>
To morrow</w>
T ar
Di cen</w>
Ch ri
Bra sil</w>
son risa</w>
sel o</w>
res fri
re pu
pre ocupado</w>
perfec to</w>
m amente</w>
llo viendo</w>
llam ada</w>
l end</w>
in du
hu ge</w>
gre w</w>
graf ía</w>
go ld</w>
g ames</w>
fortun ately</w>
espal da</w>
en ever</w>
dem and
chi ck
ces a</w>
care fully</w>
bott le</w>
asi ento</w>
as cen
ac tive</w>
Th e
Su pongo</w>
S ería</w>
M or
Braz il</w>
vi eron</w>
t í</w>
sist ers</w>
ro to</w>
ro ck</w>
pro gram
poli cem
pen cil</w>
parec en</w>
par tes</w>
par ado</w>
p er</w>
on ed</w>
necesit an</w>
me z
mat er
knowle dge</w>
he at</w>
hab ían</w>
d ando</w>
corre ct
ch ó</w>
c ero</w>
b ella</w>
ar ías</w>
apar tment</w>
W ell</w>
T en</w>
S erá</w>
Quiz á</w>
O c
K yo
J amás</w>
H ice</w>
H ag
D on
w hatever</w>
tuvi era</w>
suf fer
st os</w>
si ty</w>
ri o</w>
per su
pain t</w>
ol s</w>
necesit amos</w>
mid dle</w>
llam ado</w>
li ghts</w>
idi ota</w>
g ay</w>
fo to
f -
exam ple</w>
en os</w>
em a
conf es
bot ella</w>
bon ito</w>
asi st
ar ru
adv ant
ac ks</w>
aburri do</w>
Re ci
P a
M ej
ton gue</w>
ti tu
su puesto</w>
sk ir
resul t</w>
quit ó</w>
pu estos</w>
propó sito</w>
po ta
pen as</w>
paci encia</w>
mi ca</w>
intellig ent</w>
inno cent</w>
fiel d</w>
escuch ando</w>
emplo ye
em pieza</w>
dis covered</w>
des t</w>
deci de</w>
de tec
de c
coura ge</w>
comput adora</w>
ci to</w>
cap it
cant ante</w>
answ ered</w>
ad mit</w>
accu stom
W ere</w>
L lam
Gre ek</w>
Di le</w>
te atro</w>
tar ta</w>
sud denly</w>
segun da</w>
po cos</w>
plac er</w>
pier nas</w>
origin al</w>
o we</w>
noti ced</w>
mis mos</w>
lágri mas</w>
k a
j ero</w>
il u
güen za</w>
gg ed</w>
fl or</w>
dis h</w>
di ficul
di ab
des pacio</w>
deb en</w>
cui dad
conoc í</w>
con centr
beau ty</w>
ati n</w>
ac tion</w>
ab ajo</w>
Y u
W hose</w>
Se gu
L atin</w>
y le</w>
vivi endo</w>
ver é</w>
vel op
v í</w>
tu ya</w>
sil lo</w>
sci ence</w>
sa u
reí r</w>
recor dar</w>
r ab
qu í
pre gn
plan eta</w>
pin tura</w>
or ange</w>
ob serv
o un
muse um</w>
muse o</w>
mi r</w>
lo ts</w>
laugh ing</w>
la p
in ation</w>
i on
herman as</w>
gi ves</w>
fol lo
ex plan
eno jado</w>
ed s</w>
dur a</w>
di ri
cu al</w>
con vin
bus car</w>
bi gger</w>
b and
aqu ellos</w>
al ter
aconse jó</w>
accustom ed</w>
N ancy</w>
we ars</w>
w n
vi du
tra i
th ro
te cho</w>
so port
se as
pi eces</w>
pes car</w>
past el</w>
op port
ob vi
lápi z</w>
inoc ente</w>
indi vidu
he chos</w>
graf o</w>
g y
figu re</w>
ex cu
enti re</w>
ent amente</w>
di g
decir te</w>
deber ían</w>
de porte</w>
consider ed</w>
con sist
con segu
carr era</w>
c ana</w>
br us
ar es</w>
aqu ella</w>
ap p
V e</w>
V ay
Some thing</w>
S te
S iento</w>
Pen s
M am
H ac
Ali ce</w>
trá fico</w>
to i
tar je
t ada</w>
si bility</w>
r ace</w>
po cas</w>
obje tivo</w>
o sas</w>
ma il</w>
lad y</w>
hur ts</w>
hab rá</w>
gu en</w>
gr ama</w>
f í
esca pe</w>
dis curso</w>
cont acto</w>
cl ou
be d
b al</w>
b ack
anci ano</w>
al ma</w>
To da</w>
Kyo to</w>
Fr om</w>
áti ca</w>
vu estro</w>
vi o
universi ty</w>
tr a</w>
sorpr endido</w>
solu tion</w>
sex ual</w>
s cri
re qui
re present
pro vo
pre fi
plan et</w>
p int
no se</w>
n ature</w>
mad era</w>
levant ó</w>
jug ador</w>
inter net</w>
ho b
go al</w>
frecu encia</w>
end ing</w>
embar go</w>
embar az
e me</w>
de ep
de bido</w>
co stu
ci da</w>
bo lí
arri ba</w>
al u
W as</w>
Trab aj
Some body</w>
Hab lo</w>
Des earía</w>
C a
á les</w>
ve ía</w>
u pon</w>
tir se</w>
tem por
tar ía</w>
sci enti
rela ción</w>
ra ción</w>
permi so</w>
pe ces</w>
pas eo</w>
p ér
nego cio</w>
na tivo</w>
ma go</w>
jo in</w>
japon esa</w>
invest ig
hab erlo</w>
gui ó</w>
eg ún</w>
easi er</w>
ear th
d ud
d ent</w>
cerr ar</w>
ali z
Sab e</w>
S egún</w>
O f</w>
M exi
D ima</w>
É ste</w>
with in</w>
thre w</w>
su spi
star ting</w>
spea ker</w>
sou l</w>
sh el
segui da</w>
sa ved</w>
reali ze</w>
re fri
refri ger
princi pal</w>
policem an</w>
n it
mil es</w>
mat es</w>
llor ando</w>
keep s</w>
inv esti
h es</w>
enseñ ó</w>
enjo yed</w>
e z</w>
des can
de clar
dar le</w>
con sul
comm uni
ci vi
ci les</w>
ca used</w>
any where</w>
an u
ab und
a de</w>
Wi th
R ima</w>
A ren</w>
te me</w>
s pring</w>
rob ó</w>
qui so</w>
pa pers</w>
mucha cho</w>
mis sing</w>
líne a</w>
ll ed</w>
li mit
la m</w>
j our
in cid
ga ción</w>
ev ed</w>
enfad ado</w>
deb emos</w>
curi dad</w>
culp able</w>
cerr ada</w>
br es</w>
ant e
almor zar</w>
ach es</w>
accep ted</w>
a va
A m</w>
í n
zo o</w>
tradu cción</w>
st ep</w>
sorpr endió</w>
smil ed</w>
re fer
re ach</w>
pos t</w>
p it
or ity</w>
o to</w>
lle gué</w>
limpi ar</w>
hon esto</w>
h á
for gotten</w>
fil led</w>
est aría</w>
escribi endo</w>
ejerci cio</w>
ej as</w>
e bre</w>
d ying</w>
cu ra</w>
cre di
con fer
can s</w>
c tions</w>
bu tton</w>
ap preci
absolu to</w>
W el
V eo</w>
To m
A penas</w>
á l
u gly</w>
trans lation</w>
trans lated</w>
ten ían</w>
sin tió</w>
respon dió</w>
pron unci
os curidad</w>
or aciones</w>
on ia</w>
nuev as</w>
mill ones</w>
mi do</w>
ma p</w>
lo cked</w>
le e</w>
hab les</w>
gra ci
gi ving</w>
fa ci
ex ha
encant an</w>
di am
des arro
de di
consci ente</w>
com en</w>
co ver</w>
cla im
c é
am bos</w>
ag ot
a dic
The ir</w>
T ru
Ha z
Col um
B y</w>
ísi mo</w>
z an</w>
ti to</w>
the ory</w>
teor ía</w>
tar io</w>
succe ed</w>
stor ies</w>
son ido</w>
si entes</w>
ru le</w>
ro of</w>
que ta</w>
prepar ado</w>
premi o</w>
plan ning</w>
op ción</w>
ne gó</w>
nar anja</w>
man ej
lengu aje</w>
ju egos</w>
in vol
hou ses</w>
galle tas</w>
g le</w>
g ho
fres h</w>
en da</w>
de dos</w>
cou sin</w>
confi anza</w>
cir cu
bi en
believ es</w>
alum nos</w>
acti vi
ac ento</w>
M é
An tes</w>
0 0
we b</w>
vuel ve</w>
tendr á</w>
t ero</w>
sub ject</w>
si ze</w>
ser pi
ro om
mem ory</w>
ki lo
it self</w>
inten ción</w>
in stead</w>
idi ot</w>
guil ty</w>
fu ri
ern es</w>
enor me</w>
do ce</w>
di mos</w>
de termin
cor ri
cor bata</w>
comput ador</w>
comport amiento</w>
co sts</w>
co ger</w>
car ds</w>
bor row</w>
blan ca</w>
belon gs</w>
bas ura</w>
bar ely</w>
ba te</w>
aver igu
at u
apr end
ami st
ale gro</w>
ad ecu
Satur day</w>
Mej or</w>
Mam á</w>
Lle vo</w>
y ers</w>
we ver</w>
was hed</w>
the ater</w>
ter ía</w>
te ch
st ep
sk in</w>
sig lo</w>
sh y</w>
se cu
pro vi
pi el</w>
par ada</w>
or dered</w>
of erta</w>
nari z</w>
mo d
inju red</w>
he li
har to</w>
gr ab
fon do</w>
fing er</w>
expli car</w>
di ario</w>
despi erto</w>
des cans
d arte</w>
cri men</w>
cent ury</w>
bot ón</w>
bo ther</w>
bo da</w>
believ ed</w>
atten d</w>
at as</w>
ar as</w>
al lo
Ti me</w>
S a
Por tugu
Mar i
J e
Can ada</w>
y os</w>
wri ter</w>
windo ws</w>
vi vía</w>
vi ernes</w>
vent anas</w>
v emos</w>
un ity</w>
satisfe cho</w>
quil la</w>
qued arte</w>
prepar ed</w>
pregn ant</w>
po em
pier na</w>
o día</w>
nego cios</w>
ma pa</w>
incre í
in depend
ga ste</w>
fi red</w>
fami liar</w>
espos o</w>
du er
dist ancia</w>
cán cer</w>
cooki es</w>
con ne
con ce
ck ets</w>
can ti
can cer</w>
bu ying</w>
bro ma</w>
b ly</w>
an k
ad á</w>
ack et</w>
ac í</w>
Mad rid</w>
Can adá</w>
Ac cording</w>
wo od</w>
wil ling</w>
vuel va</w>
visi tar
und amente</w>
ter re
stu ck</w>
stra ight</w>
smel ls</w>
signifi cado</w>
ro und</w>
ra in
r ara</w>
pág ina</w>
prof undamente</w>
po ol</w>
peque ños</w>
pe t</w>
our selves</w>
ni c</w>
n al</w>
m on</w>
i st</w>
hac erte</w>
hab las</w>
hab it</w>
ga te</w>
g ada</w>
earth qua
di cos</w>
den cia</w>
co ches</w>
chick en</w>
cas arse</w>
carre tera</w>
cal ling</w>
acep tar</w>
ac cent</w>
a unt</w>
a head</w>
W ar</w>
H ar
Gre ece</w>
20 1
É sta</w>
vol ar</w>
vec inos</w>
tru ck</w>
sui ci
su e</w>
sti ca</w>
sta te</w>
si te</w>
re tras
pri sión</w>
perten ece</w>
par ó</w>
me tal</w>
lo cal</w>
ig os</w>
ha yas</w>
foot ball</w>
f y</w>
f a</w>
expli cación</w>
explan ation</w>
estre lla</w>
espe cial</w>
edu cation</w>
dis culp
defin i
cono ció</w>
ci ti
cent er</w>
casu alidad</w>
art ículo</w>
ar ea</w>
am az
al ous</w>
ac comp
ab sent</w>
With out</w>
W as
Ten és</w>
Quer emos</w>
Prob ablemente</w>
Portugu ese</w>
Gre cia</w>
Esper a</w>
Cu anto</w>
Cu al
C ho
B ien
Amb os</w>
A dónde</w>
wor e</w>
was hing</w>
vege tables</w>
toi let</w>
st in
ri es
responsab le</w>
ki d
k o
hu bo</w>
hab erte</w>
g al</w>
evol u
entr ada</w>
ent ed</w>
discu s
disap pe
ciud ad
cion ó</w>
cer ebr
c les</w>
ar ms</w>
ar ds</w>
amist ad</w>
ac a</w>
ab sor
Un fortunately</w>
S how</w>
Pau l</w>
Necesit as</w>
M ás</w>
L lev
Hu bo</w>
D ec
Chri sti
Al go</w>
óni co</w>
xi co</w>
vir tió</w>
ver güenza</w>
thi ef</w>
t an
ru s</w>
ru p
ru mor</w>
ro m
ri d
quer és</w>
qu ince</w>
protec t</w>
probab lemente</w>
pre dic
pic ked</w>
ph y</w>
pant al
pa ga</w>
n es
mil lion</w>
llam as</w>
la y</w>
l entes</w>
japon eses</w>
g ing</w>
for d</w>
ex tra
ev es</w>
er é</w>
ed ing</w>
do wn
do ct
disap pointed</w>
car go</w>
ahor r
adel ante</w>
a tra
a stron
To ma</w>
Ho ld</w>
Estu di
Ar gent
vu elo</w>
ti ves</w>
sy m
sear ch</w>
resul ts</w>
pro g
por tugu
of re
of f
noti ce</w>
list ened</w>
lav ar</w>
itali ano</w>
interes ado</w>
im presion
h ell</w>
g as
g ando</w>
figh ting</w>
escu cha</w>
ent ero</w>
có modo</w>
cár cel</w>
cor ner</w>
continu e</w>
con den
cer tain
cel e
cap able</w>
can os</w>
buil d</w>
behavi or</w>
b ill</w>
avo id</w>
as pec
ant ly</w>
al o
Whi te</w>
Wel come</w>
L amento</w>
Fri day</w>
F ir
Be tty</w>
B ar
ó li
vu estra</w>
verdad eramente</w>
vec ino</w>
ti les</w>
ti eron</w>
sup port</w>
sil ent</w>
ro de
respon sible</w>
re cuerda</w>
po int
plant as</w>
permi te</w>
or den</w>
on able</w>
nervi oso</w>
mir ar</w>
mer ece</w>
mas a</w>
m ely</w>
inmedi ato</w>
incen dio</w>
habl ado</w>
g em
fl ying</w>
excep to</w>
enseñ ar</w>
el ef
ed om</w>
dire ctor</w>
dire ct
depen de</w>
che ap</w>
au tom
agre ed</w>
ad ly</w>
ad ed</w>
ad ap
Es os</w>
Encontr é</w>
De be</w>
ú a</w>
wi ch</w>
us ando</w>
tu m
tom ado</w>
ti mi
servi cio</w>
s ki
ro ta</w>
resul tados</w>
rela tion
on er</w>
mu l
mer os</w>
mar i
ma themati
m .</w>
j ada</w>
hon or</w>
grat is</w>
gra m</w>
gan ado</w>
fr ía</w>
fin almente</w>
evi l</w>
er la</w>
ear n</w>
di to</w>
cul tura</w>
conoci miento</w>
comple to</w>
co ol</w>
cil mente</w>
ci eron</w>
bro wn</w>
bre ath</w>
b in
att ack</w>
as ha
an ed</w>
accu sed</w>
ab e</w>
a ho
Wor ld</w>
V ien
Tr at
T ho
R oma</w>
P ron
O r
Est áis</w>
ó mago</w>
é l
v an
tw elve</w>
tu gal</w>
tel o</w>
t una</w>
sáb ado</w>
sur vi
sol ar</w>
s pre
ri sk</w>
reci bió</w>
re qu
ra ste</w>
qui se</w>
pla to</w>
pain ted</w>
o w</w>
o to
mi li
me as
j es</w>
har der</w>
for ced</w>
fo ol</w>
ex tin
est ómago</w>
est ábamos</w>
energ ía</w>
el as</w>
dur as</w>
de do</w>
d ará</w>
contr ol
col ores</w>
cal m</w>
baj a</w>
asha med</w>
arre sted</w>
al ing</w>
S an</w>
Pron to</w>
Por tugal</w>
K o
In clu
F ather</w>
. m.</w>
án d
ur g
tur as</w>
teach ing</w>
teach ers</w>
tar y</w>
t le</w>
soci edad</w>
seri ously</w>
run s</w>
ro so</w>
raz ones</w>
pér dida</w>
prome tió</w>
prob ar</w>
practi ce</w>
pleas ure</w>
pasa porte</w>
of fer
ni a</w>
li o</w>
lar gest</w>
ke y
je alous</w>
ir ri
hu ele</w>
fá cilmente</w>
extre mely</w>
embar ras
dist ance</w>
di lla</w>
di ct
des nu
d den</w>
contr at
com í</w>
co lo
cin cuenta</w>
ci entos</w>
ch é</w>
cal ls</w>
cab ello</w>
ca sh</w>
c ing</w>
arti ficial</w>
ar an</w>
ap un
advant age</w>
Re ad</w>
H ello</w>
D os</w>
Bu eno</w>
A p
w er
vo te</w>
vivi do</w>
under standing</w>
u da</w>
tr ajo</w>
tom ando</w>
tiem pos</w>
su spe
su pone</w>
si x
sent í</w>
sal vo</w>
s low</w>
s an</w>
resfri ado</w>
pro puesta</w>
pass port</w>
oscu ro</w>
opport unity</w>
on i
ob ser
ne o</w>
na ked</w>
ma trim
m era</w>
l ab
im it
g all
estu dio</w>
enseñ a</w>
ec ía</w>
dra w</w>
cro ss</w>
cri sis</w>
cri ed</w>
convin ced</w>
cono cía</w>
cami ón</w>
ber t</w>
bar ato</w>
b lemente</w>
ase gur
ar ena</w>
and ar</w>
O pen</w>
M ag
K ore
Hel p</w>
G en
Colum bus</w>
yo n
y where</w>
v ince</w>
ta stes</w>
t -
sen tir</w>
s ang</w>
re ality</w>
ra ise</w>
r am
pro grama</w>
o ca
mostr ó</w>
min tiendo</w>
me th
lin da</w>
li c</w>
l ou
hor iz
ho jas</w>
hel ping</w>
fi re
extranj eros</w>
exerci se</w>
er nos</w>
ent ar</w>
echa r</w>
cuesti ón</w>
crimin al</w>
cre ated</w>
cor to</w>
cole c
co la</w>
canti dad</w>
cambi ó</w>
cab all
ca er</w>
at al</w>
ar los</w>
ap li
al arm</w>
af fec
ad mitted</w>
Qu é
M en
M at
Fu ji</w>
Di dn</w>
D í
D ay</w>
z amos</w>
wel come</w>
ty -
tor ta</w>
tarje ta</w>
sor presa</w>
sac ri
ro se</w>
ri a</w>
re si
ra w</w>
pron oun
o x
neighb or</w>
near ly</w>
mur der</w>
moder n</w>
mir ror</w>
man ten
la zy</w>
l oud</w>
ju z
intent ar</w>
hu t</w>
for mas</w>
fol lowed</w>
fami li
ex t</w>
est a
esfuer zo</w>
es cla
embaraz ada</w>
cual quiera</w>
crow d</w>
corre os</w>
cono ces</w>
compe ti
bed room</w>
M us
Lin da</w>
L ev
Ki oto</w>
Em pe
Cu áles</w>
Cu i
Cono ces</w>
éc tri
we ir
tre at</w>
trav es
tex t</w>
t anta</w>
sol dados</w>
sof á</w>
skir t</w>
s ch
re vista</w>
que dado</w>
pro pos
pri ze</w>
pri mo</w>
pel ota</w>
pare ja</w>
mol esta</w>
mi c</w>
ma y
ma j
la tions</w>
in ó</w>
hi d</w>
head ache</w>
estudi a</w>
espe jo</w>
el éctri
el es</w>
ed or</w>
cu stom
cri sti
cre ía</w>
ch or
car ried</w>
ca ble</w>
as su
ac compli
absolu tamente</w>
Ter min
Ten éis</w>
Ro me</w>
Pap á</w>
Inclu so</w>
Hab las</w>
F eli
Estu ve</w>
Col ón</w>
Bro wn</w>
z z</w>
we al
visi ble</w>
v enta</w>
v ar
tr ag
tal ento</w>
stu dies</w>
sospe cho
so los</w>
sa car</w>
regu lar
qui siera</w>
quer ías</w>
pleas ed</w>
pi sto
per dí</w>
pa i
nu bes</w>
ni co</w>
me ant</w>
mat h</w>
k ne
ju dge</w>
invol ved</w>
in t</w>
in o
hac erme</w>
fi ebre</w>
f light</w>
excel lent</w>
energ y</w>
empe zado</w>
dor mit
de cía</w>
cul ture</w>
compla ining</w>
bolí grafo</w>
añ as</w>
am aba</w>
Th en</w>
Sol ía</w>
S ent
Mexi co</w>
I .</w>
G i
F i
E li
Ameri cans</w>
volver á</w>
vo sotras</w>
vivi ó</w>
visi ta</w>
vi g
tram pa</w>
tar se</w>
su yo</w>
soport ar</w>
so le
si co</w>
shi t</w>
sali do</w>
rob ado</w>
pa ge</w>
na tion</w>
mot or</w>
mo od</w>
mi co</w>
mat ters</w>
ma me</w>
lon ely</w>
ll ar</w>
la ción</w>
ien tras</w>
ho mbr
fing ers</w>
estadouniden se</w>
est r
emple ados</w>
dro w
do ors</w>
dest ino</w>
descan so</w>
d -
cre en</w>
comple te</w>
cerr ó</w>
ca go</w>
bu tter</w>
bel ong</w>
b rain</w>
ayu de</w>
aver gon
arti st</w>
an gu
acab ó</w>
a fi
V end
M other</w>
M ientras</w>
M ant
ur o</w>
ti da</w>
ti cas</w>
thir d</w>
super market</w>
so br
r án</w>
portugu és</w>
poe m</w>
po der
pic nic</w>
pec é</w>
patien ce</w>
lo so
ke t
intelig encia</w>
in ven
in spi
in ar</w>
há bi
her ido</w>
hap s</w>
hand ed</w>
gras s</w>
fí sica</w>
fá bri
fon d</w>
fla g</w>
fif teen</w>
excel ente</w>
escal eras</w>
ent endido</w>
eleg ir</w>
dro pped</w>
discu tir</w>
di os</w>
consi d
con e
com er
class room</w>
bu m</w>
ba i
arti sta</w>
arreg lar</w>
ar chi
appreci ate</w>
alegr a</w>
a h</w>
Rus sia</w>
Pre fer
Oc to
Mu cha</w>
últi mamente</w>
ó s</w>
í ais</w>
wh enever</w>
w ol
ur es</w>
super mercado</w>
stu ff</w>
st ing</w>
son gs</w>
sm all
re par
raz os</w>
port es</w>
pantal ones</w>
p ha
oí r
oc ra
ning uno</w>
moun tains</w>
mo ving</w>
mi ra</w>
matrim onio</w>
ma in</w>
li m
land s</w>
l ados</w>
k ay</w>
invi te</w>
ing ing</w>
in fin
i das</w>
human a</w>
hob by</w>
ho le</w>
he aring</w>
hac erse</w>
gra ve</w>
gor do</w>
fres co</w>
fi xed</w>
faci lidad</w>
fa il
f lies</w>
estu ve</w>
est s</w>
en cen
ed en</w>
du ty</w>
deser ve</w>
cul par
con fir
cli m
cas ar</w>
cas ada</w>
be tr
band era</w>
b un
au t
ar les</w>
an illo</w>
ag arr
ac ter
ab sence</w>
Ru sia</w>
Quer és</w>
I m
A cep
y enes</w>
wh om</w>
weir d</w>
vi era</w>
va tion</w>
tur no</w>
tu bre</w>
tiv amente</w>
titu de</w>
temper atura</w>
tar i
st eri
ro e</w>
rat ón</w>
profes sor</w>
po is
po bres</w>
pens ado</w>
multi tud</w>
mi erda</w>
mayo res</w>
mant e
mante quilla</w>
mal as</w>
key board</w>
ju mped</w>
ja zz</w>
inter est</w>
ing re
in gu
imag ine</w>
gu ste</w>
for ms</w>
fe ver</w>
ex ag
est ed</w>
esper ado</w>
es c
entr en
en car
el eph
ec en</w>
e tas</w>
de a
curi o
cul pe</w>
cu ello</w>
consi guió</w>
ci ans</w>
chang es</w>
ch emi
ce an</w>
cant ando</w>
cant a</w>
cabal los</w>
brus h</w>
at re
ascen sor</w>
arti cle</w>
al quil
af ec
abi lidad</w>
S ay</w>
R em
Par eces</w>
Octo ber</w>
Mé xico</w>
M om</w>
E ach</w>
Di jo</w>
5 00</w>
últi mos</w>
z or
yon d</w>
volver é</w>
ver se</w>
to mo</w>
th row</w>
tec lado</w>
t ano</w>
stom ach</w>
so oner</w>
sir ve</w>
shou l
produ ce</w>
pota toes</w>
po dido</w>
pl ants</w>
pa ying</w>
os amente</w>
olvid é</w>
ob jec
mater na</w>
man s</w>
magaz ine</w>
lat ín</w>
huev o</w>
hel ps</w>
hab le</w>
gra cia</w>
g l
fu iste</w>
fal da</w>
factor y</w>
escri bir
dro p</w>
dere chos</w>
cor respon
cor re</w>
con vince</w>
con ciencia</w>
co ur
co stó</w>
cali dad</w>
ca st</w>
c un
b rió</w>
b eso</w>
au ment
ali st</w>
alegr ía</w>
al low</w>
L a
Fu imos</w>
v ender</w>
v ely</w>
teach es</w>
sti ck</w>
st ro
spi ri
son ó</w>
soldi ers</w>
soci ety</w>
sen si
ro man
ri age</w>
resul tó</w>
re tir
r ang</w>
qui r
pu se</w>
preten ded</w>
po ema</w>
pare ció</w>
oto ño</w>
ni vel</w>
me al</w>
manej ar</w>
man aged</w>
m ando</w>
lin do</w>
invi tados</w>
in -
ho gar</w>
her ida</w>
hab erme</w>
h é
fi le</w>
f f
ex pe
est ri
escri tor</w>
ent reg
elev ator</w>
e tes</w>
e e</w>
di ci
desayun ar</w>
contr ario</w>
comien zo</w>
co gió</w>
chil d
can ciones</w>
bir th</w>
bi te</w>
b razos</w>
al a</w>
a tive</w>
S hut</w>
Quiz ás</w>
Po lish</w>
J un
Is lam</w>
Fir st</w>
Euro pe
A t
ú s</w>
vie jos</w>
vi das</w>
vac ía</w>
trat ar</w>
ten ías</w>
suit case</w>
sleep y</w>
religi ón</w>
relation ship</w>
pro mesa</w>
po cket</w>
pedir le</w>
olvi dar</w>
neces idad</w>
n urse</w>
musi cal</w>
mid night</w>
medi odía</w>
lu ces</w>
llev as</w>
lle vo</w>
kin ds</w>
ju go</w>
jo kes</w>
j acket</w>
in fec
in ci
great est</w>
gent le
friend ship</w>
fre edom</w>
fas hi
expli car
dul ces</w>
di ag
d are</w>
cor ta</w>
conversa ción</w>
cono cen</w>
co st
clou ds</w>
ci ous</w>
bro me
beg ins</w>
ava il
au tor
att emp
apr endido</w>
appe ared</w>
al ed</w>
abi erto</w>
S ud
Qui en</w>
Ol vi
Ning uno</w>
Ci erra</w>
C D</w>
é ste</w>
z z
wor kers</w>
vi sor</w>
ur os</w>
trans lat
to ma
th anks</w>
ten és</w>
temper ature</w>
tal e</w>
t enta</w>
suc ces
su st
star ts</w>
st am
son rió</w>
so por
si c</w>
sel f-
s hap
res em
ra ined</w>
qui to</w>
pro per
pre stado</w>
p ants</w>
ob li
ni ght
n ames</w>
mou se</w>
medi anoche</w>
mañ anas</w>
materi al</w>
mal eta</w>
mad amente</w>
lo ck</w>
li t</w>
le ón</w>
ju d
indu stri
in ver
he cha</w>
hab ías</w>
h ill</w>
h es
gas ol
friend ly</w>
fortun e</w>
fl at</w>
fif ty</w>
f lau
extre madamente</w>
ever ywhere</w>
em er
el em
dre mos</w>
dis poni
dep ends</w>
den i
de tuvo</w>
danc ing</w>
d atos</w>
cr é
con virtió</w>
comen zar</w>
clas ses</w>
certain ly</w>
cerebr o</w>
car tera</w>
bol sillo</w>
bes ó</w>
be yond</w>
baj ó</w>
ay ed</w>
aus encia</w>
att acked</w>
af ford</w>
ab du
a ves</w>
W atch</w>
Vi ve</w>
V os</w>
Trab ajo</w>
I sn</w>
E at</w>
Aqu el</w>
An n</w>
1 2</w>
ógi co</w>
y eron</w>
ver á</w>
ven de</w>
to so</w>
sorpr end
sen sa
sab ido</w>
ro sas</w>
ri cos</w>
ra ised</w>
qu ality</w>
profun do</w>
pri son
pres ente</w>
pregun té</w>
popu lation</w>
poli te</w>
po bla
pisto la</w>
pis cina</w>
pien san</w>
pel e
pe dido</w>
pas aj
no sotras</w>
niñ as</w>
monta ñas</w>
ja il</w>
j er
hor mi
gen o</w>
fun dam
follo wing</w>
fail ure</w>
extr a</w>
employe es</w>
ei gh
earthqua ke</w>
du erme</w>
du cha</w>
dem ocra
de z</w>
condi tion</w>
ch ina</w>
cal ce
bat ter
avail able</w>
ar mas</w>
apar tamento</w>
ans wers</w>
ami entos</w>
abo li
a wake</w>
Tho mas</w>
S er
Po li
P ed
On ce</w>
Hun gar
C ali
Ber ber</w>
. 000</w>
z ada</w>
wonder ed</w>
wo ods</w>
verdad era</w>
velo cidad</w>
tr ó
tr o</w>
to w
tir me</w>
ti cal</w>
thir sty</w>
sui cid
str eng
sp ends</w>
sel dom</w>
rob aron</w>
ri ghts</w>
propos al</w>
prohi bido</w>
preocu par
pre star
pon dr
po llo</w>
pho to
pa tr
ot as</w>
oc tubre</w>
o th
nor malmente</w>
neighbor s</w>
neighbor hood</w>
mó vil</w>
ment al</w>
me tió</w>
ma ster</w>
logi cal</w>
le ad</w>
l est</w>
import ancia</w>
hand some</w>
hab éis</w>
gri ego</w>
gg ing</w>
g aron</w>
esfuer zos</w>
equ al</w>
empe zando</w>
ed ed</w>
e za</w>
e b
dormit orio</w>
do ble</w>
difficul ty</w>
die ta</w>
di ría</w>
deep ly</w>
deb ía</w>
de fe
d ness</w>
cor tó</w>
cor rió</w>
conversa tion</w>
con ec
co w</w>
can di
camin ando</w>
c era</w>
bl ing</w>
bebi endo</w>
apro xim
ap ped</w>
all er
agrad ec
acab ado</w>
Tar o</w>
S ea</w>
L lá
F e
Dis culpe</w>
ér gi
ér cito</w>
we b
val ue</w>
to tal</w>
ti sh</w>
suce dió</w>
sol ved</w>
so las</w>
s é
s ar
ries go</w>
re volu
re medio</w>
que br
profes ores</w>
pres sed</w>
preocu pa</w>
pobla ción</w>
na ción</w>
mu sul
me ter</w>
llam an</w>
justi cia</w>
ju i
j i
inten d</w>
ingen i
in útil</w>
histor ias</w>
gi a</w>
fra caso</w>
for tuna</w>
fi ca
escuch ó</w>
enem igos</w>
ei te</w>
distingu ir</w>
dise ase</w>
di o
di et</w>
di era</w>
de velop
cuar enta</w>
come ter</w>
clear ly</w>
ciud ades</w>
bus ca</w>
b right</w>
ap pli
ang es</w>
ad entro</w>
actu ar</w>
W ater</w>
V ete</w>
Tu vimos</w>
Sh ould</w>
Qui eren</w>
P ol
M an</w>
Li sten</w>
J ud
Intent é</w>
H ur
G an
Dé j
D or
A mo</w>
A h</w>
A frica</w>
2 5</w>
19 8
y ard</w>
wh er
tre ated</w>
trabaj adores</w>
stron ger</w>
soc ks</w>
si m
sh i</w>
s per
rema in</w>
regal os</w>
re min
re ina</w>
quer ido</w>
prepar e</w>
politi cs</w>
point ment</w>
pod éis</w>
pho to</w>
phi loso
per der
pa que
p é
o yó</w>
no ta</w>
ne ck</w>
nar anj
n one</w>
mot or
miembr os</w>
mem bers</w>
infor me</w>
imag en</w>
ha l
gon na</w>
gen es</w>
ge o
fu imos</w>
fin es</w>
ex pl
est ras</w>
est im
es quina</w>
en fr
eg g</w>
e ze</w>
e ful</w>
detal les</w>
deni ed</w>
dej é</w>
de fec
cros sed</w>
cont act</w>
con vi
con ta
compr ender</w>
com mitted</w>
ci dos</w>
child hood</w>
car i
cap tur
bur ned</w>
ben e
ari es</w>
ar mar
Tr ans
Si gue</w>
M er
E xi
Chi cago</w>
Ar abi
19 9
volun tad</w>
viol encia</w>
tuvi mos</w>
tranqui lo</w>
tendr é</w>
swe ater</w>
supi era</w>
strang er</w>
st ers</w>
seg ún</w>
seas on</w>
ru de</w>
room s</w>
reas ons</w>
re mar
pusi eron</w>
priv ate</w>
politi cal</w>
plac es</w>
p ath</w>
o ve
naranj as</w>
na tional</w>
mun dial</w>
mu rieron</w>
mir ada</w>
licen se</w>
land és</w>
inter és</w>
inst itu
in cl
habl aba</w>
good bye</w>
gg est</w>
gar es</w>
flau ta</w>
f ill</w>
extr aña</w>
expli có</w>
exist en</w>
enem ies</w>
effor t</w>
ed as</w>
ech ó</w>
e ber</w>
du e
dro gas</w>
dis puesto</w>
demo cr
de ce
cui dar</w>
condu ctor</w>
col ors</w>
ci ties</w>
cha r</w>
cast ig
bor r
bo x
bo le
bi ggest</w>
b att
antigu a</w>
achi eved</w>
a traves
a pu
Spe ak</w>
P á
O í</w>
Mus li
Fin almente</w>
Dur ante</w>
B re
Al though</w>
- in-
ó metros</w>
ár abe</w>
á monos</w>
wit ter</w>
val u
tri z</w>
tou ri
tor tu
to cando</w>
tar me</w>
tar lo</w>
sur ro
se an</w>
scen e</w>
sab erlo</w>
ro stro</w>
ri di
reci bido</w>
re cur
qued an</w>
que en</w>
preci os</w>
pr ác
parti cular</w>
offer ed</w>
nu mer
nit ure</w>
n am
muñ eca</w>
men es</w>
medi da</w>
mar r
m ac
lí n</w>
im pi
holi day</w>
habl ante</w>
h in
gh ten
fa ir
estadouniden ses</w>
ema il</w>
elec ción</w>
ej ército</w>
e con
econ ó
discu sión</w>
descans ar</w>
de pri
da ste</w>
cuad ro</w>
compañ eros</w>
come tido</w>
cle ver</w>
ci erta</w>
car ga</w>
ca ses</w>
bille tera</w>
b ell</w>
au tor</w>
au la</w>
ant eri
ambu lan
ac eite</w>
ab re</w>
Th ree</w>
T witter</w>
I ré</w>
H i</w>
G r
Est ábamos</w>
Es as</w>
Di j
Argent ina</w>
19 7
é poca</w>
your selves</w>
vir on
viol ence</w>
vien en</w>
tur ns</w>
ti mos</w>
th ou
terre moto</w>
su ya</w>
señ ora</w>
s wee
s port</w>
s amente</w>
ri que
res puestas</w>
polí tico</w>
podr á</w>
po ten
oc é
oc cur
obe de
mí ni
lo m
lar on</w>
l entamente</w>
igu ales</w>
ham bri
gr ados</w>
golpe ó</w>
fur niture</w>
fun eral</w>
expe cting</w>
et te</w>
es qui
e go
du mb</w>
do ll</w>
dis gust
dir é</w>
curi ous</w>
costu mbre</w>
condi ciones</w>
cl á
ci ego</w>
cast le</w>
cal cul
bol so</w>
bo mb
blan cas</w>
and s</w>
al f
al as</w>
aj es</w>
acti tud</w>
V e
U se</w>
Tr á
S usan</w>
S imp
Pu eden</w>
Pas é</w>
N one</w>
N either</w>
Go o
De cid
Braz ili
Ac tu
áti cos</w>
wri tes</w>
vu l
ver duras</w>
tuvi eron</w>
to y</w>
tele visor</w>
sig ned</w>
she ep</w>
rí e</w>
rist ó
res pi
requ est</w>
pregun tar</w>
pre st
pol vo</w>
po wer
po et</w>
pi ani
pas é</w>
oc cu
novel as</w>
mucha cha</w>
mi gr
mant u
man e
man ager</w>
lo sing</w>
li p
le tra</w>
le an</w>
kil ómetros</w>
ki e</w>
intellig ence</w>
in ado</w>
ha t
guap o</w>
gal a
fábri ca</w>
fore ig
fo o
flu te</w>
fici os</w>
fam osa</w>
f led</w>
f ence</w>
exci ted</w>
escap ed</w>
es pero</w>
en viron
em bre</w>
effor ts</w>
discu ss</w>
difí ciles</w>
descu brió</w>
d amos</w>
credi t</w>
conse cu
compli cated</w>
cast illo</w>
cal es</w>
b adly</w>
as co</w>
ar my</w>
am ar</w>
ad ing</w>
ac ciones</w>
abandon ó</w>
abandon ar</w>
abandon ado</w>
T an</w>
S mo
Re cuerdo</w>
P on</w>
M un
D ad</w>
B a
A u
wi de</w>
w an
vir tu
vein ti
tur al</w>
spre ad</w>
ser es</w>
s ánd
s ings</w>
responsab i
re d
re cuer
propi os</w>
pro por
pres s</w>
poni endo</w>
pel u
pe da
par e</w>
p ity</w>
om en</w>
ocur re</w>
mar riage</w>
ma estra</w>
l -
invent ed</w>
hábi to</w>
hes it
gel es</w>
g el</w>
fuer tes</w>
extr añ
emo cion
emer gen
dé bi
denti sta</w>
dem on
del e
cubi erta</w>
cru zar</w>
constru ir</w>
compla in</w>
comp raste</w>
co inci
cient ífi
bott om</w>
bor do</w>
armar io</w>
aller gic</w>
adi l</w>
ad dic
ac cording</w>
Th ink</w>
Simp lemente</w>
S ou
S cot
I mag
H aré</w>
F adil</w>
C al
A hí</w>
1 1</w>
1 0
z ona</w>
un less</w>
ti ed</w>
termin a</w>
tec no
tal lest</w>
sum ed</w>
suici de</w>
sub way</w>
su r</w>
streng th</w>
smil ing</w>
sil ence</w>
sen gers</w>
segu ido</w>
sal ary</w>
s ful</w>
romp er</w>
ren unci
re vel
r ías</w>
quer ría</w>
posi bilidad</w>
per mission</w>
op timi
no mbres</w>
miembr o</w>
menti ras</w>
mas co
lo ss</w>
lin es</w>
les son</w>
l los</w>
ju e
interna tional</w>
insec tos</w>
ingu al</w>
ingen u
in volu
ill ness</w>
i sta</w>
g ante</w>
fe o</w>
fac ts</w>
f esti
exam ination</w>
empe or
e uros</w>
dist ra
def en
de portes</w>
d aba</w>
cumpli r</w>
bille te</w>
bi ste</w>
baj ar</w>
b á
auth or</w>
atr acti
appe ars</w>
ap el
ang er</w>
alf ab
ad s</w>
ac coun
ab raz
a vent
V ale</w>
So is</w>
Ning ún</w>
Mar io</w>
Ho wever</w>
Gu erra</w>
Goo gle</w>
Car los</w>
Cali for
C at
A sia</w>
én es</w>
wi ches</w>
w ound</w>
v y</w>
tri un
tri bu
tra to</w>
ti vas</w>
tar ia</w>
su je
shar p</w>
salud able</w>
sal tó</w>
sal ada</w>
s our
s and</w>
responsabi lidad</w>
recei ve</w>
pro gram</w>
pro ces
pp y</w>
polí ticos</w>
pla yers</w>
ne ga
muer tos</w>
menti roso</w>
mathemati cs</w>
m ess</w>
llu eva</w>
le f
lam ent
l li
l ento</w>
il los</w>
human s</w>
g im
fa il</w>
es io</w>
er ing</w>
ent endi
econo mía</w>
di str
deser t</w>
cr as
const itu
compe ten
comien za</w>
co bar
bl ack
b ag
as om
alcan zar</w>
al érgi
al ej
agu ant
ad ol
actu al</w>
acab o</w>
abi li
ab an
Whi le</w>
W omen</w>
S tu
Pre si
P reg
Jes us</w>
Is ra
De ci
óni ca</w>
í ri
á rea</w>
vi va</w>
ve la</w>
vari ous</w>
v ar</w>
us eless</w>
to ward</w>
tin es</w>
ti re</w>
sur vive</w>
st yle</w>
squ are</w>
sombr a</w>
simp ly</w>
s ne
rema ined</w>
religi on</w>
reg ar
reci bir</w>
read s</w>
qui si
quer er</w>
qu ía</w>
pon erse</w>
pleas ant</w>
pl ant</w>
pat atas</w>
parec er</w>
on line</w>
nu ts</w>
nor te</w>
mí os</w>
mu e
mem ber</w>
lo ca</w>
lleg aron</w>
lar gas</w>
j ón</w>
invi tó</w>
identi fi
hun g</w>
human idad</w>
hosp it
ham bur
hac emos</w>
h ang</w>
gi p
geni al</w>
gen io</w>
f our
f arm</w>
est aré</w>
es s
es cen
elec tion</w>
elec ciones</w>
e en</w>
débi l</w>
dre w</w>
des pedir
da l</w>
d ores</w>
cré dito</w>
cont estar</w>
confu sed</w>
compu ters</w>
cin tur
ci erra</w>
cha queta</w>
ch i</w>
bil ingü
assu me</w>
as u
amig as</w>
ameri cano</w>
alter na
al tos</w>
agre ement</w>
ad mir
ac ceso</w>
aban don</w>
a pagar</w>
Prefer iría</w>
Per dón</w>
P r
Nor malmente</w>
J ust
Con si
Califor nia</w>
Bu enos</w>
Be ing</w>
B el
-in- law</w>
ú rate</w>
ándo me</w>
wil d</w>
vict oria</w>
vi rus</w>
vac ío</w>
trabaj ó</w>
to có</w>
to alla</w>
ti ght</w>
tendr ás</w>
tel ls</w>
tant os</w>
t áni
t ades</w>
suc ed
spe ed</w>
soli ci
so is</w>
sin cer
scre en</w>
s at
respe to</w>
rela x</w>
reg la</w>
re sist
quir re
qui ck</w>
qued aron</w>
qu ar
pun ished</w>
pes ado</w>
perfec tly</w>
par eces</w>
p sy
odi an</w>
ocup ados</w>
obe y</w>
mo ver</w>
mo tivo</w>
llegar á</w>
li ons</w>
ing ly</w>
incre di
i za</w>
i te</w>
ha ted</w>
ha ir
h ero</w>
fu eras</w>
fall en</w>
f an</w>
es cena</w>
empe z
em erg
el even</w>
eg an</w>
dru gs</w>
do y</w>
din o
des ig
dea f</w>
de ten
d aron</w>
d ama</w>
cu yo</w>
cop y</w>
civi liz
cigar ri
chi ste</w>
charac ter</w>
ch est</w>
car se</w>
cal les</w>
bu ried</w>
ber eber</w>
bebi da</w>
avo i
arri es
am o
all s</w>
agr ada</w>
ac cess</w>
a ven</w>
W il
Sun days</w>
S ol</w>
Por que</w>
Per haps</w>
Lle gué</w>
E gy
Di ce</w>
Dej é</w>
De t
Con oc
Cam in
Brazili an</w>
Be fore</w>
Arabi c</w>
ú dame</w>
ícu los</w>
é monos</w>
z ing</w>
z er
z an
w ad
ví cti
ver la</w>
up set</w>
univer sal</w>
travel ing</w>
tow el</w>
ti llo</w>
th in</w>
st ry</w>
ser ve</w>
se vent
sab or</w>
sab i
s cu
remem ber
refriger ator</w>
rar ely</w>
pu tting</w>
posi te</w>
po eta</w>
plac ed</w>
pe gó</w>
or anges</w>
ob ses
o cean</w>
news papers</w>
mon tar</w>
mil las</w>
mi el</w>
me ta</w>
lo cos</w>
lo cated</w>
li ps</w>
kin dness</w>
involu cr
introdu ce</w>
intelig entes</w>
instru cciones</w>
in dis
i des</w>
har m</w>
h il
gre es</w>
grat u
gra p
gi eron</w>
fall ing</w>
f o</w>
esti lo</w>
est ru
escap ar</w>
ent err
ent era</w>
em esio</w>
destro yed</w>
denti st</w>
d arse</w>
consist s</w>
consi go</w>
com a</w>
col ina</w>
clo ser</w>
ci ento</w>
cho se</w>
cel u
ce dió</w>
ca e</w>
c ell</w>
bu ses</w>
brill ante</w>
bre ve</w>
averigu ar</w>
aqu ello</w>
an si
amo unt</w>
a ci
Preg ún
Pod éis</w>
N emesio</w>
M al
Lle va</w>
Jun e</w>
Haz lo</w>
H ol
Est aban</w>
Des pi
Á frica</w>
war ned</w>
vi cti
tro zo</w>
tra er</w>
tra e</w>
tor s</w>
to oth
ten se</w>
tant as</w>
t ask</w>
sor s</w>
sol amente</w>
sil las</w>
servi ce</w>
sali da</w>
s co
ro ses</w>
ristó bal</w>
recogni ze</w>
ra ci
r an
pu lled</w>
pre v
pl enty</w>
pl anta</w>
perió dicos</w>
peque ñas</w>
paque te</w>
ous ness</w>
op ening</w>
ol or</w>
ob tener</w>
no vi
negr a</w>
mu m</w>
mari pos
lu gares</w>
llam aré</w>
liter atura</w>
levant arse</w>
le í</w>
le yó</w>
jun io</w>
in evi
impro ve</w>
import antes</w>
i ón</w>
i gh
i P
hé roe</w>
hombr o</w>
gentle man</w>
fur ther</w>
for ce</w>
foo lish</w>
fa ith</w>
estúpi da</w>
emergen cy</w>
dri ves</w>
disappe ared</w>
deta ils</w>
demo str
de cor
coo ked</w>
conven i
contr ase
com mun
claim ed</w>
cion ales</w>
cer em
cap aces</w>
cand y</w>
calce tines</w>
caball ero</w>
ca das</w>
bo w</w>
ban da</w>
añ adi
ayud arnos</w>
av an
asesin ato</w>
ari amente</w>
appe ar</w>
apar t</w>
and ando</w>
an cias</w>
ad mini
ac ts</w>
ab lo</w>
Tur k
Tu es
N ací</w>
Mu sic</w>
Jes ús</w>
Hur ry</w>
Cui dado</w>
C ristóbal</w>
C ats</w>
Bri tish</w>
20 0
wad ays</w>
w l</w>
vuel vas</w>
vot ed</w>
vi sa</w>
ver s
vent ud</w>
v ard</w>
us ado</w>
under stands</w>
tem bl
suspe ct</w>
suf fer</w>
suel to</w>
succe eded</w>
sno wing</w>
san gr
s ano</w>
s am
ru g
ro pe</w>
respon sibility</w>
regres ó</w>
re un
ra me</w>
r ami
quer ían</w>
pu ertas</w>
produc tos</w>
pro ve</w>
pie zas</w>
pas sengers</w>
pa tio</w>
op her</w>
ol es</w>
océ ano</w>
obvi ous</w>
nu clear</w>
no is
mu tu
mar tes</w>
lá m
limpi a</w>
le mos</w>
le cción</w>
is sue</w>
imagin ación</w>
hor ses</w>
her s</w>
ha z
grat eful</w>
go at</w>
ght ly</w>
fle w</w>
fantas mas</w>
fal se</w>
fal le
f li
f las
extra ordin
ex cuse</w>
ent y-
electr ónico</w>
di le</w>
desi erto</w>
delici oso</w>
de vi
curio sidad</w>
cuidad oso</w>
conven cer</w>
conf li
con gel
col our</w>
clim bed</w>
citi zen</w>
ch it
cerr ado</w>
ca bra</w>
bri táni
br an
boo k
bi le</w>
bas ed</w>
aw ful</w>
aver age</w>
ata que</w>
at e
aspec to</w>
ar os</w>
anteri or</w>
ac ting</w>
W hatever</w>
V al
Turk ish</w>
Mon ey</w>
M as
Har vard</w>
Cu én
Christ opher</w>
C lose</w>
C lar
Al -
ógi ca</w>
yo u
y i
wel l-
wea k</w>
v ate</w>
un tos</w>
tí mido</w>
tw enty-
travel ed</w>
total ly</w>
th or
ten d</w>
tam año</w>
suel en</w>
sti ó</w>
sion al</w>
si as
shoul der</w>
sho ws</w>
señ al</w>
senci llo</w>
ru b
repe at</w>
rema ins</w>
regu lar</w>
refu se</w>
re quiere</w>
qued amos</w>
pru e
prohi b
por ted</w>
pl ata</w>
pi co</w>
ph otos</w>
pasaj eros</w>
pa y
pa ti
ow ner</w>
ou gh
ore jas</w>
op posite</w>
op e</w>
on d</w>
o kay</w>
na cional</w>
mu ere</w>
mi sión</w>
men u</w>
logr ó</w>
list os</w>
la id</w>
l ating</w>
jugu ete</w>
ju ventud</w>
in depen
i remos</w>
hubi ese</w>
high ly</w>
hici mos</w>
fu ck</w>
fi lo
estab le
encontr amos</w>
electri c</w>
due ño</w>
deci dir</w>
continu ed</w>
compañ ero</w>
coment arios</w>
co se
cal ma</w>
brome ando</w>
bili dades</w>
azu les</w>
ayud ara</w>
apar te</w>
ap pointment</w>
anno ying</w>
amaz ing</w>
al cal
ador as</w>
acep tó</w>
a stu
a king</w>
W ho
Vo sotros</w>
Uni ver
Tr adu
Smo king</w>
Qué date</w>
Pu es</w>
Hi ci
E r
Con tin
Ber lín</w>
Ber lin</w>
4 0</w>
vol ando</w>
vig il
vi sta
vista zo</w>
vent aja</w>
ve h
un g</w>
tre at
tor re</w>
tom é</w>
tech no
ta ge</w>
st en
st at
sospecho so</w>
shel f</w>
segu ros</w>
se x</w>
salv ar</w>
sacri fi
sab le</w>
sa ke</w>
s que
s n
res cu
regres ar</w>
pun ta</w>
prefer ido</w>
power ful</w>
p tion</w>
orgullo sa</w>
or ders</w>
novel s</w>
no tas</w>
ne u
mit es</w>
mes as</w>
men d</w>
lu m
liter ature</w>
lat ely</w>
lar ger</w>
l ace</w>
it or</w>
it ely</w>
ir nos</w>
ing ton</w>
ide z</w>
ha m</w>
ga in</w>
fri dge</w>
fo x</w>
flu idez</w>
expres s</w>
eng ine</w>
econo my</w>
e cho</w>
durmi ó</w>
dro ve</w>
dra g
dist ur
disponi ble</w>
disculp as</w>
de grees</w>
cul ous</w>
conocer te</w>
come tió</w>
com pos
clas si
cintur ón</w>
cer cana</w>
capit án</w>
bra ve</w>
b ing</w>
audi ence</w>
attr active</w>
arre pen
am an
al pha
afortun adamente</w>
absur d</w>
Vi vimos</w>
V er
T anto</w>
Sha ll</w>
S wit
P ablo</w>
Cual quier</w>
A pri
A ll
1 8</w>
1 5</w>
ven ida</w>
ti ckets</w>
thi ck</w>
ter i
ten éis</w>
tecno logía</w>
succes sful</w>
su bió</w>
su bir</w>
sex u
s mo</w>
ro jas</w>
ri se</w>
regal ó</w>
ra pi
qued aré</w>
produc to</w>
princi pal
prepar ando</w>
pin tar</w>
per for
per dón</w>
pa gó</w>
pa gar
na ve
mil y</w>
mi ó</w>
men ú</w>
mejor ar</w>
lo bo</w>
llev an</w>
l y
l abi
kilo meters</w>
invi tado</w>
investi gación</w>
interna cional</w>
instru ctions</w>
in qui
import ar</w>
hubi eras</w>
har ías</w>
habl amos</w>
h ang
gu a</w>
gran ja</w>
ga tion</w>
g res
flu ently</w>
estu pen
est én</w>
escondi endo</w>
enfer mera</w>
descri be</w>
der ro
democra cia</w>
decir lo</w>
d alo</w>
cor n</w>
coo per
con cep
co llar</w>
cli mb</w>
cli mate</w>
cis m</w>
c esto</w>
bom ba</w>
bil ingual</w>
be ard</w>
b ello</w>
au tos</w>
atten ded</w>
arre pi
ant ed</w>
am ing</w>
alim ent
agu jero</w>
adol esc
accomp ani
a caso</w>
Se ñ
Sab emos</w>
S we
S ay
Qu ed
Par ecía</w>
P lan
Mu é
Gu ar
F o
Est abas</w>
Co o
C la
í stica</w>
é sta</w>
zu mo</w>
win ning</w>
whi st
web site</w>
ven gas</w>
urg ent</w>
u red</w>
to wards</w>
to mas</w>
ti ste</w>
ti pos</w>
tho ven</w>
tal o</w>
sud den</w>
ster io</w>
so ft</w>
small er</w>
si vo</w>
sho ot</w>
serpi entes</w>
sel ec
s quirre
s cr
res pir
pod amos</w>
physi cs</w>
pass word</w>
pap as</w>
pai red</w>
pa te</w>
p esa</w>
p .m.</w>
o la</w>
motor cycle</w>
mor tal</w>
mon eda</w>
mill ón</w>
mi cro
maravillo sa</w>
lo go</w>
ley es</w>
levant a</w>
lev el</w>
k espe
kespe are</w>
j ur
j am
ir on</w>
invi tación</w>
interru mpi
increí ble</w>
in sist
il legal</w>
ig h</w>
he ar
ha da</w>
gu ests</w>
geni us</w>
g alo</w>
fran cesa</w>
f ts</w>
ev entu
escri bí</w>
eng ine
em baj
e zco</w>
e tt
e thoven</w>
di plo
desper tó</w>
de cl
cul tural</w>
cre ate</w>
cor tar</w>
contr ato</w>
consider ado</w>
conoc emos</w>
cient ífico</w>
che ap
ch ando</w>
cele bra
cas os</w>
cap tain</w>
be coming</w>
bar ba</w>
aus ente</w>
argu ment</w>
apar ien
an zas</w>
amar illo</w>
admi tir</w>
accid entes</w>
a za</w>
Yu mi</w>
Who ever</w>
Tues day</w>
Sou th</w>
Sha kespeare</w>
S end</w>
Pod és</w>
P ru
N ext</w>
M ayu
I r
E mily</w>
E i
Do gs</w>
D r.</w>
Be ethoven</w>
3 00</w>
2 4</w>
ún gar
íri tu</w>
w ings</w>
vol viendo</w>
vi ty</w>
vend ría</w>
v esti
uti liz
tr usted</w>
thou ghts</w>
swe ar</w>
survi ved</w>
sugg est</w>
sor t</w>
son ar</w>
smar ter</w>
ser án</w>
sel ls</w>
sali endo</w>
ru ined</w>
rique za</w>
rep ly</w>
rela j
re ír
re pair</w>
ra tion</w>
ra se</w>
r í</w>
quer éis</w>
pu s</w>
produ ct</w>
pro ve
po es
pes adi
par ts</w>
p ti
ocul tar</w>
occur red</w>
o í</w>
musul man
mu ro</w>
mo bile</w>
min tió</w>
medi os</w>
ma in
la ws</w>
ket ball</w>
invent ó</w>
inten to</w>
insec ts</w>
ing res
im puestos</w>
horiz on
har m
ha y
h úngar
graci oso</w>
ger ente</w>
extr ater
evi dence</w>
escucha do</w>
environ ment</w>
en sa
en ced</w>
ele gido</w>
el en</w>
direc tion</w>
dificul tad</w>
descubri r</w>
de ber</w>
da ñ
cu s</w>
contrase ña</w>
chang ing</w>
cha mpi
cas ados</w>
ca mos</w>
c ón</w>
c é</w>
c ante</w>
bu tter
bu cket</w>
bo te</w>
ble w</w>
betr ayed</w>
be bió</w>
b asi
at titude</w>
ari as</w>
apa gó</w>
antigu o</w>
anci ana</w>
an xi
air plane</w>
adv ance</w>
ad ded</w>
a fe
Ven ga</w>
V es</w>
Tok i</w>
S il
Rem ember</w>
Qu err
Pon te</w>
Pi cas
P al
Mor e</w>
Mayu ko</w>
Llá mame</w>
L una</w>
Isra el</w>
I I</w>
Hungar ian</w>
Di je</w>
D ev
Christi an</w>
Cho ose</w>
An y</w>
19 6
1 6
éndo se</w>
á culo</w>
visi tado</w>
vege tari
vac as</w>
vac a</w>
un da
u ñas</w>
tró leo</w>
tre ce</w>
tra p</w>
tou ched</w>
t esti
sugg ested</w>
su ger
st ima</w>
speci es</w>
some day</w>
sno w
se pas</w>
sand wich</w>
sal ad</w>
sab io</w>
r ado</w>
pun tos</w>
propi as</w>
prog ress</w>
prepar ar</w>
pon gas</w>
poes ía</w>
pod és</w>
pla in</w>
pe tróleo</w>
pa gan</w>
p si
p ack</w>
no te
na ive</w>
n ad</w>
much ísimo</w>
mon te</w>
me ter
m ada</w>
li da</w>
la di
ki lo</w>
k ness</w>
ju mp</w>
interru p
intent arlo</w>
inf ancia</w>
in si
impor taría</w>
il es</w>
ho ping</w>
hermo sas</w>
her rami
hab a</w>
ha gan</w>
h áb
gra y</w>
gr is</w>
g én
fre qu
f ísi
expl or
espe ct
enamor ada</w>
eli min
elec ted</w>
do w</w>
die ci
depar tamento</w>
decep cion
de vil</w>
d al
cu re</w>
continu ar</w>
cont ado</w>
condu ce</w>
concer ned</w>
com mit
com as</w>
col n</w>
ch er</w>
cal uro
c to</w>
bi o</w>
b en</w>
atr op
as untos</w>
am s</w>
allo ween</w>
alcal de</w>
ad ura</w>
acer có</w>
accompani ed</w>
ac com
abili ties</w>
ab str
Vu elve</w>
Th ings</w>
S anta</w>
Nu estros</w>
Mun dial</w>
Men nad</w>
Lin coln</w>
H on
H alloween</w>
D udo</w>
Ch ec
B lack</w>
B aj
Aust ria</w>
1 4</w>
é tico</w>
z es</w>
z ados</w>
wol f</w>
wal ks</w>
vien es</w>
ver nos</w>
vali ente</w>
tw are</w>
tre as
trat ado</w>
tr ig
t ted</w>
t ina</w>
suel do</w>
su spen
st ones</w>
si le
shap e</w>
sha me</w>
senti miento</w>
sensi tive</w>
sen sible</w>
sch edu
sal es</w>
sal ario</w>
s ó
s ado</w>
s .</w>
rat as</w>
r ó</w>
qui z
pu ta</w>
pu ra</w>
pres sure</w>
permi tir</w>
pe cho</w>
pat as</w>
pa sión</w>
ocurri do</w>
no ble</w>
ni ca</w>
near est</w>
mé todo</w>
mue bles</w>
mu estra</w>
mis mas</w>
maravillo so</w>
ma st
jug adores</w>
j ab
incre ase</w>
in fi
ho mo
ha bido</w>
h ú
good -
gol pe</w>
for mu
fi la</w>
er tos</w>
entend í</w>
en seguida</w>
eleph ant</w>
e cia</w>
dur ó</w>
dra wing</w>
di gan</w>
descu bi
de bate</w>
d ata</w>
cu ant
contr act</w>
compr a</w>
co star
celu lar</w>
c ts</w>
brea the</w>
blan cos</w>
ber ries</w>
bel t</w>
be ars</w>
batt le</w>
bas ketball</w>
bal on
ba se</w>
at ac
astron au
as s</w>
apre sur
any way</w>
al eg
agrade cido</w>
admi tió</w>
ach ing</w>
ac le</w>
ac cor
abo ard</w>
a is
a c</w>
Y ou
Vi si
To masa</w>
T res</w>
Picas so</w>
P ona</w>
Kore an</w>
I D
Cre ía</w>
Co lom
Apri l</w>
A su
A na</w>
ú tiles</w>
weal th</w>
va se</w>
va in</w>
ther n</w>
ter ms</w>
tent ación</w>
tendr ía</w>
su ave</w>
stre ets</w>
spea kers</w>
ser ás</w>
sem ej
s pl
ridi culous</w>
ri to</w>
recor d</w>
recom mend</w>
re paired</w>
re moved</w>
r ink</w>
pu ll</w>
promis es</w>
prohib ited</w>
pri ces</w>
pre fiero</w>
pon ga</w>
plu ma</w>
pied ras</w>
pi ri
peri od</w>
perfec tamente</w>
pens amientos</w>
pas ear</w>
pant alla</w>
p ó</w>
orig en</w>
ol ógico</w>
ofre ció</w>
no c
míni mo</w>
mu st
movi miento</w>
mis er
medi ca
ma ge</w>
llam arme</w>
lla me</w>
le ta</w>
l ingü
l ando</w>
l ada</w>
l ac
kno wing</w>
jo bs</w>
j am</w>
invi tation</w>
inter ior</w>
intent ado</w>
in na</w>
import ance</w>
i do
i b</w>
histor i
hier ro</w>
ha r</w>
h í
h i</w>
gust ado</w>
gu antes</w>
gro wing</w>
gho st</w>
g loves</w>
foto grafía</w>
fal so</w>
f ought</w>
extranj era</w>
exha usted</w>
er ry</w>
equi pa
envi ar</w>
en salada</w>
en e</w>
en c
emerg encia</w>
elef ante</w>
electri city</w>
du st</w>
dru g</w>
dream ed</w>
dor o</w>
dificul tades</w>
desper té</w>
desper tar</w>
dej aron</w>
cou ch</w>
cont est
coment ario</w>
co re
cle aning</w>
cin ema</w>
cel ona</w>
caus ó</w>
car acter
cans ados</w>
cambi a</w>
ca fe
c ú
bra sile
au mento</w>
appe ar
app y</w>
ang el</w>
anci ent</w>
alim entos</w>
ali sta</w>
ali ens</w>
al mo
al ism</w>
al d</w>
af il
adi ós</w>
ad me</w>
acab ar</w>
ac ces
a stic</w>
W al
Vay a</w>
Tr ata</w>
Tan inna</w>
So bre</w>
Segu ro</w>
S tar
Ped ro</w>
Ob vi
Me g</w>
M is
K en
Jud y</w>
Gen er
G ali
Em pecé</w>
E mpi
Dur ing</w>
Bar celona</w>
Al- Say
2 3</w>
1 9</w>
we igh
vot ar</w>
volun te
vi tam
un likely</w>
un able</w>
u elo</w>
tí tu
trabaj aba</w>
tra ído</w>
tion ed</w>
tien de</w>
ther wise</w>
th ered</w>
te en
tal ent</w>
tab l
ta il</w>
t ér
t éc
t ough</w>
sé ñ
suffer ing</w>
su pper</w>
su bi
ster y</w>
ste aling</w>
st itu
sal ón</w>
sab ías</w>
s word</w>
rápi da</w>
rest res</w>
regi str
recogni zed</w>
pág inas</w>
prác tica</w>
prin cesa</w>
pregun taba</w>
pre star</w>
pon ente</w>
pon ent</w>
pol aco</w>
poem s</w>
podr íamos</w>
opini ones</w>
on de</w>
o bras</w>
nad ando</w>
mos lo</w>
mo mentos</w>
mo dos</w>
meth od</w>
men tion</w>
lo wer</w>
llor ó</w>
lle gamos</w>
lam p</w>
labi os</w>
la me</w>
justi ce</w>
jo king</w>
institu to</w>
inevi table</w>
imagin ation</w>
il lu
holi days</w>
ho pes</w>
ho ja</w>
hel lo</w>
har emos</w>
hab erse</w>
h ington</w>
gri tó</w>
gasol ina</w>
g ano</w>
fri ghten
for ty</w>
fem ale</w>
fe cha</w>
estudi ado</w>
est or
est arás</w>
especi e</w>
esp ada</w>
equivo cada</w>
en vió</w>
emple ado</w>
electri cidad</w>
divi ded</w>
di fi
di al
dese ando</w>
de o</w>
cor rup
conoci da</w>
cone jo</w>
con tiene</w>
comple x</w>
commun ity</w>
co us
cigar ette</w>
chi ef</w>
car es</w>
can to</w>
cam pe
c i</w>
bu sti
bo mb</w>
be ings</w>
be bo</w>
batter y</w>
bar rio</w>
autom ó
at orio</w>
as sumed</w>
arreg lar
aproxim adamente</w>
apel lido</w>
an es</w>
agarr ó</w>
afortun ado</w>
ac ta</w>
abri l</w>
ab ly</w>
a propi
a k
Was hington</w>
Qu í
Pens aba</w>
Olvi dé</w>
K ab
J ones</w>
Con f
Al-Say ib</w>
A cab
í z</w>
í ste</w>
í da</w>
é tica</w>
á cti
zer land</w>
zan ahor
you th</w>
wher ever</w>
vol ví</w>
vend en</w>
ve ter
v ano</w>
ur as</w>
tum n</w>
to ms</w>
tir ó</w>
terr ori
ter m</w>
temp tation</w>
sí m
sím bo
surro unded</w>
su cia</w>
sti cas</w>
st ances</w>
sof a</w>
sna kes</w>
reci entemente</w>
r é
pu ppy</w>
pri sion
po bre
pi lo
ph ones</w>
per cent</w>
par ently</w>
p he
p and
om it
na ils</w>
n el</w>
mú sico</w>
mat ado</w>
lo cura</w>
limpi o</w>
lec tura</w>
lead er</w>
lar io</w>
la sted</w>
knowle d
kid ding</w>
ki cked</w>
k u</w>
j ate</w>
in d
im presión</w>
i de</w>
hu mo</w>
hon ey</w>
hol ding</w>
hi re</w>
he avi
gu emos</w>
gr anted</w>
fu ente</w>
fi l</w>
fe ty</w>
f era</w>
f atal</w>
ex presión</w>
ex change</w>
estu pi
estru c
escal era</w>
er ás</w>
equipa je</w>
ent en</w>
el o
effec tive</w>
ear ning</w>
e ti
di men
di llas</w>
desi re</w>
deser ves</w>
demasi ada</w>
dej aré</w>
defin itely</w>
dec ír
có moda</w>
cur rent</w>
cu entas</w>
conta gi
con so
co ra
ci ma</w>
ced er</w>
cami se
ca pa
ca mar
bat ería</w>
bat alla</w>
bas ket</w>
ban ana</w>
b on</w>
b el</w>
au ri
asi de</w>
as sist
apr endió</w>
apr ende</w>
apo y
anno un
am an</w>
al arma</w>
ador able</w>
adecu ado</w>
acus ado</w>
aco star
ac tions</w>
ac el
T ras</w>
Swit zerland</w>
Sud denly</w>
Pre gun
M os
M en</w>
Lle gó</w>
Ko be</w>
I g
H appy</w>
Es co
D ale</w>
Co men
Bu y</w>
B r
1 3</w>
z ón</w>
yi el
w ha
vini eron</w>
vi vos</w>
ver ty</w>
ver des</w>
ve a</w>
v or
v ag
uni que</w>
tur ning</w>
tra go</w>
to ques</w>
tir á</w>
ti llas</w>
techno logy</w>
tar eas</w>
tabl ero</w>
t as
su gi
st al</w>
st al
sof tware</w>
ski ing</w>
sel y</w>
sabi dur
sabidur ía</w>
sa ving</w>
ro le</w>
rid ículo</w>
recom end
re ve
re v
pro mo
poem as</w>
per fu
pel ear</w>
pasa tiempo</w>
parti da</w>
par t
oc ca
musi cian</w>
mu eve</w>
mu erta</w>
mol esto</w>
mo tiv
mi sterio</w>
medica mento</w>
medi cal</w>
mbr a</w>
li ft</w>
lef to
le mon</w>
inter ro
imagin ar</w>
high er</w>
hi dden</w>
hap pi
ha bilidad</w>
gu iendo</w>
gi endo</w>
gho sts</w>
ga ined</w>
fuer zas</w>
fre ez
fr ust
festi val</w>
fav ou
exi sts</w>
escon der
entu sias
efec to</w>
e ció</w>
dor mí</w>
dej ara</w>
de pressed</w>
de jo</w>
có p
cuán tos</w>
cre ati
cre as</w>
cre ar</w>
confer encia</w>
con tains</w>
compla ined</w>
compar tir</w>
co s
co in</w>
clo set</w>
cli entes</w>
circu m
cid ades</w>
cheap er</w>
cer do</w>
car ro
cal ent
bur ning</w>
bor ro
ble eding</w>
balon cesto</w>
atrap ado</w>
ar ily</w>
ar gue</w>
ar añas</w>
alpha bet</w>
W o
Ro bert</w>
Pri mero</w>
Pien sas</w>
P hi
Nor th</w>
In tenta</w>
Hi zo</w>
H an
Europe an</w>
D en
Coo kie</w>
C ambi
Bu enas</w>
A seg
A br
ór den
órden es</w>
í b
wor n</w>
wor ker</w>
w ins</w>
visi ón</w>
visi ting</w>
viol ín</w>
ur gente</w>
uni for
translat or</w>
ti n</w>
tes oro</w>
ten iendo</w>
t anos</w>
suspi cious</w>
super ior</w>
sup pose</w>
su cio</w>
stru c
st age</w>
spiri t</w>
sour ce</w>
sof ía</w>
soci ales</w>
sleep s</w>
sil ly</w>
si esta</w>
shi ps</w>
ser é</w>
sent ada</w>
sensa ción</w>
sa ges</w>
s col
s co</w>
s cal
rep ent
remember ed</w>
regi ón</w>
reco ger</w>
pu sh</w>
pu re</w>
pro mesas</w>
prev ent</w>
preguntar le</w>
po t</w>
po llu
perfec ta</w>
non -
mir aba</w>
men tir</w>
mar k</w>
l inter
l abor
kno cked</w>
jour n
insul t</w>
ini ci
independ ent</w>
in fer
impres sed</w>
im per
ignor ancia</w>
hu m
hu g</w>
hi r
hab erle</w>
gu ía</w>
gu ard</w>
gri tar</w>
gr ado</w>
fun ción</w>
fru tas</w>
favou rite</w>
extr años</w>
experim ent</w>
est all
especi almente</w>
escen ario</w>
es pa
embarras sed</w>
em ents</w>
ed ly</w>
e ase</w>
despi erta</w>
desnu do</w>
dese os</w>
des ea</w>
des apare
der ram
democr acy</w>
conven cido</w>
cont am
consci ousness</w>
consci ous</w>
con serv
comen z
com un
com busti
cle aned</w>
ciudad ano</w>
cir cun
cha llen
ce iling</w>
car on</w>
cambi os</w>
cal lado</w>
ca ído</w>
bole to</w>
be have</w>
bai le</w>
atur es</w>
ater ri
at ors</w>
argu ing</w>
ar ra
ang ed</w>
an un
amen az
ali ento</w>
al tura</w>
adel ant
ad ónde</w>
V imos</w>
Su iza</w>
S ci
R el
Presi dent</w>
Mar k</w>
Lu cy</w>
Habl é</w>
Entr e</w>
En ten
Des afortunadamente</w>
C ri
B ir
Ale x</w>
Ad mi
ún mente</w>
í os</w>
z aje</w>
w a</w>
vo ca
vi ves</w>
utili zar</w>
un happy</w>
un comfortable</w>
tion ally</w>
tar te</w>
t á
t ese</w>
sy mp
su po</w>
stru gg
stra me</w>
sna ke</w>
sho ck</w>
ser t</w>
sel ling</w>
se p
sal tar</w>
s ane</w>
rom án
rob bed</w>
rob ar</w>
ri s
resul ta</w>
r are</w>
qu ita</w>
pudi mos</w>
profes ion
pri est</w>
pre vi
pi sta</w>
pas ará</w>
pas an</w>
or de
op ponent</w>
ob st
nú meros</w>
note book</w>
non sense</w>
nois y</w>
no where</w>
no tes</w>
n t</w>
má xim
mon o</w>
mo chi
mochi la</w>
mista ken</w>
líne as</w>
logi st</w>
lo vely</w>
ll ing</w>
le tras</w>
k y</w>
je wel
hi red</w>
heli cop
he art
h em
gr ad
gall ina</w>
ga tito</w>
g ree</w>
fa sti
exist encia</w>
eventu ally</w>
escu cho</w>
eng or
ego í
efec tivo</w>
e fore</w>
docu mento</w>
docu ment</w>
divor ci
di señ
detec tive</w>
des car
decep cionado</w>
d ings</w>
cros sing</w>
criti ci
correct amente</w>
cor te</w>
conven ció</w>
contr over
conse qu
co sta</w>
co ck
classi cal</w>
class mates</w>
científi cos</w>
ci pe</w>
chit ec
challen ge</w>
ch an
caus es</w>
car me</w>
cant ó</w>
bl ado</w>
b lia</w>
app ly</w>
anc ed</w>
ameri canos</w>
am abilidad</w>
algun o</w>
al fo
accid ents</w>
W ar
R om
R a
N ep
M t</w>
Joh n
Estu dio</w>
En tiendo</w>
Colom bia</w>
Co mi
Al most</w>
é ter</w>
wat ches</w>
w est</w>
volu men</w>
ven idos</w>
tér min
trabaj an</w>
tr apped</w>
to sa</w>
tiv ely</w>
tir lo</w>
th u
th ri
tele f
t ó
t res
sun glasses</w>
sti cs</w>
sex o</w>
serpi ente</w>
sent arme</w>
se es</w>
rist as</w>
recha zó</w>
rab bit</w>
pued an</w>
proper ly</w>
profun da</w>
pro of</w>
prin cess</w>
pre vent
pon ía</w>
pon d</w>
politi cians</w>
politi cian</w>
pobre za</w>
pi cal</w>
pes ada</w>
peri o
per mit
pa tri
pa go</w>
pa g
pa ción</w>
p ink</w>
na p</w>
my stery</w>
mon stru
moder na</w>
mo del</w>
mi ci
mez c
mar cha</w>
mantu vo</w>
mani f
man tiene</w>
m uni
lá stima</w>
lou der</w>
logr ar</w>
llev ará</w>
llam ando</w>
lap top</w>
la va</w>
ka ido</w>
k kaido</w>
jui cio</w>
ju egan</w>
it é</w>
it ting</w>
it ch</w>
is hing</w>
ha ll</w>
gr á
gi ca</w>
gener ally</w>
flas h
fin ding</w>
fici ales</w>
f abri
entien des</w>
enferme dades</w>
enfad ada</w>
encontr aste</w>
el ga</w>
edu cado</w>
e uro
e co</w>
e char
divor ced</w>
dispar ó</w>
dis co
diag no
des apareció</w>
des af
den a</w>
dej e</w>
da ily</w>
cour t</w>
corri ente</w>
copi a</w>
conver tirse</w>
conven cer
constru yó</w>
constru cción</w>
conne cted</w>
conf ía</w>
com b
cion a</w>
ci oso</w>
ci das</w>
ca chor
c í</w>
bu lle
br ings</w>
bot as</w>
bilingü e</w>
be comes</w>
be bido</w>
ba sta</w>
ayud ará</w>
avergon zado</w>
aut én
asust ado</w>
arre st</w>
apo yo</w>
ambi ente</w>
alcan z
al ismo</w>
adul tos</w>
achi eve</w>
accompli shed</w>
a fir
V ladi
V an</w>
Tom é</w>
Tan a
T ó
Su ch</w>
S it</w>
S cho
Reci bí</w>
Pregún tale</w>
Pas amos</w>
P la
No sotras</w>
Mu rió</w>
L á
L impi
L earn</w>
Ho kkaido</w>
Fe w</w>
F ol
Don ald</w>
Decid í</w>
D rink</w>
D in
Com í</w>
Ch ar
C el
Bi ble</w>
Alg ún</w>
2 1</w>
1 4
án gel</w>
wis hes</w>
viaj es</w>
un dar
u bi
tradu cciones</w>
trabaj os</w>
tr op
tr aj
thre at
tempor ada</w>
tal ented</w>
su éter</w>
ste al</w>
sor e</w>
si guiendo</w>
si guen</w>
revi stas</w>
repu tation</w>
religi ous</w>
reli able</w>
re mind</w>
qued ando</w>
prue bas</w>
pr ín
pon erme</w>
podr é</w>
po zo</w>
pi do</w>
pel ea</w>
pas sion</w>
pa sta</w>
oí dos</w>
or d</w>
of ficial</w>
o therwise</w>
o ficial</w>
o este</w>
num bers</w>
necesit ar</w>
mo ves</w>
mo j
mas cul
mar on</w>
lám para</w>
libr ería</w>
levant é</w>
levant arme</w>
levant ado</w>
le ts</w>
la un
is h
inten tion</w>
in ted</w>
i legal</w>
hu mil
hand le</w>
gro s
gre so</w>
fro zen</w>
for bi
flash light</w>
fa ke</w>
experim ento</w>
exist ence</w>
ex á
ev ent</w>
emplo yed</w>
empe zaron</w>
e ó</w>
divor ce</w>
distingu ish</w>
dij era</w>
di me</w>
di ca</w>
des gracia</w>
den y</w>
deci siones</w>
d ente</w>
d ating</w>
cur r
conse jos</w>
confi dence</w>
confes sed</w>
con tener</w>
compli cado</w>
col or
co lum
clá sica</w>
che ated</w>
ch op
cer ti
ca p</w>
c ta</w>
bur st</w>
bu ll
bon itas</w>
bo ots</w>
b its</w>
au tumn</w>
asist ir</w>
ar quit
ar chitec
anu ary</w>
alfab eto</w>
al y
ad vent
ac triz</w>
ac knowled
ac company</w>
aburri da</w>
Trat é</w>
Querr ía</w>
Poli cía</w>
Ll é
Li ber
Le í</w>
Jo sé</w>
J anuary</w>
Estu vo</w>
Escu ché</w>
Don de</w>
D ar
Bi g</w>
Apr endí</w>
ác ter</w>
zor ro</w>
wis dom</w>
wat er
w alls</w>
voca bu
visi tó</w>
ver le</w>
ver as</w>
vay an</w>
valu able</w>
v ado</w>
undar ia</w>
to oth</w>
ti ous</w>
thro at</w>
ther ing</w>
ten gamos</w>
stop s</w>
ste in</w>
sp il
sorpr endi
so ap</w>
sha ke</w>
secre tos</w>
sec undaria</w>
salv ó</w>
sa fety</w>
ru pt</w>
res our
recuer dos</w>
re pi
re lev
re conocer</w>
qui d</w>
prín cipe</w>
provi de</w>
prevent ed</w>
pre sence</w>
pos sibility</w>
pit er</w>
perman ecer</w>
per a</w>
pas amos</w>
par ano
pal e</w>
pa gado</w>
p ali
p ack
oca sión</w>
ob vio</w>
o -
nor mas</w>
no te</w>
ni dad</w>
nev ando</w>
ne g
mel o
me d
mal os</w>
ma ti
m ali
m ales</w>
logr ado</w>
lo gro</w>
lim ón</w>
liber ty</w>
levant ar</w>
l ógica</w>
kne e</w>
k er
jugu etes</w>
ir ás</w>
ingenu o</w>
individu al</w>
indepen diente</w>
húngar o</w>
hier ba</w>
her idas</w>
heli cóp
he aven</w>
h one</w>
gén ero</w>
gust as</w>
gre e
fin gió</w>
filo sofía</w>
fam a</w>
euro pe
estuvi ste</w>
est ro
esper ó</w>
es for
entr a</w>
encontr aron</w>
encant aría</w>
enamor ó</w>
en ses</w>
dud as</w>
docu mentos</w>
dist ri
dis gu
dis culpar
di ty</w>
deb t</w>
de bió</w>
danc ed</w>
cubi erto</w>
cu ento</w>
cou gh
col on
clar a</w>
cho sen</w>
char ming</w>
cer cano</w>
car ácter</w>
bur n</w>
bri o</w>
ber to</w>
ber n
ber g</w>
b ench</w>
b age</w>
as pir
arr an
aprob ó</w>
alum no</w>
almo hada</w>
adop t</w>
accom mo
absur do</w>
Vol veré</w>
Vi ste</w>
Tana ka</w>
So vi
Señ or</w>
S y
S on
Pro me
Pien sa</w>
O ye</w>
Li sa</w>
L lo
Hag amos</w>
H er
Fu iste</w>
Feli z</w>
Esper amos</w>
Escri be</w>
D i</w>
D em
D N
Clar o</w>
Chec k</w>
C ó
C ha
C ant
Bi blia</w>
A doro</w>
19 5
í geno</w>
Á n
z on
z cas</w>
wa i
ví deo</w>
vio lin</w>
vict ory</w>
vi dri
v á
tur co</w>
tru ly</w>
tradu ctor</w>
ti ro</w>
ti g
ti dos</w>
th an
te e</w>
te ce</w>
tax es</w>
tar á</w>
t ful</w>
t at
sun ny</w>
stra w
spi te</w>
sou th</w>
soldi er</w>
sol dado</w>
so pl
shor ter</w>
sh ine</w>
secre ts</w>
secre tary</w>
scienti st</w>
s ink</w>
ru sh</w>
roman tic</w>
ro dilla</w>
regular ly</w>
regi on</w>
re ven
re su
re pli
rat ones</w>
r ó
r ying</w>
quí mica</w>
qui enes</w>
que do</w>
qu arre
pu ñ
produc ts</w>
produ ction</w>
prin ce</w>
pri mos</w>
pri meros</w>
prefi ere</w>
practi car</w>
post re</w>
pon s</w>
plá stico</w>
pla stic</w>
pier de</w>
pi g</w>
peri odi
par on</w>
par cial</w>
paci entes</w>
op tions</w>
op ciones</w>
o ch
nev ar</w>
negr os</w>
mu s
mod elo</w>
mo v
mo le
mi te</w>
ma tic</w>
m ous</w>
lí der</w>
loo se</w>
lle gues</w>
llam aste</w>
ll amente</w>
linter na</w>
kil os</w>
infi erno</w>
in toler
in sane</w>
in capaz</w>
impro ved</w>
high est</w>
hac erle</w>
guar dia</w>
gip to</w>
gi fts</w>
funcion ar</w>
fran ces
for mar</w>
fashi on</w>
fantas ma</w>
fall s</w>
extrater restres</w>
exper t</w>
ex ter
especi ally</w>
er ras</w>
entr ance</w>
eléctri ca</w>
ed r
e ks</w>
desarro ll
des sert</w>
des ast
ct ores</w>
cre ó</w>
cont enta</w>
conf ío</w>
condi tions</w>
com unidad</w>
com ment</w>
colle ct</w>
cli ente</w>
clar amente</w>
cl oud</w>
cap itali
ca jas</w>
c ír
brea ks</w>
box es</w>
borro wed</w>
bi ci</w>
beg un</w>
bal d</w>
ayud arle</w>
atr as
at err
as ing</w>
arri ving</w>
appear ance</w>
ant emente</w>
am ado</w>
ali vi
ali ke</w>
aleg re</w>
admi re</w>
ad em
act ress</w>
abdu cted</w>
a parece</w>
a im
a cuerdas</w>
Vu el
Vladi mir</w>
Vi aj
Vay amos</w>
U .
T al
Si én
Scho ol</w>
Sab en</w>
S er</w>
S ali
Mari ka</w>
M ini
K ar
H or
G ran</w>
Egy pt</w>
E gipto</w>
Dis fru
Dij eron</w>
Deber ían</w>
Con du
Co ge</w>
Be li
É sa</w>
wea pons</w>
w ra
vini era</w>
vide o
ver sión</w>
ur s</w>
u vas</w>
tter y</w>
treas ure</w>
trans lating</w>
tr enes</w>
to ys</w>
ti res</w>
te jado</w>
t adas</w>
swee ts</w>
su ma</w>
sp ell</w>
sp ed</w>
si e</w>
señ or
ses enta</w>
see k</w>
se tt
sal í</w>
sal dr
sa x
sa ste</w>
s wal
s pa
ru mor
reas onable</w>
r inging</w>
produ cción</w>
pro test
priv ado</w>
present s</w>
pre sen
pra y</w>
poin ts</w>
pla te</w>
pi la</w>
pes ca</w>
pe ti
pe dia</w>
pañ uelo</w>
par edes</w>
opini ons</w>
on ing</w>
ol dest</w>
ocur ra</w>
nu tri
no red</w>
negr as</w>
natur ales</w>
mor al</w>
mi da</w>
mat ure</w>
mast ur
mam í
mag n
ma gic</w>
lu ce</w>
llo verá</w>
licen cia</w>
kil ling</w>
jour ney</w>
incid ent</w>
ilu min
ig nored</w>
i ved</w>
i mage</w>
ho ped</w>
guar dar</w>
gro wn</w>
grand parents</w>
grab bed</w>
gor da</w>
go d</w>
ger y</w>
ge la</w>
gar á</w>
gala x
fir m</w>
f raz
f an
exá menes</w>
experien ced</w>
ex hi
est atu
esqui ar</w>
espect áculo</w>
esp íritu</w>
esp ere</w>
err ors</w>
em pie
elef antes</w>
el ing</w>
effec t</w>
ed ades</w>
econo mi
eb la</w>
dir se</w>
descubi erto</w>
des esper
demand ed</w>
dej as</w>
de quiera</w>
de ca
curi ty</w>
cui da</w>
cre yó</w>
cr y
correct ly</w>
cora je</w>
cor d</w>
consi ste</w>
condi ción</w>
con ser
con junto</w>
cocin ero</w>
cobar de</w>
co ward</w>
co ins</w>
chec ked</w>
che ek</w>
car am
cand le</w>
ca ve</w>
ca jón</w>
brea king</w>
bott les</w>
bot s</w>
bo t</w>
bo la</w>
bi an</w>
ben ef
be ans</w>
bail ar
ap la
alfo mbra</w>
alcan zó</w>
al ar
ahorr ar</w>
abu elos</w>
a u</w>
a ju
a go
V ino</w>
V ine</w>
Tu vo</w>
Tend remos</w>
S hi
Le e</w>
L eo</w>
L earning</w>
Ha w
H am
Fr anci
F l
Du tch</w>
Do ctor</w>
Det esto</w>
De bido</w>
De ath</w>
D escu
D a</w>
B as
Ay ud
A bre</w>
é li
á i</w>
wo o
wh eat</w>
w ns</w>
visi on</w>
vini ste</w>
vay amos</w>
un cia</w>
tw ins</w>
tu ristas</w>
tu red</w>
trans lations</w>
to que</w>
ti p</w>
ti j
ter as</w>
tem as</w>
te la</w>
sí n
super ar</w>
suicid ó</w>
su shi</w>
star ing</w>
stam ps</w>
st ress</w>
so bras</w>
ser ved</w>
segun dos</w>
se ts</w>
se ction</w>
se ats</w>
sa v
ru ido
ro s
ri t
reser va</w>
renunci ar</w>
re move</w>
re conoció</w>
raz onable</w>
ra za</w>
pu zz
pu shed</w>
prote ger</w>
pronoun ce</w>
pro ceso</w>
principi os</w>
pr ud
pos ee</w>
pon en</w>
poe try</w>
plane ando</w>
pla za</w>
pil low</w>
pi diendo</w>
persu ade</w>
pas aba</w>
pa ste</w>
pa ges</w>
orgu llo</w>
organ i
orden ó</w>
olvid aré</w>
olvi de</w>
och enta</w>
o ci
nuev amente</w>
ne a</w>
mu eren</w>
mon edas</w>
mi x
mer as</w>
ma yo</w>
lo ad</w>
lleg ada</w>
llam é</w>
llam aba</w>
li ver</w>
li gh
le j
lan dia</w>
juz gar</w>
jab ón</w>
ir es</w>
in ts</w>
in stante</w>
in cómodo</w>
im probable</w>
ilu sión</w>
i fi
i d
hun dre
ha ll
grap h</w>
gim na
ga se</w>
fri gor
fra me</w>
for o</w>
famili as</w>
estu dió</w>
estor nu
est am
escon dido</w>
es qu
enfr ent
discus sed</w>
dis co</w>
direct amente</w>
dir á</w>
despe dido</w>
deser ted</w>
def end</w>
de ed</w>
daugh ters</w>
cous ins</w>
coura ged</w>
cose cha</w>
cont est</w>
cont ac
const antly</w>
consid era</w>
comple ta</w>
cocin ando</w>
chemi cal</w>
charac ters</w>
cha do</w>
ch inos</w>
cas arme</w>
canadi enses</w>
c hat</w>
c end
bre w</w>
bot ellas</w>
bas sy</w>
attemp t</w>
aprendi ste</w>
appro pri
aparien cia</w>
anci anos</w>
am bas</w>
agot ado</w>
adul t</w>
a tivo</w>
a th
U S
Trans late</w>
Tend ré</w>
T ha
T e
S un</w>
R en
Per mí
No v
L angu
Ha wai
Fu ck</w>
F ebr
Ex tr
Dev u
D avi
C ál
C entr
An yone</w>
1 7</w>
1 7
. 5</w>
í es</w>
ár amos</w>
á cido</w>
y u
y gen</w>
wor k
wea pon</w>
ver b</w>
ve te</w>
us ó</w>
tu mb
trabaj ado</w>
tr on
ton ta</w>
ti tle</w>
thir teen</w>
tes is</w>
terri tor
ten dremos</w>
tar a</w>
tal en
símbo lo</w>
su m</w>
strang ers</w>
squirre l</w>
sp here</w>
s cra
s care</w>
ri os</w>
ri el</w>
respir ar</w>
resour ces</w>
redu cir</w>
reci én</w>
re sign</w>
publi shed</w>
prob ado</w>
pro cess</w>
prison er</w>
pres cri
pin ta</w>
philoso phy</w>
person alidad</w>
perfu me</w>
partici par</w>
pare cido</w>
orde ñ
ocurri r</w>
o me</w>
n é</w>
mutu amente</w>
musulman es</w>
mil a
mila gro</w>
mi enta</w>
may be</w>
masco ta</w>
mar ch
mal s</w>
llev ado</w>
lam ento</w>
la ste</w>
kit ten</w>
inst al
influ ence</w>
im pidió</w>
ignor e</w>
ig as</w>
hou se
hi jas</w>
he bre
habit aciones</w>
gram ática</w>
gradu ated</w>
gra pes</w>
gi ant</w>
gar g
garg anta</w>
gan da</w>
g ados</w>
frigor ífico</w>
for ge
fo unded</w>
fo ods</w>
fo g</w>
fing er
fascin ating</w>
estuvi eron</w>
estupi dez</w>
est y</w>
esper anzas</w>
em pu
ed y</w>
ec as</w>
e m</w>
drow ned</w>
doct ors</w>
do te</w>
do bl
desarro llo</w>
des at
defe at</w>
deci sions</w>
de er</w>
dar ía</w>
dam age</w>
d emos</w>
d ada</w>
cu car
cucar ach
cor tas</w>
comi ste</w>
com bin
colle ction</w>
col lap
circun st
circum stances</w>
chi stes</w>
cerr ados</w>
cer dos</w>
centr al</w>
camise ta</w>
cab aña</w>
ca kes</w>
ca d
bu d
bro mas</w>
bor de</w>
bi mos</w>
bel ow</w>
ayu dado</w>
atrop el
ases ino</w>
archi vo</w>
ar dilla</w>
appe ti
anxi ous</w>
and er</w>
an til</w>
amen aza</w>
am ada</w>
adi vin
adem ás</w>
ad era</w>
a ven
W e
Vien e</w>
Per don
N ature</w>
K a
He brew</w>
Habl amos</w>
Hab éis</w>
Ha ving</w>
Go od
G ri
Franci sco</w>
Es p
De jó</w>
Cuán ta</w>
Cual quiera</w>
Cre í</w>
Chi le</w>
C ity</w>
C .</w>
B or
Apr ender</w>
Ad d</w>
9 0</w>
2 2</w>
volu me</w>
vidri o</w>
vi r</w>
utili za</w>
un usual</w>
un fair</w>
tri go</w>
tranqui la</w>
tra ins</w>
tis mo</w>
tin ta</w>
ti cs</w>
tech ni
te ar</w>
t ante</w>
só tano</w>
sánd wich</w>
sym bol</w>
super fici
sup pli
stri ke</w>
st ada</w>
spo t</w>
sopor to</w>
son riendo</w>
solici tud</w>
sol tero</w>
si o</w>
sho e</w>
sent enced</w>
sent ados</w>
se co</w>
scol ded</w>
schedu le</w>
sali eron</w>
sab ían</w>
ro bo</w>
reuni ones</w>
res ca
rela ciones</w>
regi ster</w>
reg añ
redu ce</w>
recur sos</w>
re parar</w>
rain y</w>
ra p
que de</w>
prob ó</w>
pri me</w>
pri mar
preten d</w>
present es</w>
presen cia</w>
posi tive</w>
pon a</w>
podr ás</w>
po verty</w>
po quito</w>
pilo to</w>
person almente</w>
pen sa</w>
peligro sa</w>
par ked</w>
par i
ox ígeno</w>
ove ja</w>
on ar</w>
obje tos</w>
noc tur
na cimiento</w>
n ací</w>
mp li
mon key</w>
mini stro</w>
mi res</w>
mi ente</w>
mi cos</w>
men tido</w>
marr ón</w>
mar chó</w>
magaz ines</w>
ma ción</w>
lon g
libr es</w>
lead ing</w>
j ury</w>
j aula</w>
int enta</w>
inst in
ingl esa</w>
incid ente</w>
in cu
ignor ance</w>
i st
hat red</w>
hang ing</w>
habl antes</w>
h an
graf ías</w>
gra de</w>
go als</w>
gar age</w>
g í</w>
fundam ental</w>
for med</w>
fi ca</w>
fami lies</w>
fal sa</w>
expres ar</w>
excu sa</w>
ex clu
ett es</w>
ester n</w>
est an</w>
espal das</w>
escon dió</w>
escap ó</w>
es senti
er ías</w>
envi dia</w>
encuentr an</w>
encen dió</w>
en velop
en ero</w>
echa do</w>
e- mail</w>
e pi
e ando</w>
disfru tar</w>
direc to</w>
dio ses</w>
diab lo</w>
des pedi
depar tment</w>
de a</w>
cé lu
cuad erno</w>
cre ció</w>
conver tido</w>
consider an</w>
consecu encias</w>
confer ence</w>
concer n</w>
compar ed</w>
comp ani
commit tee</w>
comi das</w>
com posed</w>
co pa</w>
clo th</w>
claim s</w>
che ating</w>
char ged</w>
cel l
cancel ed</w>
cal end
cal cu
ca dor</w>
c haba</w>
br on
bo und</w>
bi as</w>
ay un
atur as</w>
asom bro
asesin ado</w>
ase gu
arrepi ento</w>
aprendi zaje</w>
amar illa</w>
aman ecer</w>
alérgi co</w>
al ty</w>
al er
afe it
accomp lish</w>
ac os</w>
You Tu
Wa ke</w>
Trá eme</w>
Ta i
Swe dish</w>
Si go</w>
Sent í</w>
S ep
No bel</w>
N ice</w>
M edi
Lu ego</w>
Fr an
Fol low</w>
Eli ge</w>
Despi te</w>
Davi d</w>
DN A</w>
Cuén tame</w>
Bien venido</w>
Aseg úrate</w>
All í</w>
A m
A div
A .</w>
ísi ma</w>
ã o</w>
zo ológico</w>
zanahor ias</w>
wo unded</w>
wa sting</w>
vivi mos</w>
veter in
ver ás</w>
v omit
v ine</w>
ur s
ud as</w>
títu lo</w>
tu ri
trabaj ador</w>
to pi
ta ciones</w>
t is</w>
t ente</w>
sur gery</w>
sur ance</w>
sub scri
step ped</w>
son reír</w>
so bor
si enta</w>
si des</w>
sho wing</w>
sha dow</w>
sh ared</w>
semej ante</w>
scar y</w>
satis fac
sand wiches</w>
san gu
s ó</w>
s cara</w>
ru in</w>
rev és</w>
respon se</w>
reser vation</w>
regre so</w>
reali zar</w>
re search</w>
ra d</w>
r ough</w>
r ings</w>
quit os</w>
que jas</w>
qu edes</w>
pun c
prog res
pri de</w>
prepar ó</w>
prepar ing</w>
prefi eres</w>
pre su
pr ácti
por ta</w>
popu lares</w>
plant ed</w>
ph rase</w>
person ality</w>
periodi sta</w>
per ez
parti es</w>
par es</w>
pack age</w>
pa sto</w>
p in</w>
p ción</w>
oscu ra</w>
orig in</w>
ori ent
ocul tando</w>
ocu par
obede cer</w>
ni sh</w>
ni ebla</w>
neu tr
nes ses</w>
ner ves</w>
na tivos</w>
n ado</w>
mor dió</w>
moder no</w>
mir acle</w>
mi ce</w>
mes sages</w>
me als</w>
man age</w>
m ers</w>
m are</w>
lu gg
lo ttery</w>
lo tería</w>
lle ve</w>
lle gaste</w>
ll á
lefto vers</w>
le ased</w>
l ink</w>
ju eves</w>
is su
ir án</w>
infor m
in visible</w>
in fl
ide al</w>
hú me
human ity</w>
helicop ter</w>
gust ar</w>
gui de</w>
guar ante
gr ano</w>
gener almente</w>
gan e</w>
fu ma</w>
fu ese</w>
fru its</w>
frighten ed</w>
flu ent</w>
fici ent</w>
fe a</w>
falle ció</w>
f en
extranj eras</w>
expres sion</w>
estudi os</w>
est an
es pec
er do</w>
en cy</w>
employe e</w>
emp la
egoí sta</w>
edr al</w>
e tos</w>
dream ing</w>
discus sion</w>
dis minu
dis crimin
dic ó</w>
di vir
di ary</w>
deta il</w>
der ri
delici osa</w>
defec tos</w>
de va
de pos
danc er</w>
d y
cu los</w>
cre a</w>
cou gh</w>
conoci mos</w>
compr en
com ité</w>
cole cción</w>
co ws</w>
clo thing</w>
citi z
cigar ettes</w>
cha irs</w>
ch im
cel oso</w>
carro ts</w>
ca ciones</w>
c tive</w>
br ero</w>
bl in
b led</w>
b af
añadi r</w>
at ory</w>
as ks</w>
ape tece</w>
an aly
am pi
am ent
alquil ar</w>
ai m</w>
agu anto</w>
ab ejas</w>
YouTu be</w>
Was h</w>
Ven go</w>
Uni on</w>
Tur quía</w>
Tru mp</w>
Th urs
Tend rás</w>
T -
Su ecia</w>
Star t</w>
Sab ías</w>
Sab éis</w>
S ig
Re cuerdas</w>
Re cuerda</w>
R ed</w>
Quer éis</w>
Nov ember</w>
Ning una</w>
N ara</w>
M in
L it
Hawai i</w>
Hab rá</w>
G ar
For tun
Esper emos</w>
En séñ
Co rea</w>
Cla us</w>
Car l
C ru
C op
C he
Bir ds</w>
Beli eve</w>
Ay údame</w>
Apr end
An ne</w>
201 3</w>
íb amos</w>
ér co
ándo te</w>
á til</w>
vi su
ven en
up stairs</w>
ud d
u ary</w>
tor tur
toma to</w>
to mate</w>
to man</w>
tir te</w>
tin y</w>
ther -in-law</w>
th ful</w>
ten gan</w>
tal la</w>
ta pa</w>
ta ined</w>
t ador</w>
swe at</w>
sugg esti
suce de</w>
stri ct</w>
sobre vivir</w>
sil ver</w>
sho ok</w>
shir ts</w>
separ ated</w>
se curity</w>
se ca</w>
sci s
sau ce</w>
s si
s cream</w>
ru eda</w>
romp e</w>
rit mo</w>
requi res</w>
requi re</w>
repu tación</w>
remin ds</w>
rec eta</w>
re vol
re suelto</w>
re mo
re lated</w>
re hus
r tió</w>
r s.</w>
pur se</w>
pur cha
pun tual</w>
promi so</w>
preocupar se</w>
plane tas</w>
plan ned</w>
pi lot</w>
per sist
pens amiento</w>
pedir te</w>
pas ses</w>
pas aron</w>
par tió</w>
pa irs</w>
p ac
on to</w>
oblig ado</w>
obje to</w>
o ponente</w>
nervi os</w>
nego ci
n in
mur ci
murci é
movi ó</w>
movi mientos</w>
mostr ar</w>
mi cros
men tioned</w>
memori es</w>
mat a</w>
mar ca</w>
man u
maj ority</w>
ma quil
m ask</w>
lu char</w>
llev aré</w>
le gi
lat est</w>
ladr ones</w>
la sts</w>
l en</w>
jun k</w>
ju ez</w>
journ alist</w>
j amas</w>
ir lo</w>
ingres os</w>
influ encia</w>
inf antil</w>
in y</w>
in come</w>
i ra</w>
i ces</w>
i ban</w>
hy po
her ed
har sh</w>
habl é</w>
hab íamos</w>
grand ma</w>
gra phy</w>
go ods</w>
go ds</w>
gar bage</w>
gar anti
ga stos</w>
g am
fron tera</w>
fres ca</w>
foreig ners</w>
fin anci
fair ly</w>
fac es</w>
fa te</w>
fa st
explo sión</w>
exper to</w>
exha ust
exci ting</w>
evolu ción</w>
estro pe
estall ó</w>
espa cial</w>
enter ing</w>
ensa yo</w>
eng aged</w>
encant adora</w>
embaj ada</w>
e ja</w>
dra wer</w>
dis fraz
difficul ties</w>
diam ond</w>
despi te</w>
desper ate</w>
da wn</w>
cre ma</w>
conver sar</w>
contam in
cont ex
consid ero</w>
condu cta</w>
com promiso</w>
col gó</w>
cla ve</w>
ch y</w>
cari ño</w>
can o
can cel</w>
cabe zas</w>
ca z
ca ge</w>
bu t
bra ins</w>
bi os</w>
beg ged</w>
be es</w>
basi c</w>
ban anas</w>
b ones</w>
automó vil</w>
as soci
ar aña</w>
apro ve
appropri ate</w>
apa sion
alterna tiva</w>
ag ri
adop ted</w>
acab as</w>
abi es</w>
ab ra
a ster</w>
a pur
W in
Scot land</w>
S ave</w>
R ep
Pas ó</w>
Musli m</w>
Mar te</w>
Mar s</w>
M rs.</w>
M ir
Ll ama</w>
Kore a</w>
Ju ly</w>
J ames</w>
Gr and
Fu mar</w>
Fu eron</w>
Febr uary</w>
Empe zó</w>
Dis cu
Devu él
C er
Bi en</w>
At l
A ñ
1 5
ándo lo</w>
É se</w>
z zy</w>
z apa
x ing</w>
we igh</w>
w ished</w>
vícti ma</w>
vi ejas</w>
ver sion</w>
va is</w>
v est</w>
tri ck</w>
tin as</w>
thr ough
th es
tex t
testi go</w>
ter ed</w>
tar da</w>
t ched</w>
sur face</w>
suffer ed</w>
stru ck</w>
sto ve</w>
sto so</w>
si va</w>
si cos</w>
sem á
sem est
secu estr
secre taria</w>
scis sors</w>
scienti fic</w>
sangu í
ro ads</w>
ri sing</w>
retras o</w>
resem bles</w>
refriger ador</w>
re r</w>
re fi
re ct
r ían</w>
qued ara</w>
qued aba</w>
quar ter</w>
profesion al</w>
profes sional</w>
pro ce
preocup ada</w>
pr en
pon erte</w>
pi ca</w>
physi cal</w>
permi tido</w>
per dieron</w>
per diendo</w>
peligro sos</w>
pare zca</w>
pal o</w>
pa sillo</w>
p ado</w>
oper ation</w>
o li
near by</w>
na tions</w>
mur der
mo verse</w>
mo ments</w>
miser able</w>
mi de</w>
mal e</w>
mad ru
ma gi
m ber</w>
lle go</w>
li shed</w>
lev anto</w>
les sons</w>
lec ture</w>
le i
lad der</w>
l acks</w>
ju mp
jec ted</w>
je cu
j an</w>
inclu ye</w>
in unda
in surance</w>
in different</w>
in amente</w>
im pli
i dades</w>
i bas</w>
hundre ds</w>
hun ger</w>
hor ror</w>
hesit ate</w>
har ina</w>
ha bilidades</w>
gro w
gri pe</w>
gram s</w>
ga sta</w>
for tal
fle xi
explo sion</w>
ex -
evolu tion</w>
estupen do</w>
estruc tura</w>
escri ta</w>
es ome</w>
envelop e</w>
entre vista</w>
enti rely</w>
eno jada</w>
engine er</w>
end as</w>
enc ender</w>
en vy</w>
distri bu
di um</w>
di tch</w>
di an</w>
desaf ío</w>
des preci
de tener</w>
cír culo</w>
cé sped</w>
cuán tas</w>
cu ps</w>
cu eva</w>
cu bo</w>
cru el
cre ative</w>
core ano</w>
constru ction</w>
conoci dos</w>
confun dido</w>
condu ciendo</w>
conden ado</w>
con curso</w>
comuni cación</w>
compr arlo</w>
comm ents</w>
comfor t</w>
cock ro
cin ta</w>
che que</w>
cha el</w>
ch is
cen ti
cen cia</w>
car os</w>
car do</w>
car as</w>
ca ste</w>
buil dings</w>
bu sh</w>
bu l
bri ef</w>
bar king</w>
b low</w>
b i</w>
avi ones</w>
appro ved</w>
appro ve</w>
apologi zed</w>
antigu as</w>
an ia</w>
adul ts</w>
adul to</w>
activi ty</w>
acel er
ace ful</w>
ac lar
a sts</w>
a ko</w>
a ked</w>
a condi
Z e
Wh enever</w>
Vi et
Thurs day</w>
Su m
Su elo</w>
S am</w>
S al</w>
R ob
Qu e
P ag
Nor te</w>
Musli ms</w>
Mi chael</w>
Jo e</w>
J an
In vi
In stead</w>
Hi ro
Hab lar
F re
F ind</w>
Ever est</w>
E ve</w>
Di ck</w>
De me</w>
Centr al</w>
Carl sen</w>
C err
B udd
Ar men
An ti
A fortun
A demás</w>
ñ ó</w>
é rica</w>
á ban
z i
woo den</w>
who ever</w>
whe el</w>
weigh s</w>
vu estros</w>
ven dió</w>
vel as</w>
vas os</w>
va go</w>
tras h</w>
tran si
touri sts</w>
topi c</w>
to ki</w>
ti bur
threat ened</w>
ter ror</w>
ter cer</w>
ten íamos</w>
ta tions</w>
t é
t into</w>
sur r
su pe</w>
st un
spi der</w>
sp ending</w>
soñ ar</w>
sorpr ende</w>
sobre vivi
six ty</w>
sin cero</w>
si ti
si mo</w>
sh ining</w>
señor ita</w>
senci lla</w>
sel fish</w>
secon ds</w>
sab és</w>
sa il
ru m
ro bot</w>
ri r</w>
respon d</w>
res or
re don
r eno
quit ar</w>
que ja</w>
pun ish
pudi eras</w>
pu es</w>
pronunci ar</w>
pro medio</w>
pon es</w>
poli cy</w>
podr ían</w>
po p</w>
plan ets</w>
piani sta</w>
piani st</w>
pi o</w>
pi dieron</w>
per spe
pen sable</w>
pain ful</w>
p ace</w>
out fit</w>
oscu re
orden adores</w>
o ks</w>
nor th</w>
n at
n ac
mé dicos</w>
must n</w>
mur dered</w>
mucha chos</w>
mu ero</w>
mos ca</w>
mi steri
mej illa</w>
matemáti ca</w>
maripos a</w>
maj or</w>
m ías</w>
lí qui
lí mites</w>
lu cha</w>
llu vi
llen ó</w>
list ens</w>
li on
lead s</w>
le te</w>
lar gos</w>
kis sing</w>
k able</w>
ju lio</w>
je ans</w>
interru pt</w>
inter view</w>
incredi ble</w>
imag ined</w>
hu yó</w>
ho wever</w>
helicóp tero</w>
hand ker
hambur gu
hambri ento</w>
ham mer</w>
habit ual</w>
ha gamos</w>
gust aban</w>
gu ay</w>
gros ero</w>
gram mar</w>
gimna sio</w>
gi ra</w>
gem elos</w>
ga thered</w>
ga st
g lan
fun ction</w>
fu cking</w>
frecu entemente</w>
fortun ate</w>
forbi dden</w>
for mer</w>
for ces</w>
fir mar</w>
fi estas</w>
fi cción</w>
fi cado</w>
fam osos</w>
exag er
escal ar</w>
es say</w>
es pin
enseñ arme</w>
engañ ar</w>
edu ca
econo mic</w>
doub ts</w>
dou ble</w>
do m
dise ases</w>
dino sau
di sh
destro y</w>
dem anda</w>
de tenido</w>
de me</w>
d less</w>
cti va</w>
cre cimiento</w>
confi dent</w>
con qui
comer cial</w>
ck ey</w>
ciudad anos</w>
circunst ancias</w>
ch ara</w>
carr ying</w>
car ri
caluro so</w>
cal vo</w>
ca ída</w>
ca sti
c ías</w>
c hap
butter fly</w>
bon itos</w>
blan ket</w>
bit ch</w>
bien venido</w>
bes ar</w>
ball s</w>
bal a</w>
b endi
auri e</w>
atracti va</w>
as hed</w>
arri val</w>
arra str
ar ían</w>
antigu os</w>
am ante</w>
ali zar</w>
agrade zco</w>
adv anced</w>
adic to</w>
activi dades</w>
acti vidad</w>
accid ent
a cio</w>
a .m.</w>
W ed
Tur key</w>
Trab aja</w>
T im
Spe aking</w>
S ing
S at
R ec
Qui énes</w>
Per dió</w>
P l
Mant én</w>
L ord</w>
L aurie</w>
K ing</w>
Hab lar</w>
Fortun ately</w>
Exi sten</w>
E di
Com par
Bu en</w>
An na</w>
A y</w>
A ten
A paga</w>
6 5</w>
2 00</w>
19 4
- up</w>
ó no
ó cr
ér pre
án sito</w>
án gu
y al</w>
wit ch</w>
week ends</w>
wed en</w>
wan na</w>
w are</w>
victi m</w>
vi v
ven gan
usu almente</w>
uni dades</w>
tw in</w>
tun e</w>
trat aba</w>
trans for
trai cion
tr ánsito</w>
touri st</w>
to ast</w>
tij eras</w>
thous ands</w>
than ked</w>
ter cera</w>
tar ios</w>
sufri r</w>
spil led</w>
soli d</w>
sla ve</w>
si entas</w>
sent é</w>
sent arse</w>
segu ía</w>
se cción</w>
scho ols</w>
scar f</w>
sal ga</w>
s light</w>
s cor
s acer
ro jos</w>
reven ge</w>
reve aled</w>
reci bí</w>
r endi
qu inas</w>
puzz le</w>
punish ment</w>
pu ro</w>
prote ger
prepar ada</w>
pois on</w>
po ckets</w>
pl at
pin tó</w>
pi pe</w>
pi de</w>
person ally</w>
pe pper</w>
parti dos</w>
par a
pan da</w>
pa pel
ox ygen</w>
organiz ed</w>
of rec
ob ject</w>
o las</w>
nu blado</w>
nor m
nego ti
necess arily</w>
neces ariamente</w>
máxim o</w>
my steri
mu riendo</w>
mos quitos</w>
mo jado</w>
me tas</w>
mater ia</w>
mar tillo</w>
mar in
man ce</w>
ma ke
lápi ces</w>
lugg age</w>
lo so</w>
ll ora</w>
li sh
lav ó</w>
land ed</w>
kid n
k ra
ji ra
jec ts</w>
invi tar</w>
inven tion</w>
inten ded</w>
int érpre
ing dom</w>
in her
im paciente</w>
ignor ant</w>
hun ting</w>
hor ario</w>
herrami entas</w>
her o
hay an</w>
har ás</w>
ha z</w>
gy m</w>
gr ades</w>
go bern
fr en
foto grafías</w>
for k</w>
fi j
fant á
fa i
ex ces
ev ento</w>
eter nidad</w>
esti mate</w>
essenti al</w>
escri tura</w>
es col
er los</w>
entr adas</w>
entien den</w>
enjo ying</w>
encontr arás</w>
emocion ante</w>
em s</w>
efec tos</w>
edi ficios</w>
ear -
e jecu
e ing</w>
dé jame</w>
duer mo</w>
dor a</w>
dol or
docu ments</w>
dis pu
dibu jo</w>
dial ec
des pre
demon ios</w>
demasi ados</w>
defini tivamente</w>
deb í</w>
de te</w>
de ar</w>
dar kness</w>
dam aged</w>
d ents</w>
d ent
cu lar
cre ado</w>
cot tage</w>
consequ ences</w>
consci ence</w>
conoci eron</w>
confu se</w>
con ci
compr arle</w>
co ser</w>
co de</w>
co co
cigar ro</w>
cier re</w>
ci st</w>
che er
char la</w>
care er</w>
car ajo</w>
ca dena</w>
ca ca
bun ch</w>
bu f
bor der</w>
bi eron</w>
bar ri
ayud aría</w>
atac ó</w>
at as
astron om
apro vec
ape tito</w>
ani c</w>
ang le</w>
an cho</w>
al bum</w>
aguant ar</w>
ag ement</w>
adelant ado</w>
ad y</w>
acostumbr ada</w>
aca bar
ac qua
ac les</w>
ac as</w>
a the
a id</w>
Z el
Y ear</w>
W on</w>
V olvi
Uni ón</w>
U. S
T em
S weden</w>
S tre
S tr
S pring</w>
R io</w>
Perdon a</w>
O ld</w>
No wadays</w>
Ne w
Na o
Mo der
Mar ch</w>
Li ke</w>
La ura</w>
John son</w>
Fr ank
F our</w>
En joy</w>
E h</w>
E E
Dec ember</w>
Cat al
Bien venidos</w>
B ur
B ach</w>
Aqu ella</w>
Afortun adamente</w>
Ab andon
1 6</w>
úni cos</w>
érco les</w>
é stos</w>
ár melo</w>
z aba</w>
y ment</w>
y ear-
vol viera</w>
vi do</w>
vengan za</w>
ty pical</w>
tu b</w>
tri vi
tri stes</w>
tres cientos</w>
tre m
trat es</w>
tr ust
ton io</w>
tig re</w>
tiem bre</w>
ti ger</w>
through out</w>
ther efore</w>
temp lo</w>
tel esco
tar é</w>
t- time</w>
sáb ados</w>
superfici e</w>
suced er</w>
struc ture</w>
soñ ando</w>
sor do</w>
so sten
sno wed</w>
siti os</w>
sh u
seri es</w>
se y</w>
sal gas</w>
sal es
s nor
rode ado</w>
re leased</w>
r ented</w>
pul so</w>
protec ción</w>
pro pa
princi ples</w>
pri vi
pri ma</w>
preci osa</w>
plu s</w>
pl ates</w>
pier das</w>
per di
pen s</w>
peda zo</w>
pe ts</w>
pas os</w>
partici p
par t-time</w>
par king</w>
ove jas</w>
orgullo sos</w>
on al</w>
olvi dar
ol vida</w>
oc cid
ob tuvo</w>
o igo</w>
novi embre</w>
ne phe
má quinas</w>
mostr aré</w>
mos cas</w>
mi gra
mensa jes</w>
mel ess</w>
mas s</w>
mar es</w>
lon gest</w>
limit ed</w>
le erlo</w>
laugh s</w>
lastim ó</w>
lar y</w>
la gos</w>
jun tas</w>
ju gó</w>
j eros</w>
iz ed</w>
is es</w>
interes antes</w>
interes ada</w>
insul to</w>
ini an</w>
infor med</w>
increí blemente</w>
inclu ding</w>
impres sion</w>
im á
im pre
hu gged</w>
hormi gu
hor no</w>
hon esti
honesti dad</w>
hi po
hi lo</w>
hi dr
hebre o</w>
habit u
habit s</w>
gree ted</w>
gram ati
gra ve
go ose</w>
gi gante</w>
ght ning</w>
gar se</w>
g lu
g ender</w>
g ata</w>
frances es</w>
foreig ner</w>
fl our</w>
fil ms</w>
fem ini
fe wer</w>
fe brero</w>
f ó
f ted</w>
f le</w>
f its</w>
exag ger
ex ig
estan que</w>
escuch é</w>
es cán
ent h</w>
encu entras</w>
encontr arlo</w>
el led</w>
ear ns</w>
e ast</w>
dor mir
do zen</w>
do or
dis like</w>
dieci ocho</w>
di zzy</w>
desapare cido</w>
des earía</w>
des apar
der rota</w>
den se</w>
demasi adas</w>
dem and</w>
dej aste</w>
defe ated</w>
de uda</w>
de por
custom s</w>
cul par</w>
coun ts</w>
control ar</w>
contr adic
contex to</w>
const antemente</w>
cone jos</w>
con cier
comput adoras</w>
compr ando</w>
cigarri llo</w>
ci ls</w>
ci era</w>
celebra te</w>
cancel ar</w>
can e</w>
ca b</w>
bu g</w>
bru ja</w>
bri lla</w>
bran ch</w>
bit ter</w>
bien venida</w>
bes ide</w>
be g</w>
ba ked</w>
ay a</w>
auth ority</w>
at mo
asi entos</w>
as sem
as s
arru in
ar gel
apar car</w>
ambulan ce</w>
al tas</w>
after wards</w>
advi rtió</w>
ad ero</w>
acondi cionado</w>
abandon ada</w>
a x</w>
Wed nes
U kra
St and</w>
Ri cardo</w>
R un</w>
R ight</w>
P res
P ra
P lu
Lle gamos</w>
Kab yle</w>
Just o</w>
Ju lia</w>
J i
Hag a</w>
H á
H aría</w>
Fin nish</w>
Escu cha</w>
En vi
En tien
Ch r
Ca tho
Bus ca</w>
9 9</w>
3 9</w>
ú bli
ál bum</w>
wor rying</w>
wit ness</w>
vuel ven</w>
volver ía</w>
visi té</w>
v ere</w>
un expected</w>
u dos</w>
treat ment</w>
tradu jo</w>
to wer</w>
to mes</w>
tis m</w>
ti lla</w>
temp le</w>
tem ber</w>
tax is</w>
tar des</w>
tab aco</w>
ta zo</w>
t és</w>
t ones</w>
sy ll
suit able</w>
su its</w>
stu b
step s</w>
star ed</w>
so b
sk il
si r</w>
seri e</w>
seri amente</w>
ser s</w>
se eds</w>
sar din
salv ajes</w>
sali era</w>
sal sa</w>
s est</w>
ri ding</w>
ri cas</w>
reg ard</w>
refle xi
re tor
re tired</w>
re empla
r ón</w>
r amos</w>
qui énes</w>
quem ó</w>
quej arse</w>
qu en</w>
pu ts</w>
propi edad</w>
pro ved</w>
pro greso</w>
present ó</w>
pregun tado</w>
port átil</w>
piz arra</w>
pi mienta</w>
pesadi lla</w>
pes os</w>
pen cils</w>
pas as</w>
pain ter</w>
pa vo</w>
pa int
p ár
p ino</w>
p acked</w>
ow ns</w>
ori es</w>
op inas</w>
on ous</w>
of en
od d</w>
ocu pa</w>
objec ts</w>
obje tivos</w>
o ven</w>
no venta</w>
na te</w>
muñ ecas</w>
mu la</w>
mu dó</w>
mostr arte</w>
molest es</w>
min a</w>
mejor ando</w>
meas ures</w>
meas ure</w>
me an
man dó</w>
mach ines</w>
li fe
le -
l ing
keep ing</w>
jug aba</w>
ju bil
izqui erdo</w>
issu es</w>
intérpre te</w>
inten ciones</w>
ino cencia</w>
ingre di
indis pensable</w>
imá genes</w>
impresion ado</w>
idi otas</w>
i ce
hor ne
ho ckey</w>
head s</w>
he ight</w>
har vest</w>
har d
gh ted</w>
gen u
ga stado</w>
g li
g aré</w>
fá ciles</w>
furi oso</w>
frequ ently</w>
fli r
f lat
exam s</w>
ex act</w>
et ly</w>
escon der</w>
entend erlo</w>
ent or
engañ ado</w>
en thu
ejemp los</w>
e ado</w>
drow ning</w>
dol ph
dis cre
diri gió</w>
diplo m
desper tador</w>
desast re</w>
depen d</w>
da m</w>
cá l
cu m
cu la</w>
ct ly</w>
cre cen</w>
cras hed</w>
cras h</w>
cor ona</w>
cor on
conveni ent</w>
conten t</w>
cont ext</w>
constru ido</w>
conf ess</w>
concep to</w>
compu esto</w>
compr endo</w>
communi cate</w>
com únmente</w>
colle cting</w>
colle agu
colec tivo</w>
co j
co ge</w>
civi li
cir cle</w>
cigarri llos</w>
ci fr
cen ce</w>
cell phone</w>
cel er
car bon
cam pos</w>
bú s
bi shop</w>
bar ata</w>
ball enas</w>
bail ando</w>
bag s</w>
baf fled</w>
b ac
ayud ando</w>
aw a</w>
avi s
au xi
au ti
atrap ó</w>
astu to</w>
arre stado</w>
aprob ar</w>
appeti te</w>
apo logy</w>
apar ato</w>
ap ri
ameri cana</w>
ambulan cia</w>
amar illas</w>
alo j
aliz ación</w>
aj as</w>
ad di
acti vo</w>
accep table</w>
ac ró
ac qui
ac ero</w>
abi ertas</w>
a sta</w>
a h
Y e
Val ent
T- shirt</w>
Sep tember</w>
S in
Qu eda</w>
Pi ck</w>
Na po
N ar
Mis s</w>
Mil lie</w>
Ma c</w>
M c
Lev án
L ong</w>
Ji ro</w>
Hel en</w>
Haw ái</w>
Hac ía</w>
Gre at</w>
F ili
En señ
Ei ther</w>
Di vi
Deber íais</w>
D raw</w>
Cál late</w>
Cu t</w>
Co me
Ci er
C ree</w>
C D
Bus co</w>
Br uno</w>
B I</w>
A ma
A grad
A g
6 0</w>
1 2
é se</w>
z ar
wor ries</w>
wonder ing</w>
wo unds</w>
wha le</w>
weal thy</w>
viol ent</w>
ver emos</w>
ven cido</w>
veh ículo</w>
vege tales</w>
ve me</w>
v é</w>
v amente</w>
un known</w>
tuvi eras</w>
tr ack</w>
tor o</w>
tooth paste</w>
ton o</w>
tomar á</w>
tien das</w>
ti f
ti ble</w>
ti al</w>
thir ty-
th ank
ten ds</w>
temp er</w>
tar la</w>
ta x</w>
ta sted</w>
ta p</w>
t les</w>
t led</w>
t ings</w>
super sti
sub estim
su bido</w>
stub born</w>
ste za</w>
spo on</w>
so m
shou ted</w>
señ al
servi cios</w>
semá foro</w>
sem br
secu re</w>
sear ched</w>
se wing</w>
se da</w>
sal en</w>
sa tion</w>
sa cu
s our</w>
s have</w>
rom per
ro de</w>
reci pe</w>
re por
qui etly</w>
quer áis</w>
pul s
protec tion</w>
pro hí
principal mente</w>
pri mi
predic ted</w>
preci ous</w>
preci oso</w>
pre h
practi cal</w>
pota to</w>
pon erlo</w>
po ured</w>
plá tanos</w>
pla zo</w>
pla y
pint or</w>
pien se</w>
pi des</w>
permi tió</w>
pas sion
oír te</w>
over come</w>
ou se</w>
odi aba</w>
observ ando</w>
o y
ni ghts</w>
n est</w>
mé dica</w>
mini ster</w>
mi ércoles</w>
men ores</w>
mel an
me tido</w>
mat ches</w>
man eras</w>
make up</w>
mag ne
m ón</w>
llev arse</w>
li mon
le aned</w>
lat a</w>
lan zó</w>
jo yas</w>
involucr ado</w>
introdu ced</w>
incl inó</w>
in migr
im patient</w>
im migr
ignor ó</w>
iP ad</w>
i ds</w>
háb itos</w>
hur ried</w>
hun dió</w>
head ed</w>
haz lo</w>
hand writing</w>
gustar á</w>
great -
gre ater</w>
gi da</w>
ge on</w>
gan os</w>
ga star</w>
g áis</w>
furi ous</w>
fu mo</w>
fra casado</w>
for mal</w>
fif th</w>
far ma
fai thful</w>
f abu
experim ent
evi dencia</w>
ev o</w>
eter n
estúpi das</w>
estudi as</w>
est ant
est ad
est aciones</w>
escri bo</w>
escla vi
es sed</w>
engañ ó</w>
effec ts</w>
ed ge</w>
e x</w>
e fica
e an</w>
drun ken</w>
dr am
dom esti
doll s</w>
divi de</w>
diver sión</w>
distr acted</w>
disgu ised</w>
dibu jar</w>
di on</w>
di mi
develop ment</w>
del gado</w>
defen sa</w>
def end
de ón</w>
dam as</w>
d dle</w>
d an
curr ently</w>
cu ales</w>
criti cal</w>
cri stal</w>
costu mbres</w>
cor tinas</w>
cont emp
consider ar</w>
consegu ido</w>
cono zca</w>
conclu sion</w>
con for
compr aré</w>
compr arse</w>
compr aron</w>
comm it</w>
com position</w>
com ete</w>
clo sest</w>
cl am
ci pl
champi on</w>
ch ances</w>
cep il
cent í
celebr ated</w>
capa cidades</w>
cap tured</w>
can al</w>
cambi an</w>
c ely</w>
brasile ño</w>
blo que
bil lion</w>
bi es</w>
bal lo
ba st
b ón</w>
autor idad</w>
at oria</w>
anc est
alquil er</w>
allo ws</w>
alem anes</w>
alem ana</w>
al tar</w>
affec ted</w>
advent ure</w>
adolesc entes</w>
acus ó</w>
acor deón</w>
acknowled ged</w>
aci d</w>
acep table</w>
accor dion</w>
abund ant</w>
ab y
a steis</w>
Ye ah</w>
Wednes day</w>
W ork</w>
Vo sotras</w>
V ámonos</w>
Ti m</w>
Sab és</w>
S ho
Par k</w>
Pal est
Obvi amente</w>
Mué strame</w>
Mari e</w>
M and
K no
Hici mos</w>
H ong</w>
H en
H ang</w>
Esper aba</w>
Entien des</w>
E du
D ía</w>
D ri
D ate</w>
Cor rec
Chr is</w>
C ap
B en
An tonio</w>
Actu almente</w>
Ab out</w>
A no
A di
5 4</w>
20 10</w>
ó logo</w>
éndo lo</w>
á neo</w>
Án geles</w>
z om
z ero</w>
wor l
war n</w>
wait er</w>
vul ner
vir tud</w>
vi lla</w>
ven ess</w>
ven eno</w>
ven dedor</w>
vec ina</w>
ve je
ve as</w>
unifor me</w>
tum ba</w>
tter ed</w>
tri steza</w>
trat amiento</w>
tradi tional</w>
tra ining</w>
to ol</w>
to mos</w>
to car
to caba</w>
tir é</w>
ti ck</w>
thro wn</w>
thre at</w>
ten edor</w>
ta il
swim s</w>
sun set</w>
suje to</w>
suel es</w>
sue co</w>
su ponía</w>
sti cos</w>
stat ue</w>
sta in</w>
st ra</w>
spi ders</w>
sk i</w>
sin c
sinc ere</w>
sil los</w>
si én
si mul
si enten</w>
separ ate</w>
sep tiembre</w>
sem illas</w>
se qui
scre amed</w>
scal e</w>
s m</w>
s fera</w>
s ad
ru ins</w>
ro t</w>
ro ll</w>
repli ed</w>
rehus ó</w>
re ales</w>
r se</w>
r ama</w>
quebr ado</w>
qu er</w>
pur ple</w>
pu pi
psy cho
provi ded</w>
pro mot
preten ding</w>
prefer s</w>
pre sas</w>
pr é
pr endió</w>
pos ses
po unds</w>
po p
po dri
plá tano</w>
pien ses</w>
pic ante</w>
per ci
pen de</w>
past or</w>
pas sing</w>
parti cular
pai sa
p pers</w>
p her
p ful</w>
ow es</w>
ori os</w>
obvi ously</w>
ob stin
ob sequi
nu be</w>
no mbr
ni eto</w>
neighb our</w>
nega tive</w>
nar row</w>
na vide
na cion
na cido</w>
n ine
mon u
min er
mezc la</w>
materi als</w>
mar ks</w>
mar as</w>
man dar</w>
mal et
lou dly</w>
lo ving</w>
lo ver</w>
llegar a</w>
li p</w>
le a</w>
ko ha
koha ma</w>
ke ts</w>
jo ined</w>
j ac
interest s</w>
interes es</w>
inno cence</w>
ingl eses</w>
incredi bly</w>
in stein</w>
in feliz</w>
i steis</w>
i re</w>
hu esos</w>
hu elga</w>
hormi gas</w>
hol ds</w>
ho mici
hermo sos</w>
hel pful</w>
happ ily</w>
ha das</w>
grow th</w>
fur ry</w>
frust r
fri ed</w>
fon os</w>
fol ded</w>
fo cus</w>
fl u</w>
fin ds</w>
fin a</w>
figu red</w>
feli ci
farma cia</w>
fair y</w>
exist ir</w>
ex pan
ex ceso</w>
estatu a</w>
esper amos</w>
escán dalo</w>
entren ador</w>
ent ales</w>
enfad ó</w>
en me</w>
en de
en couraged</w>
emo cionado</w>
el le</w>
ei ro</w>
ei ko</w>
dí os</w>
duer men</w>
du elen</w>
dormi da</w>
diver tida</w>
dist inta</w>
disgust ing</w>
discu tiendo</w>
dino sa
dig ital</w>
die cis
diecis éis</w>
diab los</w>
despi se</w>
del eg
decír selo</w>
célu las</w>
cuesti on
cuant os</w>
cu chara</w>
criti cism</w>
costar á</w>
contest ó</w>
const el
confu so</w>
con tain</w>
competi tion</w>
competen t</w>
competen cia</w>
communi cation</w>
comm and</w>
com o
cocin era</w>
clou dy</w>
cla im</w>
citiz ens</w>
ci ru
ci ales</w>
ch aron</w>
cat óli
casti go</w>
camp ana</w>
ca zar</w>
ca te
c én
bús queda</w>
bur g
black board</w>
beb és</w>
bañ era</w>
ban car
ba thing</w>
atraves ó</w>
atracti vo</w>
atr o
atmo sphere</w>
at or
at entamente</w>
at ar
art ículos</w>
arquit ec
ar d
apr endí</w>
ap esta</w>
ante ojos</w>
an ge
an cial</w>
al th</w>
advi se</w>
adecu ada</w>
activi ties</w>
accu mu
ac hac
ac ed</w>
ac ari
abi de</w>
ab ras</w>
ab ra</w>
Yo ung</w>
Yo kohama</w>
U.S .</w>
U sa</w>
Tr an
Th ough</w>
T or
T on
T it
Ste ve</w>
So ci
Pá same</w>
Po k
Nu estras</w>
Neces ita</w>
Mu y</w>
Moder n</w>
Ll or
Lit tle</w>
L lu
L ar
K u
K az
Jan eiro</w>
Hu mans</w>
G ol
Fu era</w>
Fin ally</w>
F red</w>
Ex pl
E instein</w>
Dí game</w>
Déj alo</w>
Compr amos</w>
Com pu
Cho pin</w>
Ch arles</w>
CD s</w>
C in
Budd hi
Bri an</w>
Bas que</w>
B en</w>
An d
Ali cia</w>
Adi ós</w>
A th
ó stico</w>
í sticas</w>
zon as</w>
year- old</w>
was hes</w>
wa ves</w>
wa ve</w>
vol vieron</w>
viaj a</w>
ver ing</w>
ven ti
vel es</w>
vec ind
un ció</w>
tí pico</w>
ty pes</w>
tuvi ste</w>
tu yos</w>
tr un
tortu red</w>
to mates</w>
tir ar</w>
ti das</w>
terri bly</w>
ta zas</w>
sw am</w>
super i
su sp
su rely</w>
straw berries</w>
stom achac
stomachac he</w>
speci fic</w>
sil k</w>
sho wn</w>
sho cked</w>
she et</w>
sel los</w>
segu r
sear ching</w>
scr atch</w>
s can
ru inas</w>
ro ca</w>
respon de</w>
respe tar</w>
reg ards</w>
rec ent</w>
re ver
re produ
re lu
re ac
rapi dly</w>
r amas</w>
quiz ás</w>
qu ero</w>
públi ca</w>
pu pil
proper ty</w>
produ ced</w>
preguntar te</w>
prefer ida</w>
pre stó</w>
poli cías</w>
pod ían</w>
pin e
pi on
perez oso</w>
per ju
pe ón</w>
pe ar
pay as
papel es</w>
pali za</w>
paint ings</w>
pa usa</w>
out standing</w>
ot ing</w>
organiz ación</w>
ordin ary</w>
oport unidades</w>
oper ación</w>
oper a</w>
op tion</w>
off ended</w>
ni cas</w>
ne ck
na ve</w>
na il</w>
n atal</w>
mó sfera</w>
mot os</w>
mos quito</w>
mole cu
min ds</w>
mil lions</w>
mil la</w>
mi sta</w>
mem ente</w>
mee tings</w>
me cá
mar co</w>
man ual</w>
man ga</w>
man da</w>
ma íz</w>
m ly</w>
m ados</w>
lo bos</w>
llev aron</w>
llen os</w>
lle gan</w>
llam aron</w>
lig ero</w>
libr as</w>
lav adora</w>
laugh ter</w>
l an</w>
k anj
ing e</w>
infer ior</w>
inclu ded</w>
in esper
in correcto</w>
impresion ante</w>
illu sion</w>
ien ce</w>
hur ting</w>
horiz on</w>
her idos</w>
heavi ly</w>
hear ts</w>
hal f-
gu st</w>
gri tando</w>
great ly</w>
gener ous</w>
funcion an</w>
fu eran</w>
follo ws</w>
flexi ble</w>
fir me</w>
fin ancial</w>
fil es</w>
fa me</w>
extin gu
explicar lo</w>
exhi bi
exam ples</w>
ex pi
eter nal</w>
estam pil
estab lished</w>
est af
es pl
es pan
er ce</w>
entor no</w>
enseñ ando</w>
enor mous</w>
encant ado</w>
en cial</w>
empie zan</w>
dres ses</w>
down stairs</w>
don dequiera</w>
docu ment
disap point</w>
disa ster</w>
dif un
dici embre</w>
devi ce</w>
develop ed</w>
des pedir</w>
des conocido</w>
deli vered</w>
dele ted</w>
de volver</w>
de udas</w>
dam n</w>
da ños</w>
da y
cump lido</w>
cu estan</w>
cu bri
cru zó</w>
cre ciendo</w>
cre ce</w>
coun ting</w>
correct as</w>
consu me</w>
const ant</w>
confes ó</w>
conclu sión</w>
concentr ate</w>
con exi
con cept</w>
compr arme</w>
comen zado</w>
cion ados</w>
ci one</w>
ci ca
cha l
ch ever</w>
cerem ony</w>
cep illo</w>
cen as</w>
cel ls</w>
cas aron</w>
car pet</w>
cafe tería</w>
cad á
caca hu
cab les</w>
ca sé</w>
bur nt</w>
brea thing</w>
book store</w>
bo wl</w>
bo iling</w>
bl ings</w>
bit ten</w>
bi erno</w>
bas ement</w>
ball ena</w>
b acks</w>
avoi ded</w>
au str
at ó
at mósfera</w>
as quer
arro gante</w>
ar med</w>
apropi ado</w>
anti ci
and ra</w>
all ed</w>
al mac
al fil</w>
agu do</w>
ad qui
achi ev
ac rob
aboli shed</w>
ab un
a to
a str
W ow</w>
Ven id</w>
Ve amos</w>
V ini
Su ena</w>
Sali ó</w>
Sal í</w>
Res ul
Re ally</w>
R am
Qu een</w>
Plan eo</w>
Per done</w>
Pau lo</w>
N ad
Mo z
Mant ente</w>
M el
L ament
K ong</w>
Je ws</w>
J orge</w>
I D</w>
Hac er</w>
Go bierno</w>
Gener ally</w>
For get</w>
F ar
En ci
Dij iste</w>
D am
Cu ba</w>
Cor rí</w>
Con segu
Ch ess</w>
Catho lic</w>
Bri tain</w>
Be tter</w>
Ar ab
An s
Amb as</w>
Actu ally</w>
00 0
úbli ca</w>
ú scu
ícu la</w>
ér f
é s
é mon</w>
áti cas</w>
ár selo</w>
ándo le</w>
zu ki</w>
z mente</w>
yiel d</w>
wor th
win dy</w>
w ling</w>
vícti mas</w>
vol ley
volley ball</w>
vo d
vod ka</w>
virtu e</w>
vi les</w>
ver gon
ver bs</w>
ven ía</w>
vecind ario</w>
usu ario</w>
us k
un ding</w>
ty pho
typho on</w>
travel s</w>
travel ling</w>
trabaj as</w>
tra de</w>
tomar on</w>
to ols</w>
to bil
ti le</w>
text book</w>
ter ías</w>
te te</w>
tar ian</w>
tar get</w>
sánd wiches</w>
sw itch</w>
sugi rió</w>
suggesti on</w>
suf re</w>
subi endo</w>
st ays</w>
st ab
sp lit</w>
some what</w>
solu cionar</w>
sole dad</w>
sli pped</w>
skir ts</w>
si go</w>
sexu ales</w>
se ño</w>
se vere</w>
se du
se a
scre aming</w>
sav ings</w>
salud ó</w>
sacrifi ce</w>
sacer dote</w>
s pare</w>
s ca
s ana</w>
ru edas</w>
ro bots</w>
revi sar</w>
rescu e</w>
res bal
repe tir</w>
rela xed</w>
rela tives</w>
regar dless</w>
reco ger
reci bo</w>
rec k
re port
re o</w>
re jected</w>
re bel
ra il
r at</w>
qui eto</w>
quej ando</w>
qued arnos</w>
pá lido</w>
pudi eron</w>
prácti camente</w>
prome to</w>
priv ada</w>
prision ero</w>
por qué</w>
pic king</w>
pi ed</w>
philoso p
persu aded</w>
peligro sas</w>
pele ando</w>
pec emos</w>
pe d
pe cu
pa jamas</w>
p ingü
or as</w>
optimi sta</w>
op lan
on ato</w>
o logy</w>
no wadays</w>
night mare</w>
necesit es</w>
na ciones</w>
murder er</w>
mostr arme</w>
monstru o</w>
mon ster</w>
mo tivos</w>
men cionó</w>
mejor ado</w>
medi cin
me ch
maripos as</w>
mane ja</w>
man go</w>
ma sti
ma id</w>
lu jo</w>
lti mamente</w>
lo ses</w>
llev arme</w>
llam adas</w>
ll s</w>
lin gui
le ña</w>
lav ando</w>
lav ado</w>
la vo</w>
l i</w>
ket ch
jump ing</w>
ju gado</w>
ju díos</w>
jer sey</w>
j or
inter ven
infor mado</w>
indi gn
in se
in dul
in cur
in correcta</w>
il ton</w>
hu érf
hu mili
horizon te</w>
handker chief</w>
hair cut</w>
h of</w>
h o</w>
gr a</w>
go ya</w>
go l</w>
go d
gi co</w>
gener ation</w>
gar den
gala xi
gal lo</w>
g age</w>
fro g</w>
fri tas</w>
fr amed</w>
four th</w>
figu ra</w>
fiel ds</w>
fer os</w>
fasti di
famili ari
f reg
f loo
f ans</w>
ex ecu
est arán</w>
escol ar</w>
esclavi tud</w>
ep ing</w>
entien da</w>
ent endió</w>
enjo ys</w>
enfad ar</w>
encontr arte</w>
emplo yment</w>
em pecé</w>
em bassy</w>
em as</w>
eléctri co</w>
eleph ants</w>
eigh teen</w>
ear on</w>
doll ar</w>
doct ores</w>
divor cio</w>
difer enci
diam antes</w>
di ta</w>
deva st
des a
der ly</w>
depri mido</w>
demostr ar</w>
del ay</w>
dej an</w>
def ender</w>
deci dieron</w>
d ates</w>
custom ers</w>
cuad r
cu ñ
cu ya</w>
cu ero</w>
cu entos</w>
crow ded</w>
cro wn</w>
coun ter</w>
cough ing</w>
correc ted</w>
contrat ar</w>
contr a
continu ó</w>
con sta</w>
comput adores</w>
compar e</w>
combusti ble</w>
com man
colec cion
coinci dence</w>
co pe</w>
co ach</w>
cli mb
cis mo</w>
ci ste</w>
ci mos</w>
ci ega</w>
che f</w>
cas arte</w>
camin aba</w>
ca tal
ca di
ca be</w>
c emos</w>
bom ber
bomber os</w>
bl onde</w>
bio logía</w>
bi sexual</w>
bene ficios</w>
bal ance</w>
b at</w>
ayud é</w>
ayud aré</w>
aver i
avent ura</w>
audi encia</w>
ati va</w>
at ta
arro g
ar las</w>
ar eas</w>
apu ñ
ansi oso</w>
an ot
amen hof</w>
am érica</w>
alim entar</w>
ali zado</w>
ahorr ando</w>
ahor ros</w>
ag ra
ag gres
act úa</w>
ac re
a pi
Z amenhof</w>
Yo ko</w>
Y amada</w>
Wi ki
Vuel vo</w>
Un til</w>
U S</w>
Tra e</w>
To me</w>
Tai w
T ex
Su zuki</w>
Su p
Stre et</w>
Se gun
S ur</w>
S lo
S ar
Re gres
Re ading</w>
Pru eba</w>
Pok émon</w>
Pas s</w>
P ón
P ay</w>
P ase</w>
O cur
Na goya</w>
Mar ina</w>
Mar co</w>
Ma themati
M ur
Lá vate</w>
Lu is</w>
Llu eve</w>
Llo vió</w>
Llev aba</w>
Lev ant
Langu age</w>
Ig nor
Hici ste</w>
He alth</w>
Har ry</w>
Ha go</w>
H ap
Gu ess</w>
G abri
F BI</w>
Esco cia</w>
Edi son</w>
E ran</w>
E mp
Din ner</w>
Dar win</w>
D ra
Correc t</w>
Conoc í</w>
Con t
C en
Bel gi
B C</w>
Asu mo</w>
Apr ende</w>
Al i</w>
A bo
A D
3 3</w>
3 .
20 th</w>
ífi ca</w>
é nico</w>
ár telo</w>
á tomos</w>
á moslo</w>
y mpi
wor thy</w>
wol ves</w>
whist le</w>
vuel tas</w>
volun tario</w>
visi tors</w>
victi ms</w>
vi tal</w>
vi s
vesti da</w>
ver bo</w>
vel s</w>
veh ículos</w>
vege tarian</w>
ve hi
v ada</w>
us h</w>
un employed</w>
un be
tu de</w>
tr y
tor n
tir ás</w>
ti mbre</w>
ti dy</w>
thi eves</w>
thes is</w>
the tic</w>
termin é</w>
te j
tas a</w>
ta sty</w>
ta pe</w>
t aban</w>
sust itu
sufici entes</w>
su yos</w>
sti cado</w>
stam p</w>
son ríe</w>
smo ked</w>
sla pped</w>
six teen</w>
silen ci
sigui eron</w>
si gues</w>
si ck
si blings</w>
sha l
sh out</w>
ser ia</w>
se tenta</w>
scienti sts</w>
sab ios</w>
s ú
s lo</w>
s car</w>
ro tten</w>
ro llo</w>
revolu ción</w>
respe ta</w>
resi st</w>
rescu ed</w>
regular mente</w>
regar ded</w>
qued ará</w>
qu ini
pul se</w>
prison ers</w>
principal es</w>
prin t</w>
previ ous</w>
pre visto</w>
pra yed</w>
post ura</w>
posi tivo</w>
pondr é</w>
pon erle</w>
pollu tion</w>
po ll
plan ea</w>
pin ess</w>
peti ción</w>
perfor mance</w>
peda zos</w>
pe ar</w>
pe anu
peanu ts</w>
pat inar</w>
parec ían</w>
par ent</w>
oír lo</w>
our nam
or ly</w>
op ens</w>
on ship</w>
ol la</w>
ol ed</w>
offi cer</w>
occu pied</w>
obses sed</w>
no stal
na m</w>
má scara</w>
mu d</w>
mis ses</w>
mis as</w>
mez cl
meth ods</w>
mati cally</w>
mat aste</w>
mar zo</w>
mar gar
manten erse</w>
man ners</w>
man kind</w>
mal entendido</w>
ma il
líqui do</w>
lo an</w>
llor aba</w>
lleg ando</w>
llam es</w>
list as</w>
lim its</w>
ley enda</w>
len g
le tting</w>
laun dry</w>
ketch up</w>
k n
jun gle</w>
jud ío</w>
j ban</w>
itali ana</w>
it es</w>
irri t
interpre ter</w>
insist ed</w>
ingeni ero</w>
in justo</w>
imagin é</w>
hu eso</w>
hon esta</w>
ho st
ho landés</w>
hi st
hi pó
ha ci
gu est</w>
glo bal</w>
ga ti
g ases</w>
funcion ó</w>
fru tos</w>
forge tful</w>
fore head</w>
fi cación</w>
fel low</w>
fascin ante</w>
far mer</w>
fal tan</w>
expen ses</w>
excu sas</w>
ex pedi
ever al</w>
estant ería</w>
esta cion
est emos</w>
especi es</w>
especi ales</w>
españ oles</w>
escu elas</w>
es car
entre gar</w>
en quiera</w>
en frente</w>
embarras sing</w>
eli gió</w>
el derly</w>
edu cated</w>
ec os</w>
e ther</w>
dur ar</w>
du ck</w>
dream t</w>
domin ar</w>
dol ores</w>
dist into</w>
dist ant</w>
disfru ta</w>
disco very</w>
di ll
di lig
detal le</w>
descri bed</w>
der ing</w>
def ense</w>
de t
de os</w>
dal ena</w>
có mpli
có digo</w>
custom er</w>
cur ar</w>
cul tiv
cuidad osamente</w>
cu p
crí tica</w>
cre í</w>
cre cer</w>
coun try
controver si
consul tar</w>
conse gui
condu jo</w>
con spi
comi eron</w>
colle cted</w>
col oni
co gido</w>
cier vo</w>
ci elos</w>
cho col
cheer ful</w>
cerem onia</w>
cer e
castig ado</w>
car gar</w>
car bón</w>
camin a</w>
ca misas</w>
bur lar
bulle t</w>
borr ar</w>
bor e</w>
bol sillos</w>
bo thering</w>
bebi das</w>
beb en</w>
bar k</w>
ba k
b abies</w>
ayud es</w>
avi rus</w>
autén tico</w>
attr acted</w>
attemp ted</w>
ast ero
assist ant</w>
as h</w>
ar row</w>
apuñ al
ap parently</w>
answ ering</w>
an or
an ni
alim ento</w>
al though</w>
al las</w>
al dea</w>
aim ed</w>
agre es</w>
adolesc ente</w>
admini stra
ac celer
abra zo</w>
ab o</w>
a zo</w>
a os</w>
Wh ether</w>
Univer sity</w>
U .</w>
So ñ
So on</w>
S leep</w>
S everal</w>
Res pon
Re ino</w>
Pre par
Pol and</w>
P í
O ri
O liver</w>
Mil ler</w>
Intent ó</w>
Imag ino</w>
Hen ry</w>
Hap piness</w>
Ha ven</w>
Good bye</w>
Ex plain</w>
Est aremos</w>
Entr a</w>
En cu
E vi
E u
De pende</w>
Contin u
Canadi ans</w>
Cal m</w>
Au gust</w>
Ans wer</w>
A bor
1 .
ñ ón</w>
í stico</w>
ángu lo</w>
Ú ltimamente</w>
z aremos</w>
youn gest</w>
vo ces</w>
vie ws</w>
vent ajas</w>
val la</w>
va tive</w>
va por</w>
v ó</w>
v aqu
usk era</w>
us as</w>
ur al</w>
u ela</w>
términ os</w>
twi sted</w>
tw o-
tru co</w>
trans mi
toma toes</w>
to p
tif ón</w>
ti tud</w>
ti li
thre e-
ther lands</w>
t ;</w>
suicid arse</w>
sufri miento</w>
suffer s</w>
stupi dity</w>
sto ck</w>
st ien
st -
smil es</w>
sk in
simp ático</w>
si mi
si ans</w>
she ets</w>
sha de</w>
señ ales</w>
separ ado</w>
se ated</w>
sal ty</w>
s lu
rí os</w>
rug ía</w>
rob ando</w>
ris ks</w>
ri vers</w>
ri sh</w>
reír se</w>
revolu tion</w>
reser var</w>
represent a</w>
remem bers</w>
relo jes</w>
regre se</w>
refle ction</w>
reco vered</w>
re stri
r and
rand om</w>
r ana</w>
quiz á</w>
qui la</w>
quej arte</w>
quarre l</w>
qu into</w>
pré st
profun di
pri meras</w>
preocup ados</w>
predic t</w>
pra ying</w>
pos si
pop corn</w>
po orly</w>
po ker</w>
plane ado</w>
pil as</w>
pi da</w>
perman ente</w>
per sever
per dimos</w>
pen alty</w>
pe ta</w>
pas arme</w>
pa ys</w>
pa wn</w>
p í
ori dad</w>
ori da</w>
op s</w>
ocup ar</w>
occu r</w>
occa sion</w>
o logía</w>
o bo
numer ous</w>
nove list</w>
no d
nervi osa</w>
ne uro
ne gar</w>
na tion
mu ri
mol estar</w>
mo dest</w>
mis understanding</w>
mil lon
mil lion
mi entas</w>
mi cas</w>
mez quita</w>
medi cam
mar is
man dar
mamí feros</w>
ma gia</w>
lí mite</w>
lu x
lo ws</w>
llá mame</w>
lli ant</w>
ll eng
li quid</w>
li mit</w>
lad ra</w>
lab or</w>
la wn</w>
l or
ki ck</w>
keep er</w>
k night</w>
k ar
ir ías</w>
interru mp
instru mento</w>
indu stry</w>
independ encia</w>
igu al
idi ots</w>
i ción</w>
hu ir</w>
hu ellas</w>
ho les</w>
he chi
harm ful</w>
happi er</w>
gro ws</w>
gri fo</w>
gri ega</w>
gras a</w>
grand son</w>
graf os</w>
gradu ally</w>
gi ra
gent le</w>
gener ación</w>
g ota</w>
g in</w>
g esti
g adas</w>
formu lario</w>
fore cast</w>
flo od</w>
fing ir</w>
fin ales</w>
fi ghts</w>
fi el</w>
fi ction</w>
fi car</w>
fast est</w>
fal das</w>
exter ior</w>
excep ción</w>
ex it</w>
ex cur
ev ents</w>
estri cto</w>
est aremos</w>
ess ness</w>
escla vos</w>
escla vo</w>
er up
equi pos</w>
equi p
entreg ó</w>
encontr aba</w>
em pi
el ling</w>
econó mico</w>
ec lip
ec erá</w>
e zed</w>
dres sing</w>
don key</w>
dish on
dis culpa</w>
differ ently</w>
diccion arios</w>
determin ed</w>
dest iny</w>
desper dici
desi erta</w>
deli to</w>
deli cate</w>
deli ber
del e</w>
dej aría</w>
deb ts</w>
de v
da to</w>
cá lido</w>
cy cles</w>
cur tains</w>
cump le</w>
cru do</w>
cre w</w>
cre erlo</w>
cre cido</w>
cre ature</w>
cor d
contr ary</w>
contr adi
cont é</w>
condi tion
con sum
con stante</w>
con cre
compr end
com ía</w>
com por
com emos</w>
climb ing</w>
cle an
clar idad</w>
ck er</w>
cion almente</w>
cier tas</w>
chemi stry</w>
cha mos</w>
cha m
cha lleng
ch erry</w>
ch era</w>
car eless</w>
ca sillas</w>
c í
bus in
buf anda</w>
br í</w>
bio logy</w>
be e</w>
b loo
aument ando</w>
athe ist</w>
asust ó</w>
ast ro
as hi
arro jó</w>
appli ed</w>
ap lau
anti -
announ ced</w>
ani me</w>
and -
am pli
al and</w>
ago sto</w>
ag reg
addic ted</w>
acu mu
acep tado</w>
accommo date</w>
abstr act</w>
a -
Zel anda</w>
Ze aland</w>
X X</w>
Wiki pedia</w>
Wh er
Viet nam</w>
Vi ven</w>
Ven us</w>
Uni do</w>
Tó mate</w>
Sién tate</w>
Segun da</w>
S pi
S evi
Ro mans</w>
R on
Quí tate</w>
Ol ympi
Ob ama</w>
O x
Nu ja</w>
Nu evo</w>
New ton</w>
Ne therlands</w>
Nar ita</w>
Mon days</w>
Mathemati cs</w>
Mag dalena</w>
Llev amos</w>
Lle vas</w>
Le on
L av
J ef
I A</w>
Hol mes</w>
Gabri el</w>
F ish</w>
Escri bí</w>
Enséñ ame</w>
Eng lish
E le
Des ayun
Deb en</w>
De je</w>
Cono ce</w>
Com pra
C z
C lean</w>
B ei
B aja</w>
An ything</w>
Al mor
A puesto</w>
A par
A I</w>
8 0</w>
3 5</w>
2 6</w>
óni mo</w>
ó ticos</w>
ó sof
í tu
í so</w>
ér melo</w>
z can</w>
z ación</w>
y a
win d
whi sper
vu ela</w>
vol ó</w>
vocabu lario</w>
visi ts</w>
visi tas</w>
video juegos</w>
viaj ó</w>
velo z</w>
vari edad</w>
va ci
v emente</w>
v ani
v ampi
us os</w>
uni form</w>
un healthy</w>
u x</w>
u ms</w>
trou bles</w>
trop as</w>
tro zos</w>
trivi al</w>
triun far</w>
tran quil
tram pas</w>
tr om
tr e</w>
ton terías</w>
toler ate</w>
to -
the irs</w>
th um
th read</w>
test s</w>
terre motos</w>
termin ará</w>
tem or</w>
tem er</w>
tem en</w>
tel ep
teen ager</w>
te tera</w>
tar os</w>
tal ka
talka tive</w>
t ún
t ant</w>
sy st
sy n
su mo</w>
stin ks</w>
star d</w>
sta ke</w>
sta dium</w>
st able</w>
son ando</w>
sobr ino</w>
so w</w>
smo kes</w>
sim pl
si tes</w>
si ll
shor tly</w>
sha king</w>
sent aron</w>
sent amos</w>
segur amente</w>
scan dal</w>
sab ia</w>
sa il</w>
s s
ro ot</w>
ro l</w>
ro cks</w>
reír me</w>
restaur ants</w>
rest less</w>
repu gn
repe ated</w>
refu gi
reco gió</w>
re se</w>
ra stro</w>
r ou
que jó</w>
pupil s</w>
pudi ste</w>
provo có</w>
prote í
pronunci ation</w>
pron uncia</w>
pro posed</w>
prin ts</w>
pregun tando</w>
pre cau
post pon
posi bles</w>
poder oso</w>
piri n</w>
pi ña</w>
pesadi llas</w>
per ra</w>
per pe
per form</w>
pen gu
pe ores</w>
pe do</w>
patr ia</w>
pas aje</w>
pand em
pan ad
p ata</w>
ow l</w>
organiz ation</w>
ordeñ ar</w>
or it
or ch
on e-
of reci
objec tive</w>
nove lista</w>
norm ally</w>
nor ma</w>
ni ega</w>
neces sity</w>
neces ite</w>
ne um
nave gar</w>
n ings</w>
mos que</w>
mol é
mo tion</w>
mo di
mix ture</w>
mir é</w>
mir aron</w>
mini str
memori zar</w>
medicam entos</w>
medi das</w>
medi as</w>
masco tas</w>
maquil la
maquilla je</w>
manif est
mani pu
man ner</w>
ma cho</w>
logi c</w>
llev aban</w>
llegar ás</w>
lle gas</w>
llam arte</w>
llam amos</w>
lig era</w>
leng th</w>
lea ther</w>
le en</w>
le as</w>
lan go
l ío</w>
kni ves</w>
ke en</w>
j era</w>
inten tions</w>
insul ted</w>
ingre dientes</w>
industri a</w>
independ ence</w>
incre asing</w>
incre ased</w>
incl in
in tri
in fr
in et</w>
in deed</w>
ho spe
her ir</w>
happi est</w>
habit antes</w>
gru pos</w>
grou ps</w>
gri egos</w>
grave dad</w>
go te</w>
go ssi
gir ó</w>
gall inas</w>
fu el</w>
fru to</w>
fle cha</w>
fil ósof
fil tr
fem in
fant astic</w>
fal sas</w>
fa irs</w>
fa inted</w>
excu ses</w>
europe os</w>
estu fa</w>
esta cionar</w>
est ante</w>
equi val
equ ally</w>
envi ado</w>
enterr ado</w>
enseñ anza</w>
eno men
encant aba</w>
enamor ados</w>
emo tions</w>
em per
elem ents</w>
el li
ef s</w>
ed eral</w>
ear ned</w>
e u
e tic</w>
e cha</w>
down town</w>
do so</w>
distr act</w>
distin tos</w>
dis cover</w>
dis cipl
diction aries</w>
descubri miento</w>
des may
des ign</w>
des cen
des cal
deci dí</w>
dece ived</w>
de vor
de prisa</w>
de gree</w>
d ot
d ated</w>
d anza</w>
cá maras</w>
cuer pos</w>
cuant as</w>
cu entes</w>
cristi ano</w>
cre cí</w>
cre atures</w>
country side</w>
coron avirus</w>
convi erte</w>
conver tirme</w>
contar le</w>
conso le</w>
consi gue</w>
con d</w>
compu l
comple ted</w>
comple jo</w>
compani es</w>
com pone</w>
col der</w>
coco dri
co ro</w>
ci rugía</w>
cho có</w>
char lar</w>
cer canos</w>
cele bra</w>
cap ítu
cant ado</w>
candi dato</w>
candi date</w>
camar ero</w>
cachor ro</w>
ca za</w>
ca ta
c lo</w>
c entre</w>
bur den</w>
bu ll</w>
bro om</w>
bl amed</w>
bicicle tas</w>
bi endo</w>
bes ides</w>
ber ry</w>
be te</w>
be ef</w>
bar bar
bak ery</w>
b one</w>
ayud an</w>
auto mobile</w>
atras ado</w>
atrap ar</w>
ast on
ast er
as pirin</w>
argu ed</w>
ar íamos</w>
aqu él</w>
apun tó</w>
aprovec har</w>
apa ga</w>
ap p</w>
anno yed</w>
am amos</w>
alérgi ca</w>
alcan ce</w>
ai se</w>
ag ers</w>
afil ado</w>
adop tar</w>
ad onde</w>
actu almente</w>
aco star</w>
aco stado</w>
aca dem
ac tos</w>
ac knowledge</w>
abraz ó</w>
abor to</w>
ab domin
a é
a puesto</w>
Wil son</w>
W estern</w>
U su
Tru e</w>
To o</w>
To mar
Tex as</w>
Sum mer</w>
Stu dy</w>
Sovi et</w>
Si gues</w>
Se cond</w>
Sci ence</w>
S í
S ir</w>
S iga</w>
Rom an</w>
Ro man
Ro berto</w>
Pla ying</w>
Par ents</w>
O V
No che
Mu cho</w>
Moz art</w>
M í
M iré</w>
Le er</w>
Ju gamos</w>
Je wish</w>
J ú
I rán</w>
Habl ando</w>
Gre en</w>
For give</w>
F alta</w>
F al
Exi ste</w>
Esp ere</w>
E d
Dor mí</w>
Des eo</w>
D entro</w>
Cz ech</w>
Conf ío</w>
Con fi
Compu ters</w>
C y
B ang</w>
Aten as</w>
Asu mí</w>
Ap parently</w>
Adiv ina</w>
A po
A fri
A cu
7 0</w>
10 ,000</w>
1 50</w>
óni cos</w>
ísi mos</w>
ár bi
y n</w>
xi sta</w>
wi ves</w>
wi ped</w>
war ning</w>
vu estras</w>
vo ices</w>
visitar me</w>
us ers</w>
us cri
ur r
un ted</w>
un reliable</w>
u e
tí mida</w>
turi sta</w>
tu oso</w>
tu ber
triun f
tri ps</w>
tr ap
tor e</w>
to xi
to cado</w>
ti ck
ti camente</w>
thank ful</w>
telef ónica</w>
tarje tas</w>
t ournam
t our</w>
t ores</w>
t atu
sym pa
suspi ci
suppli es</w>
supi eras</w>
sup ported</w>
suger encia</w>
suce dido</w>
strugg le</w>
stri ctly</w>
str ated</w>
stab bed</w>
st res
st ly</w>
squ ares</w>
spa de</w>
sp y</w>
sou thern</w>
sole ado</w>
sol ían</w>
sol ving</w>
sir ven</w>
sin u
sin gu
signifi c
sig ns</w>
si ts</w>
si ga</w>
shi ma</w>
sh ri
sett led</w>
sent arte</w>
senci llamente</w>
sen tirse</w>
scre w</w>
scr at
scen ery</w>
satisfe chos</w>
sat éli
sanguí neo</w>
sales man</w>
sal go</w>
sab rá</w>
s par
s ly</w>
s ank</w>
ré cord</w>
rumor es</w>
rug by</w>
ru sa</w>
respi ración</w>
resol vió</w>
remin ded</w>
remar ks</w>
relu ct
rec to</w>
re placed</w>
re llen
re cuerdas</w>
ra y</w>
r la</w>
r hy
quí mico</w>
quer rías</w>
qu ali
puñ e
protec ted</w>
prome tido</w>
program as</w>
prob arlo</w>
pro per</w>
pro p
privi le
principi antes</w>
preten día</w>
pres sion</w>
preocu parte</w>
preocu pación</w>
pregun tes</w>
pre venir</w>
pre t
pre stas</w>
pp ly</w>
post al</w>
po dremos</w>
pin os</w>
pil ló</w>
pil lar</w>
pic ó</w>
philosop her</w>
ph s</w>
persu adi
perio do</w>
per ca
per as</w>
pens arlo</w>
pe gar
pe eling</w>
pas sage</w>
parti mos</w>
para íso</w>
pa to</w>
p harm
or to
obses ion
ni veles</w>
neighb ours</w>
neck lace</w>
ne dy</w>
nacion alidad</w>
mé todos</w>
murcié lagos</w>
mul ta</w>
mp s</w>
mo to
mo difi
min or</w>
min eral</w>
mer mel
mermel ada</w>
me te</w>
me la</w>
mar cado</w>
mal etas</w>
ma tion</w>
m án</w>
m ere</w>
lu chando</w>
lo w
lo b
llev amos</w>
li ghtning</w>
les ion
lei bol</w>
lear ns</w>
le ma</w>
kno ck</w>
k ward</w>
jue gues</w>
jo gging</w>
jewel ry</w>
jam ón</w>
j ing</w>
j en
is lam</w>
interrup ted</w>
insec to</w>
ini ti
infin ite</w>
industri al</w>
in usual</w>
in ti
in habit
in expli
imp acto</w>
imp act</w>
identi dad</w>
i va</w>
hy dro
hur ac
homo sexual</w>
hist ó
hi gi
har mon
ha ts</w>
ha i
guar da</w>
gra ves</w>
gol den</w>
go ma</w>
gl oria</w>
ght -
g in
g ador</w>
físi co</w>
fu t
fu m
fres as</w>
fra casó</w>
fr íos</w>
flo ws</w>
fl or
fire figh
fij amente</w>
fav our</w>
fashi oned</w>
f ying</w>
exi toso</w>
estuvi eras</w>
est ir
est ima</w>
espl én
esper ábamos</w>
esper es</w>
escu char
escri b
esca se
es ar</w>
err ó
enseñ aré</w>
encu entre</w>
en did</w>
en chu
emp ha
emo tional</w>
emo ciones</w>
em en</w>
ed ores</w>
eclip se</w>
earthqua kes</w>
e uskera</w>
e th
e gas</w>
e ches</w>
e ager</w>
e ag
du pli
du de</w>
dormi dos</w>
don os</w>
domin io</w>
do cena</w>
dist as</w>
dispar o</w>
dise ño</w>
dis mo</w>
direct ly</w>
direc t</w>
din ing</w>
descri bir</w>
des van
des pier
dej arlo</w>
declar ed</w>
de volver
de fi
de co
de aling</w>
dar nos</w>
da se</w>
d war
cur sos</w>
cuchil los</w>
cucarach as</w>
cu ts</w>
cristi anos</w>
cri es</w>
cor reg
controversi al</w>
contribu te</w>
contar é</w>
condu ct</w>
conce ited</w>
compla ints</w>
comer cio</w>
comen zaron</w>
com mon
com mer
collap sed</w>
coinci dencia</w>
co ordin
co br
civiliz ación</w>
che w</w>
cha sed</w>
cha me</w>
ch ir
ch eat</w>
celebr ar</w>
cas co</w>
car net</w>
cap itu
camin ó</w>
cambi ando</w>
cal ef
cal cular</w>
cadá ver</w>
ca usar</w>
c ú</w>
bus có</w>
bus cas</w>
bu ys</w>
británi cos</w>
bri lliant</w>
br inging</w>
br in
bomb ero</w>
bo li
bo iled</w>
bo il</w>
bo asts</w>
behavi our</w>
begin ners</w>
be ats</w>
be ating</w>
batter ies</w>
bas a</w>
bar ca</w>
baj ando</w>
bag gage</w>
back pack</w>
b ble</w>
b ad
aw kward</w>
autor iz
auth ori
attr act</w>
at eo</w>
at asco</w>
asist encia</w>
as in
as h
arti ficiales</w>
arreglar lo</w>
ari an</w>
argu mento</w>
ard var
ar gent
ar dillas</w>
aprob ado</w>
appro ached</w>
apli ca</w>
alu ña</w>
ag ente</w>
afi cionado</w>
affec t</w>
acró bata</w>
acrob at</w>
acostumbr ados</w>
aconse j
acompañ ó</w>
ab re
a zar</w>
a x
a preci
Wher ever</w>
Wal k</w>
Volvi ó</w>
Vi ves</w>
Ven ez
V ir
U s
U ru
U U.</w>
Tom amos</w>
Ten íamos</w>
T ro
T re
Scot t</w>
S en
R ío</w>
R aise</w>
Pol onia</w>
Podr íamos</w>
Permí tame</w>
Ped í</w>
Pau la</w>
Pa ci
P ush</w>
P ac
O kay</w>
Mos cú</w>
Mos cow</w>
M ac
L at
Ki ds</w>
Ken nedy</w>
K eiko</w>
Ju guemos</w>
Hu man</w>
H al
Gra b</w>
Ger mans</w>
Fl orida</w>
F ive</w>
F ill</w>
Extr año</w>
Expl í
Ex am
Estu vimos</w>
Es crí
Dí gan
D á
Cor án</w>
Con stru
Com ple
Cat aluña</w>
C ay
Bus qué</w>
Bus h</w>
Bei jing</w>
Be bo</w>
Be be</w>
B .</w>
Ay ú
Ath ens</w>
Arab ia</w>
Ar ti
Ale x
AD N</w>
A ni
A ki
A caba</w>
últi mas</w>
ó x
óx ido</w>
ó grafo</w>
árbi tro</w>
ában as</w>
á culos</w>
É ramos</w>
zapa to</w>
z one</w>
xim ately</w>
wis s</w>
whi chever</w>
well- known</w>
wa sted</w>
wa kes</w>
vulner able</w>
vuel vo</w>
vi gor
verdad eros</w>
ver los</w>
ven dido</w>
vege table</w>
vari ety</w>
vac y</w>
va to</w>
va ste</w>
uni forms</w>
under estimate</w>
u t
téc nica</w>
tumb ado</w>
tro ops</w>
trat aron</w>
trans fer
trai cionó</w>
tradu cido</w>
tradi ción</w>
tortu ga</w>
to co</w>
tion ary</w>
ti era</w>
th under</w>
ter os</w>
te ó</w>
te ams</w>
tal s</w>
ta xista</w>
swim mer</w>
swe ating</w>
suce da</w>
sub st
su scri
su dor</w>
su bur
su av
suav emente</w>
stor es</w>
sti cks</w>
star on</w>
sta ste</w>
spl endid</w>
spiri ts</w>
sp in
sor row</w>
sobre vivió</w>
sob res
sno ws</w>
small est</w>
slo wer</w>
skil ls</w>
sk ill</w>
sir vi
sigui entes</w>
sig no</w>
sig nal</w>
sick ness</w>
si ta</w>
si ma</w>
si de
shor t
sho oting</w>
sex y</w>
servi ces</w>
sent ar</w>
sat elli
sa f
s óli
s ábanas</w>
ru led</w>
ru bio</w>
román tico</w>
roman ce</w>
reuni ó</w>
respec ted</w>
respe tan</w>
resor t</w>
resem blan
resemblan ce</w>
repent inamente</w>
remo te</w>
remar kable</w>
reli eved</w>
regre tted</w>
red acción</w>
recei ving</w>
rec ep
re porte</w>
re conoce</w>
re capitu
rab ia</w>
ra yos</w>
r ats</w>
qui toes</w>
qu et</w>
qu esta</w>
pá nico</w>
pusi mos</w>
pu p
prést amo</w>
pronunci ación</w>
pron óstico</w>
pron om
promot ed</w>
produ jo</w>
prision eros</w>
principi ante</w>
prestar me</w>
preocupar me</w>
prefer iría</w>
preci pit
pre so</w>
practi cing</w>
pra ise</w>
postpon ed</w>
pos e
popu lar
pois onous</w>
po días</w>
pl ying</w>
pi ratas</w>
photo graph</w>
pharm acy</w>
pes i
perman eció</w>
perman ece</w>
perdon ar</w>
per dida</w>
peque ñ
pen e
pedi mos</w>
pe gado</w>
payas o</w>
pati ents</w>
past eles</w>
passion ate</w>
pas aste</w>
par all
par al
panad ería</w>
paisa je</w>
p han</w>
p end
out doors</w>
ot or
ore ja</w>
op hone</w>
oni ons</w>
on ic</w>
ofre ce</w>
oca sion
nod ded</w>
ni do</w>
nephe w</w>
muni ci
mucha chas</w>
mov ement</w>
mos le</w>
mor ado</w>
mon a</w>
mo jada</w>
mis led</w>
mis leading</w>
millon ario</w>
mili tary</w>
mel odía</w>
me ta
mat arme</w>
mar eado</w>
man uscri
mam mals</w>
mad ura</w>
ma tical</w>
m its</w>
m anta</w>
ly ri
logr os</w>
llo vió</w>
llo vido</w>
llev ara</w>
liz ab
lizab eth</w>
l enta</w>
l ana</w>
kne es</w>
k u
jug amos</w>
is las</w>
investi gation</w>
inunda ción</w>
inter fer
inten se</w>
instru ments</w>
inse ct</w>
inmigr antes</w>
ingredi ents</w>
inclu de</w>
incen dios</w>
in va
in tu
in su
im bé
il an
i ze</w>
i co</w>
i co
húme do</w>
hon ey
hon esty</w>
homici dio</w>
hombr os</w>
hir viendo</w>
he ater</w>
har ta</w>
har dest</w>
hac ían</w>
habl arle</w>
h óli
gu m</w>
gri to</w>
gratu lations</w>
gl ory</w>
gh test</w>
gen as</w>
gan ando</w>
galax ia</w>
funcion ará</w>
freez ing</w>
for given</w>
fer ro
fen ó
fem en
faul ts</w>
f fed</w>
f are</w>
extre me</w>
extrañ ar</w>
exten dió</w>
explo tó</w>
explo ded</w>
experien cias</w>
experien ces</w>
exper tos</w>
exerci ses</w>
exam ined</w>
evi dente</w>
ev acu
estudi an</w>
estri ct
estim ated</w>
esta dio</w>
esper aré</w>
esper an</w>
esco ba</w>
es ses</w>
er na</w>
er ec
entr é</w>
enthu si
enter io</w>
ent ó</w>
enseñ ado</w>
en venen
en lace</w>
en do
em pap
elem entos</w>
econó mica</w>
echar le</w>
e co
dro ga</w>
dor mía</w>
do ws</w>
divir tiendo</w>
disculpar me</w>
disa gree</w>
direc tions</w>
di osa</w>
di das</w>
despedi da</w>
desig ned</w>
descri ption</w>
descri pción</w>
des ma
des agradable</w>
dem onio</w>
dej en</w>
dej arte</w>
declar ó</w>
de dicó</w>
de cre
de cent</w>
cómpli ce</w>
cumpli ó</w>
cuer nos</w>
cu sto
cru sh</w>
cru ce</w>
cre emos</w>
cos quil
cor tado</w>
contar te</w>
cont ando</w>
consegui ste</w>
conoci ste</w>
con tenido</w>
comi c</w>
colec cionar</w>
co ti
co pies</w>
co ast</w>
clu e</w>
clo sely</w>
cli ff</w>
ci vil</w>
ci sta</w>
ci d</w>
ci ble</w>
che eks</w>
chal k</w>
cha mp
ch ores</w>
cer s</w>
cent u
cel os</w>
caz ador</w>
cat á
cancel ado</w>
cam eras</w>
c ta
c esta</w>
bur ro</w>
bur ns</w>
bu zón</w>
bro ad
británi co</w>
bri ef
br and</w>
borra chos</w>
bo dies</w>
bl ess</w>
bille tes</w>
betr ay</w>
bes ado</w>
ber y</w>
bath tub</w>
bar e
ban k
bal de</w>
baj os</w>
baj as</w>
back yard</w>
b acter
ayud arlo</w>
aw esome</w>
avi so</w>
ati c</w>
asi g
as sure</w>
arru inó</w>
arro dill
arri ves</w>
arr anc
arquitec tura</w>
argu ments</w>
ar co</w>
ap pla
anti gü
anc os</w>
an ity</w>
ali ze</w>
alco hóli
al go
agu ar
admini str
addi tion</w>
adap t</w>
acor dar</w>
acompañ ado</w>
aco st
accumu lated</w>
accident ally</w>
acab an</w>
absolu te</w>
ab rí</w>
a o</w>
a er
Y ours</w>
Wo od</w>
W ay</w>
Vien es</w>
Vend ré</w>
US A</w>
Th row</w>
T ri
Some day</w>
So bre
S ão</w>
S wiss</w>
S aca</w>
Re pe
R osa</w>
Pon ga</w>
Po cos</w>
Per son
Pap a</w>
Paci fic</w>
P h
O ver</w>
Mo on</w>
Medi terr
Lo gr
Lev anta</w>
L ea</w>
Jú piter</w>
Ju piter</w>
J er
In st
I ba</w>
Ho ly</w>
Haz me</w>
Hab lemos</w>
H ell</w>
Fo od</w>
F ree</w>
Est ará</w>
Escri ba</w>
Empi eza</w>
E lizabeth</w>
Du e</w>
Devuél veme</w>
D esper
Compra ste</w>
Chri st</w>
C ari
Bre ak</w>
Be tween</w>
Ba il
An y
Alger ian</w>
Al can
A mar</w>
A ir</w>
A hor
4 00</w>
2 5
1 st</w>
ó geno</w>
ísi mas</w>
á jate</w>
z um
z anja</w>
x on</w>
wor m</w>
vo y
vo leibol</w>
viol ento</w>
vi ll
veterin ario</w>
vergon z
ver os</w>
vend rán</w>
ven go</w>
velo p</w>
ve -
un fortunately</w>
tún el</w>
términ o</w>
tun nel</w>
tter ing</w>
trun k</w>
tru m
tri cks</w>
tri bun
treat y</w>
tre ats</w>
tras lad
trans porte</w>
trag e
tradu cir
tradu cida</w>
tradi cional</w>
tr ol</w>
ton tos</w>
tomar te</w>
tomar me</w>
tobil lo</w>
to st
tir ado</w>
tibur ón</w>
test igos</w>
territor y</w>
terri fied</w>
ten sión</w>
telep hon
te ñ
tan go</w>
t emos</w>
t antes</w>
symp toms</w>
symp hon
swe ep</w>
suspe cted</w>
sun light</w>
sun g</w>
suit cases</w>
sufri ó</w>
ste ak</w>
st an</w>
st amente</w>
sper a</w>
spe ech
speech less</w>
sor a</w>
soli tario</w>
so via</w>
sn ack</w>
sla ves</w>
sk ating</w>
shar pen
shar k</w>
servi r</w>
ser lo</w>
seas ons</w>
se tting</w>
se có</w>
scho ol
saldr á</w>
sal ía</w>
sal udos</w>
sal o</w>
sal imos</w>
saf ely</w>
sacri ficio</w>
sa ac</w>
s pic
spic y</w>
rum bo</w>
ru sos</w>
ro ok</w>
ro o
ro manos</w>
ro gó</w>
ries gos</w>
ri ses</w>
ri fle</w>
ri cher</w>
respec ts</w>
reser ved</w>
reser ve</w>
rep tiles</w>
relev ant</w>
rela tive</w>
refer ee</w>
recuper ó</w>
re ti
re ports</w>
re fres
re comm
re ces
raz on
rain coat</w>
ra íz</w>
ra yo</w>
r me</w>
r anas</w>
r ale</w>
quini entos</w>
qu in
qu ema</w>
pá rate</w>
purcha se</w>
punc tual</w>
pul mon
psy chi
propa ganda</w>
pronoun ced</w>
promo tion</w>
prohí be</w>
produ ces</w>
pro sper
pro lon
pro ced
pri vacy</w>
pret ti
posi ciones</w>
posi bilidades</w>
port ar</w>
polí ticas</w>
po stu
plu mas</w>
pl anc
pint ado</w>
pine apple</w>
pil ls</w>
pi sos</w>
pi rate</w>
ph enomen
person s</w>
person aje</w>
per ple
per mit</w>
per cep
pel os</w>
pel led</w>
pe e</w>
pe cado</w>
pe aceful</w>
pat in
particular ly</w>
part ner</w>
par ejas</w>
pan ic</w>
pal acio</w>
out come</w>
orden ar</w>
or questa</w>
optimi stic</w>
op posed</w>
op en
on da</w>
obsequi o</w>
obli gación</w>
o ye</w>
o te</w>
o se
nu s</w>
niñ ez</w>
night mares</w>
ni eva</w>
ni ck
neg le
neces idades</w>
neces aria</w>
ne y
n ace</w>
mu tual</w>
movi lí
mo del
mej illas</w>
medi cation</w>
man dé</w>
main ly</w>
madru gada</w>
ma ste</w>
m m</w>
lo cali
lo aded</w>
lingü ística</w>
lig ence</w>
li bre
leg end</w>
le ía</w>
ladr ando</w>
l le</w>
l ers</w>
kno cking</w>
kanj i</w>
k in</w>
jue gas</w>
jewel s</w>
je me</w>
je fa</w>
itali anos</w>
invi taron</w>
investig ar</w>
inven ción</w>
interes an</w>
inter cambio</w>
intent é</w>
inst antly</w>
infin ito</w>
inexpli cable</w>
in men
impro vi
immigr ants</w>
imit ate</w>
im pul
im pe
identi fy</w>
i riel</w>
i miento</w>
i ble</w>
hu mi
hu elen</w>
ho la</w>
hici eran</w>
hi p
herrami enta</w>
he ating</w>
har ían</w>
ha unted</w>
gui la</w>
guarante e</w>
guar ds</w>
guar di
gu erras</w>
grap her</w>
gram matical</w>
gr ía</w>
gr es</w>
gir ar</w>
ga ciones</w>
fut bo
fu entes</w>
fr ías</w>
fir mó</w>
fici ente</w>
fi ar</w>
f u</w>
f les</w>
f es
f at
exam ine</w>
exam in
eter na</w>
esqu í</w>
escucha ste</w>
es pi
es encial</w>
er les</w>
equivo co</w>
enti sts</w>
enseñ é</w>
enfer mos</w>
encuentr es</w>
encontr arme</w>
enamor é</w>
en ig
en ess</w>
el or
el abor
e gip
dri ven</w>
do sci
do mé
distur b</w>
distin tas</w>
direc ciones</w>
dinosau rios</w>
dieci siete</w>
diam ante</w>
di si
di cial</w>
destru ir</w>
des ear</w>
des e</w>
des concer
denti al</w>
deli ghted</w>
del ete</w>
del ayed</w>
del ant
dej arme</w>
de velop</w>
dar án</w>
d ried</w>
d ale</w>
có mo
cá lida</w>
curio sity</w>
cur tain</w>
cu áles</w>
ct ors</w>
cro ps</w>
critici ze</w>
cri mes</w>
cri aturas</w>
cri ado</w>
cr acy</w>
cr ack</w>
coun ter
cor tés</w>
cor té</w>
coo ks</w>
conveni ente</w>
contribu ted</w>
contagi ous</w>
cont ador</w>
conoci mientos</w>
conne ction</w>
conf íes</w>
comun es</w>
compr aría</w>
compos itor</w>
compli cada</w>
comp re</w>
com edi
cole gas</w>
cole ga</w>
col abor
co art
co al</w>
clo ses</w>
cli ck</w>
clear ed</w>
civiliz ation</w>
chocol ates</w>
chim en
chi ev
che me</w>
cep ill
cent a
cel osa</w>
carbon o</w>
car ed</w>
can as</w>
campe ón</w>
camp ing</w>
cam paña</w>
cam pa
calcu late</w>
cal mente</w>
caball eros</w>
ca tor
ca tions</w>
ca bili
bus car
bri de</w>
bolí grafos</w>
bo wed</w>
bo ards</w>
bil es</w>
bi gote</w>
bi c</w>
benef its</w>
beb í</w>
b ang
ayud as</w>
ayud aros</w>
ayud arles</w>
ay údame</w>
auto movilí
auto buses</w>
austr ali
atre ves</w>
atraves ar</w>
aterri zó</w>
at tor
at ento</w>
asquer oso</w>
aspec tos</w>
asig natur
as oci
arti stas</w>
architec ture</w>
ar éis</w>
ar sovia</w>
ar do</w>
appli cation</w>
apli cación</w>
ank le</w>
and aba</w>
an ía</w>
an unci
an illa</w>
amaz ed</w>
am p</w>
am antes</w>
ali en
aggres sive</w>
ag it
afec ta</w>
af fairs</w>
admi te</w>
ad re
ad equ
acostumbr arse</w>
acostar me</w>
acep ta</w>
ac né</w>
ac ceder</w>
aby ss</w>
absur da</w>
ab used</w>
ab ismo</w>
a un</w>
a the</w>
a cuerda</w>
a con
Wor ds</w>
War saw</w>
W at
W ang</w>
Vi vir</w>
V in
V ery</w>
V arsovia</w>
U F
To mas</w>
To co</w>
Tit anic</w>
Ten ías</w>
Tal k</w>
T ele
Stu dents</w>
Span i
Soñ é</w>
S tick</w>
S andra</w>
S ally</w>
S achi
Re al</w>
Prome to</w>
Pri me</w>
Pri ces</w>
Pac ífico</w>
P ot
Ol ga</w>
Obvi ously</w>
Nep o</w>
Mu iriel</w>
Mini ster</w>
Mexi can</w>
Mag nus</w>
M em
L len
L is
L idi
Ju ego</w>
Jes sie</w>
J or
In tel
I saac</w>
I rish</w>
I cel
Hun gría</w>
H ope</w>
H and</w>
H ad</w>
Gener almente</w>
Gali leo</w>
Frank ly</w>
For d</w>
Fin land</w>
F un
F ore
Estu dia</w>
Est ado</w>
Esper é</w>
Entr é</w>
Em pecemos</w>
Egy pti
EE .
EE. UU.</w>
Do ing</w>
Dis ney
D oy</w>
D emo
D el
D ani
Co cin
Christi ans</w>
Be th</w>
B es
Atl án
An dre
Al ways</w>
Afri can</w>
Acep to</w>
A ver
A ir
9 5</w>
ú an</w>
él gica</w>
é stas</w>
áni mo</w>
á guila</w>
z adas</w>
y ell</w>
y ec
x en
win ner</w>
whi sky</w>
wel s</w>
war mer</w>
vul gar</w>
vuel an</w>
volver ás</w>
volunte er</w>
vocabu lary</w>
vie wed</w>
vi ce</w>
ven diendo</w>
val s</w>
val le</w>
v et</w>
uti lidad</w>
ur ing</w>
u lti
u k
tur key</w>
tur b
trou sers</w>
tri c</w>
trabaj amos</w>
tra vi
tr ol
tr au
tournam ent</w>
tou ching</w>
tortu gas</w>
tor neo</w>
tomar é</w>
to me</w>
ti ría</w>
terri fic</w>
terri bles</w>
terri blemente</w>
tele fon
te enth</w>
te apo
tar emos</w>
t ín</w>
sín tomas</w>
sum amente</w>
su mer
su cios</w>
su ces
su bir
stron gly</w>
stron gest</w>
ste w</w>
stat ement</w>
st om</w>
st ink</w>
spo iled</w>
soñ ado</w>
so bra</w>
skin ny</w>
sist emas</w>
sin s</w>
sin king</w>
sin cera</w>
sil b
si us</w>
shoul ders</w>
shor e</w>
sevent y</w>
sevent een</w>
senti mos</w>
sem i
segu ir
sch ol
sax ophone</w>
s ando</w>
s ador</w>
ru ego</w>
ro ws</w>
ro dillas</w>
ri chest</w>
ri an</w>
respon dido</w>
res aca</w>
redon da</w>
re ward</w>
re tr
re sted</w>
re sig
re place</w>
re ino</w>
raci st</w>
r enta</w>
r ases</w>
r ac
qui eran</w>
pueb los</w>
pu lling</w>
prác tico</w>
prop ina</w>
prof it</w>
produ cen</w>
prin ted</w>
pri va
prest é</w>
prepar ados</w>
pren sa</w>
preci sión</w>
pre y</w>
pre decir</w>
pra ised</w>
pr end
pondr á</w>
pois oned</w>
pl ena</w>
pi j
pij ama</w>
perder ás</w>
per í
per haps</w>
per diste</w>
pens ás</w>
pe as
pat ter
pas aría</w>
pas ara</w>
pari entes</w>
par rot</w>
pal omas</w>
pa ins</w>
or phan</w>
or ado</w>
on es
om s</w>
ol len</w>
of fee</w>
odi as</w>
ob sole
nu t</w>
no tó</w>
ni cos</w>
ne t
nation ality</w>
nari ces</w>
na vidad</w>
n á
n ou
mysteri ous</w>
muer de</w>
mos quitoes</w>
mor dido</w>
mon ar
molé cula</w>
molecu le</w>
mini mum</w>
million aire</w>
mi x</w>
mi ras</w>
menti rosa</w>
ment ar</w>
medi ante</w>
med alla</w>
me dal</w>
mb led</w>
may úscu
materi ales</w>
mat arán</w>
mat aron</w>
marin eros</w>
mar ked</w>
mani pul
mad res</w>
ma estros</w>
ma el</w>
m ni
lyri cs</w>
lo ser</w>
llev é</w>
llev ando</w>
lle guemos</w>
lin gua</w>
lin dos</w>
limpi ando</w>
ligh ter</w>
li gi
le ones</w>
le mon
le chu
lastim ar</w>
lan da</w>
labor atorio</w>
l ous</w>
l era</w>
kidn apped</w>
k ings</w>
k ingdom</w>
jur ado</w>
jun g
jung la</w>
jer k</w>
jar ra</w>
investig ating</w>
investig ando</w>
interrup ting</w>
int entes</w>
instru mentos</w>
instru ment</w>
insi stió</w>
incur able</w>
inclu des</w>
in go</w>
in ete</w>
in capable</w>
impro ving</w>
impres sive</w>
import aba</w>
imbé cil</w>
im án</w>
im peri
im pedir</w>
ignor ar</w>
identi ty</w>
identi cal</w>
id én
i stas</w>
i ans</w>
hypo cri
hor r
hob bies</w>
hi gos</w>
hem is
he i
he els</w>
gun s</w>
guar dó</w>
gu era</w>
gri tes</w>
gri ef</w>
grand pa</w>
gra vemente</w>
gra phi
glo bo</w>
gener oso</w>
galax y</w>
fun ctions</w>
fu egos</w>
flu ye</w>
flu ido</w>
fl ames</w>
fer o
fer ia</w>
fe eding</w>
favor itos</w>
favor able</w>
fantá stico</w>
fa ti
fa cul
f ot
expres sed</w>
exhaust o</w>
ex clam
ex ce
ex acta</w>
estúpi dos</w>
estampil las</w>
espos as</w>
españ ola</w>
escri ben</w>
escri ba</w>
escase z</w>
escal a</w>
er án</w>
equivo cados</w>
equip ment</w>
equi li
entr es</w>
eno jó</w>
eno jar</w>
enf ada</w>
enci llamente</w>
en su
en ch
en ca
en an</w>
em bro
el f</w>
el ed</w>
eag le</w>
e h</w>
dwar f</w>
du ch
drag on</w>
dra wn</w>
dolor oso</w>
dol ía</w>
dis count</w>
dibu j
diagno sed</w>
di gging</w>
desi red</w>
des s</w>
des precio</w>
der ía</w>
demand s</w>
del incu
del fines</w>
dedi cate</w>
decor ated</w>
deci des</w>
de voted</w>
de volvió</w>
de dores</w>
da tion</w>
d at
d ador</w>
curi o</w>
cul turas</w>
cui dó</w>
cu ry</w>
cu este</w>
crí tico</w>
crí ticas</w>
cru shed</w>
cristi ana</w>
cr ía</w>
cor tos</w>
cor tina</w>
contribu ir</w>
contrat ó</w>
continu ación</w>
consul t</w>
conoci era</w>
confli ct</w>
confir m</w>
conexi ón</w>
concentr arme</w>
con y</w>
con tain
compren sión</w>
compr ende</w>
compos er</w>
common ly</w>
com posición</w>
com pasión</w>
com erse</w>
colo red</w>
col i</w>
cockro aches</w>
co sto</w>
co lap
co ber
clo sing</w>
cli ents</w>
ci es</w>
cho o
che ques</w>
charac teri
cha in</w>
centí metros</w>
cem enterio</w>
cator ce</w>
cat ches</w>
cast año</w>
car p
car aco
capa city</w>
cap ture</w>
cap tura</w>
camp es
cam p</w>
cam el</w>
calend ario</w>
ca bras</w>
c tos</w>
c ents</w>
bu ce
bra kes</w>
bos ques</w>
bor ders</w>
blo wing</w>
bl ouse</w>
bit es</w>
bi da</w>
benef it</w>
beli ef</w>
bel las</w>
bare foot</w>
bar ra</w>
bal cony</w>
ba ste</w>
b ap
b anged</w>
ayud arla</w>
at tic</w>
at ar</w>
ass as
aspir ina</w>
asegu ro</w>
arranc ó</w>
architec t</w>
ar co
appro aching</w>
appro ach</w>
apo yó</w>
apa gado</w>
anti cu
anim ó</w>
and as</w>
ancest ors</w>
ami sto
am ables</w>
alter native</w>
alivi ado</w>
ali dades</w>
ali bi</w>
algo dón</w>
alcoho lic</w>
al right</w>
agradec erte</w>
adequ ate</w>
act ores</w>
acer ques</w>
acep taría</w>
ac cur
abund an</w>
abun da</w>
ab rup
a tribu
a toms</w>
Uru guay</w>
Univer sidad</w>
To mó</w>
Termin é</w>
Tem o</w>
Sil ence</w>
Satur days</w>
Sal v
S ign</w>
S encillamente</w>
Ro ger</w>
Pre fi
Pr acti
Pe k
P é
P har
Ol ví
Mon te</w>
M es
Llam é</w>
L ou
L im
K is
Ju ega</w>
J ill</w>
I remos</w>
I ran</w>
I an</w>
He aven</w>
Ge or
Fin landia</w>
Ex per
Es cú
Entr ó</w>
Encontr amos</w>
Enci ende</w>
E aster</w>
Di ez</w>
Dec lar
Cu í
Consi der
Compr a</w>
Compar to</w>
Com er</w>
Co la</w>
Ci udad</w>
Char lie</w>
Cel sius</w>
Car ol</w>
C offee</w>
C ai
Belgi um</w>
Be bí</w>
B élgica</w>
B é
B lo
Aqu ellos</w>
An da</w>
Al berto</w>
Abo ve</w>
A un</w>
A pa
. A.</w>
úni camente</w>
ógi cos</w>
ó pera</w>
í mpi
éndo me</w>
áti camente</w>
á y
É stos</w>
z ones</w>
yo ta</w>
yel ling</w>
wra p</w>
whisper ed</w>
w ned</w>
voy age</w>
vol v
vo id</w>
visu al</w>
vers ary</w>
vers ario</w>
ver bos</w>
veinti cuatro</w>
veinti cinco</w>
vaqu eros</w>
vac ant</w>
va cu
us ada</w>
ur i</w>
ur ge</w>
up side</w>
universi tario</w>
tw enti
trust s</w>
tri co</w>
tras ero</w>
tradu ce</w>
tr ans</w>
ton s</w>
ti liz
ti erras</w>
the ft</w>
th edral</w>
terri torio</w>
termin e</w>
termin an</w>
ter o
ter n
tendr án</w>
ten den
tempor ary</w>
telephon ed</w>
teapo t</w>
te quila</w>
te br
te ando</w>
tar ro</w>
tar nos</w>
tar dará</w>
talen toso</w>
ta ils</w>
ta gon
t alidad</w>
sí l
syst ems</w>
sw ollen</w>
sust ancia</w>
surr ender</w>
super ficial</w>
suici dio</w>
sto red</w>
sta ti
st ol</w>
sorprendi da</w>
sorprend ente</w>
sopl ó</w>
son ri
sol tó</w>
so stien
so -
sne eze</w>
sli ghtly</w>
sle eve</w>
sla very</w>
ski p</w>
sincer idad</w>
simil ares</w>
sill ón</w>
signific ant</w>
sig nos</w>
sig los</w>
si zed</w>
si tos</w>
sho ps</w>
shel ter</w>
shar es</w>
ser ves</w>
se quía</w>
satis factor
sail ors</w>
sac o</w>
sac a</w>
sab an</w>
sa te</w>
sa grado</w>
sa ción</w>
s l
s art
sart én</w>
rí es</w>
rumor s</w>
romp í</w>
rom pe
rompe cabezas</w>
ro tas</w>
ro lled</w>
ro ble</w>
restaur antes</w>
rest ing</w>
repugn ante</w>
ren e
rela jado</w>
recor ded</w>
recomm ended</w>
recomend ó</w>
reci bir
recha zar</w>
rec en</w>
re vo
re signed</w>
re mor
re acción</w>
rain bow</w>
ra p</w>
ra ge</w>
ra ft</w>
qu anti
pun tu
proy ec
propor cion
promis ing</w>
produ cir</w>
pro ver
pro to
pro tagon
pro cra
prest ando</w>
present ar</w>
pre ju
pre di
poten cia</w>
possi bly</w>
pos poner</w>
pol y
po und</w>
plo mo</w>
piz zas</w>
pis ó</w>
pier da</w>
pi das</w>
ph rases</w>
ph oned</w>
perí o
perman ent</w>
perdon ado</w>
per rito</w>
per mitted</w>
pens amos</w>
pecu liar</w>
pe ones</w>
parano id</w>
pal ace</w>
pa jar
ough ly</w>
ot el</w>
oscu ras</w>
orch estra</w>
or i</w>
or bit</w>
oper ate</w>
op position</w>
ocurri rá</w>
oca siones</w>
obo e</w>
o wed</w>
o ficiales</w>
nu eces</w>
no slo</w>
nin ety</w>
nick name</w>
neu mon
need n</w>
ne gar
na tiva</w>
na cieron</w>
musul mán</w>
mon keys</w>
molest ia</w>
moder nos</w>
mis chiev
mischiev ous</w>
mil d</w>
micros copi
mer ezco</w>
mer ely</w>
men cion
memori ze</w>
me tá
me a</w>
mat ando</w>
mastur b
mas car
marr ones</w>
mar có</w>
man gas</w>
man chas</w>
lux ury</w>
lu m</w>
lu cía</w>
ll ando</w>
limpi as</w>
li king</w>
li d</w>
lear nt</w>
le vels</w>
le es</w>
la dies</w>
l gar
l ami
kilo grams</w>
jira fas</w>
jal a</w>
j oles</w>
j et</w>
is ine</w>
intel lec
ing er</w>
in yec
in trig
in scri
in deci
im prud
im po
im my</w>
il yn</w>
i al</w>
hun ter</w>
hum ble</w>
honey moon</w>
hon or
hol low</w>
ho st</w>
hici eras</w>
hi o</w>
hel ados</w>
hel adera</w>
heavi er</w>
hamburgu esas</w>
hambri entos</w>
hab lemos</w>
gust os</w>
gur t</w>
gur amente</w>
guil t</w>
gro ss</w>
gre y</w>
gran jero</w>
gradu ate</w>
gr ace</w>
good- looking</w>
go ver</w>
go ats</w>
glan ce</w>
gi g
gi dos</w>
gh ter</w>
gem elo</w>
ge ous</w>
ge ons</w>
gar aje</w>
g ón</w>
funcion ando</w>
fu ga</w>
fu cked</w>
fri joles</w>
fri es</w>
fr enos</w>
fortal eza</w>
fore sts</w>
for gi
flo jo</w>
fin ishing</w>
filósof o</w>
ff el</w>
fe ars</w>
fascin ated</w>
famili ares</w>
fac ing</w>
fac ed</w>
fa int</w>
f lav
f i</w>
ey es
extr over
expli ca</w>
excep tion</w>
ex pul
et c</w>
estre cho</w>
est arías</w>
esper é</w>
espan toso</w>
esp ía</w>
escu chas</w>
escribir é</w>
er e
er ase</w>
equivo cas</w>
envi di
enthusi astic</w>
en seño</w>
en courage</w>
em presas</w>
em borra
elimin ar</w>
eleg ante</w>
elec tro
ejerci cios</w>
eigh ty</w>
ef ficient</w>
ech aré</w>
ear rings</w>
e well</w>
dó lar</w>
dur ará</w>
du ll</w>
drag ón</w>
diver tirse</w>
dispar ar</w>
disculp ó</w>
disappe ar</w>
difer encias</w>
di arios</w>
di ariamente</w>
deta iled</w>
desma yó</w>
deser ved</w>
des orient
des ocupado</w>
des ilu
des cuidado</w>
des cend
dele tre
deci ó</w>
dec ente</w>
de la</w>
da di
d yed</w>
d era</w>
có lera</w>
cy clo
curi oso</w>
cul po</w>
cu án</w>
cu tting</w>
cu isine</w>
cru zando</w>
cro co
cre encia</w>
cooki e</w>
convencer le</w>
contin ente</w>
constru yendo</w>
constru ida</w>
consider ación</w>
consider aba</w>
consegu í</w>
con sol
comuni sta</w>
compr o</w>
com preh
com imos</w>
com erme</w>
com edor</w>
colon iz
coart ada</w>
co tton</w>
co razones</w>
co le</w>
co g
clo wn</w>
cla vo</w>
ck ily</w>
chimen ea</w>
chec king</w>
cha n</w>
ch up
centi meters</w>
ce de</w>
ce bol
cebol las</w>
caus ing</w>
cat ching</w>
caracter es</w>
car ece</w>
car dio
car bon</w>
cant aba</w>
cand les</w>
cam ello</w>
calcul ator</w>
cal lar</w>
cal lar
ca í</w>
ca ttle</w>
ca ting</w>
ca -
c lí
c cer</w>
bu dge</w>
bru shing</w>
bran ches</w>
bo thers</w>
blo wn</w>
blo om</w>
blo g</w>
blo cked</w>
bio tics</w>
bi óticos</w>
beb as</w>
bar ks</w>
bal ón</w>
bailar ín</w>
bac co</w>
ba king</w>
b or</w>
b ita</w>
ay ú
avent uras</w>
attor ney</w>
atrap ados</w>
ato mic</w>
aterr ori
at ender</w>
astronau ta</w>
astronau t</w>
astr óno
aster n</w>
asombro so</w>
asignatur a</w>
ari sto
argu mentos</w>
archi vos</w>
ar que
ar m
ar du
appro ximately</w>
anti bióticos</w>
anni versary</w>
ani versario</w>
an ismo</w>
am using</w>
am e
aloj amiento</w>
alo g</w>
almor zando</w>
all ing</w>
ali zed</w>
ali stas</w>
alej ado</w>
alcan zado</w>
al zó</w>
agre gar</w>
agrade ció</w>
agrade cimiento</w>
agra m</w>
ag ent</w>
af fair</w>
adver ten
advant ages</w>
addic t</w>
ad mit
ad le</w>
acus aron</w>
accoun tant</w>
accompli sh
aca mp
aca dé
abur re</w>
abri endo</w>
ab eja</w>
a por
a fri
a cuer
Y emen</w>
Venez uela</w>
V áy
UF O</w>
U U</w>
Tru th</w>
To yota</w>
Ter esa</w>
Tar de</w>
Taiw an</w>
T ears</w>
So ccer</w>
Se guramente</w>
Sci entists</w>
Sachi ko</w>
S w
S us
S tate</w>
S ch
S ato</w>
R ol
R ara</w>
Qu it</w>
Pru é
Pap er</w>
P ope</w>
P in
P agu
P adre</w>
Ocur rió</w>
O kin
O hio</w>
O cean</w>
No el</w>
Nao ko</w>
N atur
N ag
Mon a</w>
Mil ky</w>
Mil es</w>
Mar ilyn</w>
Man ten
M ind</w>
Lo jban</w>
Llam aré</w>
Lin ux</w>
Li ve</w>
Leván tate</w>
Le ch</w>
Kab y
K im</w>
K an
Ju li
Jer us
J immy</w>
J erry</w>
Intel ligence</w>
In du
Ig lesia</w>
I sab
I ra
Hor ses</w>
Hiro shima</w>
Hi cieron</w>
Han ako</w>
Ham let</w>
H otel</w>
H ilton</w>
H at
Gu ár
Gre eks</w>
F í
Est ar</w>
En ví
Ei ffel</w>
E ri
E ras</w>
E mi</w>
Du erme</w>
Dor mi
Dis ney</w>
Des can
Dej á</w>
Cor ri
Cor re</w>
Comi mos</w>
Cin co</w>
C las
C ab
Bel ar
B il
Austr ali
An geles</w>
An dr
Algun o</w>
Al í</w>
A ví
A pla
A j
A gar
A bra
8 8</w>
7 7
3 6</w>
199 0</w>
19 0
14 9
í mos</w>
í e</w>
í das</w>
ér selo</w>
éndo le</w>
én talo</w>
é moslo</w>
án geles</w>
ác tea</w>
á li
áli sis</w>
Ó rale</w>
zor ra</w>
z ation</w>
z arse</w>
y era</w>
y aw
x es</w>
wor ship</w>
wi g</w>
vuel os</w>
volver me</w>
visitar nos</w>
vest ir</w>
ver ía</w>
ver dura</w>
vent as</w>
vegetari ano</w>
var ían</w>
vali entes</w>
vali d</w>
val ley</w>
vac un
va me</w>
us arlo</w>
unifor mes</w>
uni ó</w>
uni cor
under wear</w>
un lucky</w>
un conscious</w>
u de</w>
tt able</w>
trig ger</w>
tribun al</w>
tri al</w>
tras era</w>
trai dor</w>
trage dia</w>
trag edy</w>
tra te</w>
tra itor</w>
tom amos</w>
toler ant</w>
to ss</w>
ti gres</w>
thor ough</w>
the atr
theatr e</w>
th m</w>
tex tos</w>
terrori stas</w>
terr eno</w>
termin amos</w>
tempor al</w>
tembl ar</w>
telé fonos</w>
ta ña</w>
swal lowed</w>
sw it
survi v
sub jects</w>
su sur
su pply</w>
su ministr
stre am</w>
str ing</w>
sto ok</w>
spo use</w>
sour ces</w>
sor da</w>
some time</w>
sol tera</w>
so lares</w>
sli ce</w>
sion ally</w>
si embr
shap ed</w>
sh u</w>
ses ión</w>
ser ías</w>
semest re</w>
semest er</w>
sea food</w>
se ttle</w>
se pan</w>
se at
se amos</w>
sco re</w>
sax of
saxof ón</w>
sangr ando</w>
salv ado</w>
sac red</w>
sab íamos</w>
sab ría</w>
s ending</w>
s anto</w>
s anos</w>
room mate</w>
rob bery</w>
ro es</w>
ro cas</w>
rin cón</w>
ri pe</w>
ri b
revel ó</w>
retir ó</w>
resul tar</w>
rest re</w>
resi sti
requi red</w>
ren unció</w>
remar k</w>
rela xing</w>
regre ts</w>
registr adora</w>
recuper ar</w>
recor dó</w>
reco ver</w>
recha zado</w>
recei pt</w>
reali zó</w>
re tro
re tire</w>
re suel
re quieren</w>
re present</w>
re ported</w>
re me
re fr
re conocí</w>
re conocido</w>
radi o
rab bits</w>
r lo</w>
r ata</w>
quem ando</w>
qued arás</w>
que tas</w>
pó quer</w>
puñe tazo</w>
pun ish</w>
pti mo</w>
prove cho</w>
propi e
profundi dad</w>
pro t
pro file</w>
present ed</w>
present ación</w>
pre supuesto</w>
pre para</w>
pr ender</w>
posi tions</w>
por k</w>
poder osa</w>
pl en
pir ata</w>
pin turas</w>
pi stas</w>
pi ca
photo grapher</w>
pesi mista</w>
perten ecen</w>
permit en</w>
perfec ción</w>
pen dientes</w>
pe el</w>
pe dos</w>
pas ados</w>
partici pate</w>
pare cidos</w>
pal oma</w>
p per
oí ste</w>
orden ado</w>
on tes</w>
on ian</w>
olvi dadi
ocur ren</w>
ocup adas</w>
ocul ta</w>
obvi amente</w>
ob s</w>
o xi
o posición</w>
nu do</w>
ni o</w>
ne amente</w>
n es</w>
n ar</w>
muse ums</w>
muse os</w>
muri era</w>
mur mur
mun e</w>
multi pli
mu sh
mu ev
mu eras</w>
mu darse</w>
mp ;</w>
movi do</w>
moto cicle
mod esto</w>
mo ons</w>
min ded</w>
min able</w>
mi xed</w>
mi stook</w>
mi endo</w>
meter se</w>
mer cy</w>
men os
mel ts</w>
me xi
me tres</w>
mane jo</w>
man tenido</w>
mam mal</w>
ma ster
loo my</w>
ll ores</w>
liter ally</w>
lig encia</w>
li dos</w>
li di
les sly</w>
lec ciones</w>
lea k</w>
le o
lat as</w>
l é</w>
l ones</w>
l amos</w>
k im
jur amento</w>
jui cios</w>
jug aron</w>
ju do</w>
jor nada</w>
jen gi
jengi bre</w>
jec tion</w>
jar rón</w>
ja que</w>
j eron</w>
is lands</w>
is ing</w>
ir oned</w>
ir landés</w>
ir ing</w>
invent ar</w>
inv ent</w>
intri gu
intel ec
indis cre
in tr
in consciente</w>
impor ted</w>
immedi ate</w>
il and</w>
igual dad</w>
ice berg</w>
huérf ano</w>
hu é
hot ter</w>
hospit als</w>
hospit ales</w>
ho yo</w>
ho meless</w>
ho ly</w>
higi énico</w>
high way</w>
hidr ógeno</w>
hici steis</w>
hel met</w>
he aven
hard working</w>
hac ernos</w>
habl aron</w>
habl arlo</w>
hab erla</w>
gre en
gra ste</w>
gra phs</w>
golpe ar</w>
gira f
giraf fe</w>
ght ful</w>
gh ten</w>
gh ett
ghett i</w>
gen til</w>
ga wa</w>
g loomy</w>
g aba</w>
fun ciones</w>
fun cione</w>
fre sh
for mado</w>
for getting</w>
fo un
flo ta</w>
fle a</w>
fir ma</w>
fin és</w>
fi st</w>
fi có</w>
fe eds</w>
fall ó</w>
fac tura</w>
f ín</w>
f ero</w>
extraordin ary</w>
extraordin ario</w>
expli cado</w>
expla ining</w>
exi sto</w>
ex pelled</w>
estudi é</w>
estrict amente</w>
estr és</w>
est ly</w>
est amente</w>
esper as</w>
esper ara</w>
es paci
equili brio</w>
envi é</w>
entusias mo</w>
entr aron</w>
eno j
eng agement</w>
end es</w>
encontr arse</w>
en er
en ano</w>
empeor ar</w>
empeor ando</w>
emp an
emo ción</w>
embaj ador</w>
em por
em pate</w>
elo gi
el ly</w>
e chas</w>
dó name</w>
duer mes</w>
du ties</w>
du do</w>
dri vers</w>
diver timos</w>
distur bing</w>
dishon est</w>
disculpar se</w>
dis likes</w>
differ ences</w>
diferenci ar</w>
diab etes</w>
di miento</w>
di m</w>
di gn
di dos</w>
despre cia</w>
desper tado</w>
descubri eron</w>
desay una</w>
depend ent</w>
depar ture</w>
decl ined</w>
decir les</w>
de biste</w>
de als</w>
có modos</w>
cán taros</w>
cup board</w>
cul parte</w>
cuad ros</w>
cu lo
crí menes</w>
cre í
cre ativo</w>
cra ft</w>
cosquil las</w>
cor te
copi as</w>
contin úa</w>
cont empor
consider ation</w>
consider ada</w>
consider able</w>
conser vative</w>
conocer lo</w>
confu sing</w>
concier ne</w>
con movió</w>
compu esta</w>
compla ins</w>
compe tente</w>
com placer</w>
com pass</w>
com eta</w>
com ba
colleagu es</w>
coj ones</w>
co r</w>
co ps</w>
co he
co ger
co chera</w>
ciru j
cir co</w>
cin tura</w>
cier tamente</w>
cica triz</w>
ci encias</w>
che wing</w>
cha da</w>
cerr adas</w>
celebr ating</w>
caram elo</w>
car tero</w>
car te</w>
car idad</w>
car el
cant an</w>
can asta</w>
calend ar</w>
calcul adora</w>
cal s</w>
ca v
ca jero</w>
c ling</w>
c ela</w>
butter flies</w>
bus can</w>
bur go</w>
bud get</w>
bu tt
brea th
bre ed</w>
br o</w>
blu sa</w>
blo ck</w>
bit ing</w>
bil ls</w>
bien estar</w>
believ able</w>
begin ner</w>
bas sador</w>
ban g</w>
bal cón</w>
bai la</w>
ba ke</w>
b ancos</w>
b am
b abo
ayud amos</w>
aver güenza</w>
av or</w>
atropel lado</w>
atra e</w>
asust ada</w>
asu sta</w>
asist ente</w>
asegur ar</w>
as y
arrog ant</w>
argel inos</w>
apre tó</w>
ap pointed</w>
ant um</w>
ant em
and ed</w>
an fi
ambi tious</w>
ambi ción</w>
ali stic</w>
alcan za</w>
al tamente</w>
aho gó</w>
agr ado</w>
ag on
ag enda</w>
adver ti
admi red</w>
adel ga
ad e
actu ando</w>
acqua inted</w>
acari ci
ac ne</w>
abund ancia</w>
absor bed</w>
abo unds</w>
abo gados</w>
ab rupt</w>
ab normal</w>
a sted</w>
a ks</w>
X I
Vu estro</w>
Vol vamos</w>
Vi ct
V ía</w>
Un der</w>
Tu vieron</w>
Ton ight</w>
To mo</w>
Tha i</w>
Tam poco</w>
T hir
Su rely</w>
Su gi
Ste ph
Sin cer
Ser ás</w>
Segu imos</w>
S que
S im
S el
S ara</w>
S alg
Re gre
R ev
Qued é</w>
Pro fes
Pre ten
Po or</w>
Ph ysi
Pagu é</w>
P el
O íste</w>
O p
Mí rame</w>
Mil k</w>
M irá</w>
M ine</w>
M il</w>
Lle garé</w>
Limpi a</w>
Lidi a</w>
Li ving</w>
L áctea</w>
Just ice</w>
Ju gar</w>
Is lands</w>
I do</w>
Hi jo</w>
Hablar é</w>
Hab ría</w>
Guar da</w>
Fi re</w>
F er
Ex act
Estu viste</w>
Esper aré</w>
Encontr aste</w>
Em per
E mi
Dé jeme</w>
Dri ve</w>
De biste</w>
Dam n</w>
D ro
Cu esta</w>
Cu atro</w>
Cre és</w>
Con sul
Compr endo</w>
Co ws</w>
Co pi
Cier tamente</w>
Cha mpi
Cay ó</w>
Bu ena</w>
Bre taña</w>
Bo ys</w>
Blo od</w>
Armen ia</w>
Ap ple</w>
Any way</w>
Ama z
Al bert</w>
Agrad ezco</w>
Admi ro</w>
Abr í</w>
Ab solu
A precio</w>
A chil
A bra</w>
2 7</w>
1 ,000</w>
1 ,
0 s</w>
&a mp;</w>
ú e</w>
í tate</w>
é ticos</w>
é ticas</w>
é sa</w>
yo gurt</w>
wo ken</w>
wil l
wi re</w>
wha les</w>
water mel
was her</w>
wa king</w>
wa ist</w>
w re
volver emos</w>
vol cano</w>
vol c
volc án</w>
viv ían</w>
vigil ando</w>
vide os</w>
vesti dos</w>
vest irse</w>
vergonz oso</w>
ver age</w>
vend rás</w>
ven gan</w>
ven cia</w>
vel t</w>
veje z</w>
vegetari anos</w>
ve amos</w>
vac ías</w>
vac cin
v ales</w>
utiliz an</w>
utili zado</w>
ur ch</w>
ur an</w>
uni dos</w>
unbe ar
un s</w>
u el</w>
u ega</w>
u eba</w>
tro pe
trai cionado</w>
tra ined</w>
tra iga</w>
tor no</w>
tor ment
to sos</w>
to e</w>
tien den</w>
ti za</w>
ti vity</w>
ti p
ti gers</w>
thum b</w>
thor oughly</w>
termin arlo</w>
ter cio</w>
ten der</w>
ten dencia</w>
temper atures</w>
temper aturas</w>
tem ía</w>
techni que</w>
tan e
t ár
t one</w>
t chi</w>
swal low</w>
suspi ró</w>
sur geon</w>
sud ando</w>
suce diendo</w>
sub mar
su pongo</w>
su cias</w>
su be</w>
stun ning</w>
stu vo</w>
stro ke</w>
stra tion</w>
st le</w>
st ered</w>
st an
st ales</w>
st af
staf f</w>
squirre ls</w>
spa ghetti</w>
sorprend ería</w>
sor dos</w>
soport able</w>
sol íamos</w>
soci able</w>
so unded</w>
so p
so il</w>
so aked</w>
snow man</w>
smo oth</w>
sk ate</w>
sir vió</w>
sin fon
simp li
si gh
shou ting</w>
shal low</w>
senti dos</w>
sel va</w>
sec und
se w</w>
se di
se ctor</w>
scar cely</w>
sa ves</w>
sa iling</w>
s pr
s pon
s ni
s cheme</w>
rí en</w>
rub bed</w>
ru tina</w>
ru ina</w>
ru bia</w>
roo ster</w>
ro tos</w>
ro cket</w>
rin das</w>
rid ícula</w>
ri val</w>
retras ó</w>
retras ado</w>
resul ted</w>
respon der
resist ir</w>
requ ested</w>
ren dirse</w>
relaj arme</w>
rela tions</w>
regañ ó</w>
refu gio</w>
reci be</w>
rec y
rec all</w>
reali stic</w>
re za</w>
re trato</w>
re side</w>
re pos
re des</w>
re ap</w>
re action</w>
re act</w>
re -
radi cal</w>
raci sta</w>
r ar</w>
r acket</w>
questi on
quer íamos</w>
quanti ty</w>
puls era</w>
pu siera</w>
pu d
provi des</w>
proteí nas</w>
program s</w>
procra stin
proces sor</w>
pro fe
pro be</w>
prin ter</w>
pri mir</w>
pregun taron</w>
prefi eren</w>
preci samente</w>
pre val
pre dict
pos es</w>
poli tely</w>
podr án</w>
pod íamos</w>
po wers</w>
po mni
pomni ach
pomniach tchi</w>
plen amente</w>
plat form</w>
pla ti
pl un
pint ando</w>
pin es</w>
pi cos</w>
perío do</w>
person ales</w>
person ajes</w>
per ver
per las</w>
per fil</w>
pel otas</w>
pedir me</w>
pe ga</w>
pe cados</w>
partici pó</w>
pand as</w>
pal a</w>
ow ned</w>
over night</w>
over coat</w>
ous ands</w>
ose velt</w>
ori as</w>
organ ismo</w>
organ is
or ías</w>
opport uni
op ti
on o</w>
olvid éis</w>
ol er</w>
observ ar</w>
ob tain</w>
o my</w>
o je
o ak</w>
neum ático</w>
ner ve</w>
need le</w>
ne vera</w>
nac er</w>
na u
na tives</w>
na sty</w>
muñ eco</w>
mu est
monstru os</w>
moj ados</w>
mod ales</w>
mo stly</w>
mil king</w>
mil agr
milagr os</w>
mi ro</w>
mi enten</w>
metr ía</w>
mer can
mel ted</w>
me tí</w>
me try</w>
me ti
me da</w>
me ar</w>
maris cos</w>
mar car</w>
man cha</w>
mamí fero</w>
mail box</w>
lun g</w>
lun ar</w>
long it
logr amos</w>
lo vers</w>
lo cation</w>
llegar ía</w>
ll é
ling on</w>
lin das</w>
limpi ó</w>
limit ado</w>
li ado</w>
levant as</w>
les bi
le tas</w>
le on</w>
law yers</w>
l oro</w>
kil ls</w>
kil ler</w>
jud ged</w>
ju sta</w>
japon esas</w>
j uro</w>
ir regular</w>
invi ting</w>
inti mid
interrumpi ó</w>
interpre tó</w>
ini dad</w>
inhabit ants</w>
individu o</w>
in útiles</w>
in soportable</w>
in sinu
in separ
impre sora</w>
ilan dia</w>
ig ü
ig an</w>
i leg
i damente</w>
hé roes</w>
hun t</w>
hu at
huat l</w>
hot els</w>
hot eles</w>
hormigu eros</w>
ho mes</w>
histori cal</w>
hipó cri
hi rió</w>
her encia</w>
hel pl
he al</w>
har án</w>
hand y</w>
han gover</w>
habl arte</w>
habl ara</w>
h itting</w>
h ec
guar dado</w>
gu essed</w>
gu eme</w>
gri ta</w>
gg y</w>
gentle men</w>
gar emos</w>
gan g</w>
gan ará</w>
gan ador</w>
gal e</w>
ga stó</w>
g ment</w>
futbo lista</w>
fron teras</w>
fro st</w>
fro gs</w>
fr ying</w>
for th</w>
for mación</w>
fo unda
fo oled</w>
fo cu
flo w</w>
fin ed</w>
fi sh
fi deos</w>
ff es</w>
ferro carri
favor itas</w>
far ting</w>
faci li
fa u
f ting</w>
[...]
