.
a
I
?
,
the
de
to
Tom
que
you
la
is
¿
en
el
&apos;t
no
es
me
un
of
in
No
&apos;s
that
The
se
una
He
was
it
Mary
!
and
y
have
lo
&quot;
for
El
los
por
You
are
con
my
he
está
su
on
with
not
do
be
para
It
las
&apos;m
La
your
this
She
We
can
más
Él
don
like
his
mi
Me
al
le
want
at
has
know
¡
te
del
Ella
as
her
him
What
A
qué
an
&apos;re
what
will
This
go
muy
They
tiene
Es
tu
Do
&apos;ll
son
time
very
all
from
about
como
Qué
had
Por
up
My
one
we
él
think
by
&apos;ve
but
Los
out
didn
hacer
here
casa
fue
going
so
were
there
There
get
estaba
Yo
did
eso
ha
Mi
she
aquí
than
That
How
Don
pero
esta
good
gusta
tiempo
more
todo
Estoy
tan
este
doesn
see
mucho
o
ser
bien
era
vez
Te
us
would
nada
si
been
need
am
favor
algo
when
come
much
puede
sus
never
dos
just
they
ella
puedo
ir
yo
cuando
if
too
people
Se
who
En
Why
should
got
or
now
day
Lo
Si
Tengo
work
help
hay
If
them
todos
love
said
car
how
only
tengo
día
nos
trabajo
&apos;d
take
Este
always
dijo
our
last
Is
Are
Le
mañana
Las
Quiero
esto
estoy
back
something
tell
isn
mejor
some
verdad
money
dinero
vida
man
años
two
house
book
lot
really
están
Hay
many
hablar
quiero
say
libro
Boston
home
any
make
hace
sin
could
speak
va
Esta
eat
solo
must
right
Can
told
When
Where
anything
antes
Let
ver
went
poco
:
made
siempre
new
sobre
still
French
long
Please
room
well
today
hombre
Su
ya
mundo
their
life
into
demasiado
off
better
Who
live
old
nunca
sé
quiere
padre
Cómo
ese
school
francés
Ellos
tres
way
before
three
había
Creo
Soy
mis
mí
won
ahora
father
Ya
first
sabe
estar
years
little
English
gente
idea
John
tarde
María
re@@
thought
does
left
other
soy
Dónde
Eso
night
over
estás
every
Did
inglés
noche
;
hizo
tomorrow
talk
mismo
down
dog
usted
tenía
because
In
Un
came
nuevo
saw
De
again
where
haber
perro
in@@
Quién
días
esa
así
world
tú
decir
hecho
hoy
hasta
coche
read
wanted
asked
without
buy
Tienes
understand
ó
nothing
find
give
Have
everything
able
hora
look
comer
play
friend
His
les
Está
Tomás
name
put
after
mother
Todos
already
cosas
madre
friends
porque
agua
yesterday
ever
ti
uno
job
nadie
used
Esto
children
doing
voy
sea
Nunca
menos
Eres
cómo
water
leave
took
happy
believe
gustaría
estado
otra
quería
problema
lost
wants
next
Yanni
feel
language
doctor
away
niños
ado
amigos
things
please
Sé
bought
same
puedes
tus
tienes
escuela
parece
veces
Cuando
beautiful
ciudad
os
personas
Your
amigo
quién
Cuál
plan
quieres
año
hacerlo
morning
buen
sure
pasado
best
door
ni
ar
year
gave
también
call
found
otro
niño
problem
use
Puedes
bad
semana
why
puerta
dónde
late
buena
fuera
tienen
difícil
thing
Sami
let
learn
most
teacher
Puedo
Nos
desde
brother
nosotros
stay
hard
ada
hermano
wasn
being
é
habitación
gran
nombre
girl
Estás
cada
dice
tener
alguien
knows
boy
tanto
después
done
eres
soon
ando
persona
ayer
mal
dio
Nadie
bed
couldn
person
likes
mujer
hope
wrong
entre
habla
Voy
alone
allí
ask
Tú
All
bus
muchos
country
ellos
enough
seen
visto
own
Todo
even
todas
looking
lugar
hear
may
often
seguro
Una
true
stop
Has
cuenta
yet
durante
saber
Hoy
happened
these
Ahora
around
cold
vino
big
han
vas
gustan
cat
days
ate
grande
cannot
week
debería
da
feliz
A@@
drink
married
remember
books
sleep
place
aron
todavía
bueno
libros
study
Australia
Cuándo
comida
comprar
sabía
Solo
Necesito
tired
país
café
ayuda
Ese
creo
such
another
clase
gato
heard
conmigo
great
while
-@@
un@@
padres
train
aprender
des@@
food
ten
city
nuestra
young
amos
knew
e
sido
sister
tren
miedo
Tenemos
coffee
hermana
its
once
Siempre
haciendo
toda
muchas
leer
alguna
called
pronto
woman
looks
nuestro
hijo
parents
afraid
party
rápido
keep
truth
letter
died
family
haven
open
lives
wife
Tiene
fácil
podría
carta
fiesta
casi
each
wish
ahí
momento
which
música
care
try
diez
contigo
parte
familia
vive
mind
profesor
sólo
cosa
joven
Tatoeba
Japan
answer
hotel
kind
mayor
Cuánto
Para
Japón
aba
busy
cinco
those
child
getting
pay
pueden
red
salir
few
important
started
o@@
Would
historia
tried
cama
easy
Tu
vivir
sí
yourself
talking
Her
almost
ados
S@@
Todavía
ago
cerca
five
difficult
primera
word
donde
music
someone
siento
wait
watch
says
seems
Our
horas
ing
&apos;
Dios
rain
Espero
Estamos
Japanese
aren
tomar
trabajar
hospital
acuerdo
then
write
Puede
met
table
palabras
together
importante
mano
Esa
change
eyes
problemas
ojos
auto
early
else
lado
looked
reading
hijos
Pensé
en@@
end
Estaba
...
anyone
amor
playing
teléfono
realmente
myself
through
eating
hate
God
dicho
razón
Fue
dormir
accidente
phone
game
Does
mine
coming
podía
These
mesa
might
puso
bastante
since
words
palabra
s@@
accident
himself
question
turn
«
»
debe
g@@
mientras
alto
camino
small
until
walk
llegar
hair
hours
far
matter
men
pasó
de@@
dinner
anymore
Come
jugar
lengua
s
hand
mes
Quieres
makes
Al
forget
necesita
needs
tipo
viene
tenemos
both
venir
times
Sabes
tuvo
ve
dejar
everyone
estaban
menudo
One
encontrar
working
Everyone
Son
TV
temprano
ido
between
murió
ready
importa
policía
C@@
estamos
30
Tell
dar
wouldn
fin
sentence
t
ustedes
As
pregunta
under
estudiar
película
té
Could
also
happen
face
color
fire
Deberías
Some
favorite
forma
fell
hombres
pretty
sick
idioma
ca@@
comes
esposa
China
al@@
contra
languages
última
having
hot
light
podemos
frío
goes
lunes
arte
class
leche
será
unos
Nobody
muerte
start
aún
cabeza
trying
fueron
fuerte
meeting
piano
punto
sol
adas
co@@
die
against
estación
dejó
misma
mucha
free
milk
computer
death
error
felt
angry
estos
minutos
station
white
ía
único
di@@
capital
hacia
month
nueva
born
cualquier
bit
ayudar
an@@
er
fish
shoes
story
decided
li@@
ti@@
May
a@@
show
acerca
pelo
Monday
Y
age
lunch
Ayer
meet
minutes
nadar
number
others
fun
rich
waiting
usually
living
otros
Gracias
manera
Spanish
nice
Parece
hurt
ran
sueño
zapatos
arrived
chica
ningún
police
run
dije
ed
fast
número
pasar
Take
juego
less
office
students
tree
volver
Give
edad
vi
gone
Usted
heart
sorry
d@@
tonight
vio
Alguien
juntos
suficiente
swim
t@@
window
Which
cuatro
hablando
llama
pidió
queda
real
usar
speaks
broke
cansado
médico
To
calle
luz
manos
algún
cara
encanta
escribir
movie
televisión
verano
falta
eran
quien
sing
realidad
At
Estados
turned
full
hubiera
lleva
tienda
P@@
Will
bajo
hands
2
cuarto
reloj
shouldn
Unidos
arse
i@@
tal
baby
bicicleta
final
guerra
longer
pudo
emos
ventana
Aquí
killed
viejo
Con
ropa
drive
sino
different
mujeres
summer
compró
finished
oficina
mío
ninguna
visit
Many
dead
quite
town
corazón
part
ta
become
cierto
español
examen
making
ocupado
radio
Nosotros
Ziri
dream
loves
lie
tea
kill
high
Go
ar@@
e@@
hija
park
van
Sólo
daughter
deberías
interesting
río
mean
four
rico
ante
buscando
media
perdido
primer
respuesta
algunos
autobús
sabes
saying
B@@
chico
á
breakfast
dis@@
sola
news
preguntó
r@@
ri@@
ará
mistake
posible
esperar
frase
Vamos
afternoon
became
whole
works
b@@
close
hice
M@@
began
lived
poder
song
Sus
canción
le@@
llegó
árbol
Ha
caja
estudiantes
pasa
ro@@
Como
company
hour
reunión
homework
ab@@
large
mo@@
near
pe@@
possible
street
Christmas
p@@
student
D@@
lejos
niña
seis
taxi
Hace
German
Stop
pequeño
Mis
black
calor
later
weather
And
perder
pueda
wrote
E@@
as@@
perros
set
studying
stupid
taking
Cuántos
G@@
aré
sun
trust
watching
Get
am@@
dolor
pensar
veo
box
ci@@
interesante
japonés
pie
reason
diccionario
older
trouble
war
animales
esperando
flores
hambre
libre
picture
spent
America
dictionary
forgot
head
learning
pan
spend
thinking
wearing
’
clothes
extranjero
haya
idiomas
largo
pro@@
six
animal
expensive
unas
Now
bebé
con@@
creer
fumar
Sí
ales
estas
order
river
chance
estuvo
i
ones
Era
Ken
entonces
wonder
vamos
wine
along
chocolate
listen
mar
to@@
viaje
ganas
store
ex@@
flowers
quedó
short
O@@
hungry
ideas
women
moment
necesito
popular
duro
entrar
k@@
pi@@
suerte
F@@
Pero
York
caught
colegio
par@@
stopped
Ojalá
cake
king
poor
regalo
somos
jardín
sería
snow
anoche
ch@@
malo
animals
stand
Había
capaz
least
miss
nieve
rest
)
People
seem
tennis
carne
lose
im@@
nuestros
win
avión
human
lo@@
rather
(
advice
behind
bring
enfermo
ice
oído
pre@@
y@@
Just
Today
com@@
conozco
hasn
cielo
dangerous
sentido
-
Cada
cocina
cree
das
preguntas
su@@
vista
cut
dark
during
gas
novia
caso
salud
tenido
present
terrible
thinks
Look
crees
dress
errores
pregunto
Debes
Están
building
garden
n@@
prefer
tenis
allá
baño
blue
dólares
esté
haga
husband
parque
po@@
—
birthday
fútbol
lista
perdió
questions
vi@@
But
algunas
ca
loved
u@@
estudiante
gatos
surprised
vacaciones
verte
Thank
alemán
known
outside
side
changed
cumpleaños
dogs
problems
pueblo
salió
takes
tocar
trabaja
kept
pagar
pude
siete
After
fui
listo
quickly
siquiera
vuelta
For
at@@
famous
floor
primero
Deja
Layla
beber
crazy
entender
finish
llave
éxito
Every
Nuestro
cu@@
girlfriend
iba
played
vestido
Re@@
bicycle
er@@
quieren
z@@
Jane
T@@
conducir
interested
point
strong
case
clean
cuidado
or@@
smoking
tarea
written
Mañana
Not
Yes
health
H@@
sat
sentences
speaking
Spain
dentro
equipo
hit
means
mistakes
opinión
st@@
ves
Chinese
España
aste
gets
grandes
l@@
man@@
terminar
ts
worry
Be
Somos
car@@
careful
es@@
pequeña
puesto
último
ad@@
blanco
front
sad
tall
tío
yours
ación
cuanto
culpa
llorar
lluvia
mayoría
aire
brought
cry
ruido
ás
Maybe
ama
ated
empezó
fi@@
glad
half
secret
señor
voz
meat
oportunidad
tomó
10
I@@
business
conoce
pena
única
cámara
meses
Estos
New
Podría
ador
mala
oír
si@@
team
dado
fuego
gracias
piensa
vivo
Con@@
entiendo
muerto
cena
demás
drinking
hemos
ted
vaya
alrededor
ara
herself
ley
mi@@
months
par
volvió
Sunday
aban
aría
extraño
parecía
seven
sound
Navidad
Que
bread
key
medio
paper
sky
air
dollars
hagas
needed
papel
several
R@@
Those
cambiar
cantar
cayó
consejo
di
liked
ra@@
Aún
L@@
cost
gu@@
touch
Después
camera
ello
road
writing
United
Vi
agree
eaten
move
próximo
quieras
secreto
fine
strange
ón
alta
helped
on@@
test
whether
American
Bill
atención
bird
debes
mu@@
proud
Podrías
glasses
second
significa
trip
Everybody
Tokyo
asleep
dad
foto
kids
loco
se@@
Everything
break
cook
sit
vos
wear
Cuántas
Francia
arme
derecho
edificio
escuchar
hiciste
huevos
morir
Even
France
compañía
cuándo
feeling
scared
&apos;clock
asunto
closed
club
crying
eggs
ly
m
pain
restaurant
simple
Fui
Put
completamente
fall
girls
mar@@
opinion
pizza
ship
talked
terminado
banco
boca
leyendo
library
noise
paid
past
per@@
restaurante
sometimes
Esperanto
Tokio
Try
ina
poner
án
Someone
beer
caballo
cerveza
voice
completely
em@@
igual
m@@
partido
sleeping
uncle
Quisiera
Ustedes
future
guys
habría
hundred
sitio
situación
Keep
abroad
apple
bi@@
biblioteca
ción
encontró
glass
treinta
Crees
Oh
blood
cats
d
inteligente
negro
plane
return
teach
trabajando
playa
rojo
running
sa
sale
smoke
Ellas
Ni
Tierra
catch
ente
horse
seemed
ajedrez
arlo
barco
chess
cine
jugando
seguir
worked
Casi
OK
exam
justo
mente
probably
saben
stayed
States
accept
broken
cup
explain
golf
imposible
thirty
viven
beach
necesitas
5
Muchos
favorito
natural
triste
attention
cuesta
eras
hat
law
passed
sense
suelo
worth
N@@
clases
clear
encontré
lu@@
mad
peor
í@@
Déjame
Nothing
Paris
ac@@
alive
amiga
anybody
azul
be@@
duele
equivocado
haces
invierno
novio
sell
sombrero
Here
c@@
dan
dance
foreign
llevar
movies
raining
weren
París
drunk
frente
guitar
impossible
normal
propia
sitting
situation
hacen
learned
me@@
mor@@
opened
presidente
rey
sent
é@@
ías
K@@
Sin
bank
cuánto
dientes
exactly
guitarra
solía
tas
í
Algunos
either
inside
peligro
rules
shirt
siendo
Jim
Os
ana
est@@
green
llamar
shall
though
Estas
Les
Thanks
caro
manzana
mouth
sed
travel
vale
walked
digas
leaving
swimming
tos
3
Life
abuelo
arrive
cenar
decisión
futuro
kitchen
llover
wall
weight
Odio
campo
enjoy
mountain
serio
Vas
cream
ers
esperanto
fruit
jamás
lying
pesar
plays
rompió
ta@@
éis
abuela
comiendo
cor@@
llamó
necesario
ni@@
paz
tion
universidad
vosotros
Dame
Debería
cre@@
dijiste
dirección
encontrado
estudiando
evening
ga
hermosa
la@@
mamá
pensando
abogado
ation
camisa
co
control
esos
follow
otras
spoke
taken
winter
Alguna
In@@
bag
caliente
course
entes
exactamente
fly
frases
irse
mía
ocho
pa@@
Dan
Prefiero
bo@@
boyfriend
comió
escribió
j@@
safe
sigue
so@@
za
Uno
ganar
irme
pasada
singing
Bob
caminar
dejes
escrito
ma@@
montón
sa@@
viajar
Mira
church
montaña
noticias
peligroso
seas
Así
body
finally
hi@@
pobre
siguiente
worse
Pienso
choice
desk
fear
información
re
w@@
So
el@@
haría
iglesia
inter@@
marido
mos
taza
On
difference
ordenador
paraguas
pu@@
rato
sala
sangre
Good
Nada
boss
ce
estabas
estará
invited
kiss
propio
serious
slowly
umbrella
abrir
aquel
azúcar
common
empezar
gift
hablo
hurry
ia
luego
minute
showed
venido
8
Realmente
bosque
danger
eye
f@@
fotos
guy
larga
lawyer
lleno
medicine
send
tuve
v@@
7
abandoned
buenas
comido
cuerpo
des
diferencia
ero
jefe
listening
lucky
necessary
soccer
vayas
visited
An
Debo
across
amo
dormido
hermanos
ocurrió
oso
Debemos
Hemos
Jack
Mr
art
c
comprado
debo
decidió
drank
esperaba
experiencia
fu@@
it@@
patient
sounds
ían
Europa
ability
buenos
claro
missed
native
piece
solve
tr@@
traffic
younger
Necesitamos
acaba
date
do@@
earth
h@@
information
oro
pass
tes
vacation
wash
cal@@
cambio
general
perfect
peso
te@@
television
Europe
London
Londres
Tuve
boys
everybody
experience
k
knife
piensas
sugar
tenga
verde
Mr.
acá
causa
expect
fact
for@@
history
lago
ven@@
cartas
común
couple
decision
esas
go@@
nobody
pájaro
twice
viendo
Acabo
Nueva
Ven
birds
conseguir
divertido
domingo
hago
happens
próxima
smile
success
thank
translate
walking
worried
V@@
amable
centro
du@@
ine
llevaba
países
pen
pienso
player
promise
seeing
Compré
Maria
Skura
ating
cars
doubt
failed
hold
lenguas
mal@@
mil
p
reglas
sal@@
shop
tó
u
vaso
visitar
waited
Since
ap@@
blame
guess
pescado
precio
save
shopping
st
atrás
bu@@
comenzó
correr
diciendo
government
hide
llegado
mejores
nació
no@@
piso
quit
single
ste
suficientemente
tado
telephone
vendrá
Internet
eats
encima
expected
humanos
ja
recuerdo
taste
ad
beginning
carro
contar
elo
estés
fight
line
llevó
periódico
trees
Algeria
Todas
confiar
decirle
felices
ill
received
teeth
tierra
Argelia
afuera
aremos
arm
cuchillo
eight
enfermedad
ha@@
honest
led
machine
newspaper
responder
ticket
totalmente
village
ó@@
acostumbrado
adores
ag@@
alcohol
aprendiendo
foot
hará
heavy
ho@@
nor
paso
proyecto
public
seat
smell
taller
themselves
varias
20
Canadian
Tenía
aeropuerto
almuerzo
chino
concierto
count
cuál
detrás
driving
entró
exist
intentando
qu@@
resolver
semanas
silla
slept
ver@@
1
Earth
baseball
certain
chair
concert
daño
dejado
grow
mensaje
n
ous
pasando
peace
queremos
ring
ru@@
4
easily
ir@@
leaves
president
price
ting
varios
6
Al@@
Quería
airport
bar@@
escritorio
evitar
lake
mirando
pictures
smart
América
Both
correcto
countries
fat
helado
kid
miró
prisa
sopa
soup
th@@
viento
áis
Anoche
Aunque
Di@@
Hasta
Sometimes
W@@
correct
driver
given
gustaba
list
manzanas
nuestras
warm
Desde
address
compré
deberes
enemy
film
funny
grandfather
keys
lies
ons
spoken
telling
Co@@
Hola
brothers
deal
desayuno
fault
forward
funciona
haré
inmediatamente
llaves
maestro
matemáticas
novela
papá
repente
sentado
ses
sos
ven
ayudarte
begin
béisbol
estúpido
famoso
hicieron
moon
trata
veinte
z
á@@
Germany
bailar
cas
casado
libertad
marry
novel
offer
over@@
pensaba
quiet
respecto
shut
suena
ter@@
tie
usa
venga
Alemania
Podemos
ano
apples
conocido
dicen
paciente
pedí
sal
segura
studied
bonita
dijeron
il@@
iré
message
odio
power
pudiera
público
sentía
siente
social
system
taught
th
built
debajo
diferente
empty
espera
luna
nueve
ocupada
pone
pájaros
supposed
tras
%
Conozco
Inglaterra
Stay
actually
advised
ant
cien
drinks
gusto
leído
noticia
olvides
pies
segundo
silencio
wind
U@@
Yesterday
abierta
account
cha@@
contento
dices
durmiendo
gi@@
grandmother
land
ma
ojo
rice
sight
tampoco
tu@@
Italia
Wait
arroz
ball
bath
bebe
chicos
diferentes
digo
favorita
hablan
humano
isla
legs
sistema
wake
Last
casó
cita
coat
cooking
felicidad
fishing
island
laugh
minuto
moved
oración
tor@@
Entonces
Russian
bear
canadiense
ds
ent@@
fruta
gafas
ganó
jóvenes
nine
pieza
project
quiera
weeks
England
Never
absolutely
beat
clima
corriendo
dreams
enamorado
gustó
joke
películas
quedarse
rápidamente
sentó
ten@@
terminó
useful
Com@@
Nuestra
Vivo
With
brazo
cocinar
dirty
gobierno
matar
promised
prueba
shower
sign
tonto
yellow
Algunas
Italy
Only
Su@@
Tal
Tony
enemigo
esperanza
held
necesitaba
traje
través
whose
Dime
Haz
Mike
ce@@
contó
ent
hates
immediately
ino
letters
piedra
regret
speech
árboles
Estaré
abrigo
bike
col@@
deseo
habló
incluso
pared
pase
ra
sueños
tar
top
verlo
vuelto
weekend
100
Sabía
To@@
ally
ates
au@@
ciencia
gun
pedir
personal
platos
rains
resultado
thousand
toca
vieja
Children
Habla
Love
Make
Sos
abrió
ba@@
enferma
estrellas
juega
pick
position
profesora
somebody
storm
type
Juan
allowed
ces
hiding
horrible
humor
mom
obra
odia
osos
principio
prison
queso
tears
universe
universo
wet
Kate
Smith
También
covered
existe
gana
juice
junto
llega
llueve
mentira
quedar
shot
similar
sta
tengas
Call
Leave
Most
act
borracho
chicas
ciones
diga
ear
intentó
izquierda
mon@@
planes
quedarme
ro
salt
stolen
wallet
x
En@@
India
Osaka
Sorry
cado
cansada
deberíamos
ec@@
happening
hiciera
raro
tions
tra@@
waste
útil
Italian
apenas
aunque
carry
college
deep
ended
est
grupo
leg
nuevos
purpose
tormenta
traducir
viste
Des@@
Facebook
cheese
compras
decidido
estuviera
fix
g
llena
mitad
An@@
J@@
Tienen
among
ble
chi@@
clock
cos
hu@@
interesa
menor
na@@
respect
sold
tele
video
Deberíamos
Tus
adora
ans
derecha
domingos
duda
empresa
fuerza
pensó
plans
primavera
share
space
stone
stood
temo
tive
verme
yen
De@@
Turn
capacidad
card
choose
den@@
hielo
nervous
noches
olvidado
olvidó
orgulloso
podrías
política
quedé
sacó
seguridad
tía
verdadero
wonderful
Because
Excuse
Han
Hey
Muchas
See
add
ali@@
bolsa
can@@
cer@@
ch
decirme
delicious
dieron
estáis
forest
hacía
is@@
l
luck
mantener
match
naturaleza
puedas
puente
realized
returned
sabemos
somewhere
trató
Two
check
encuentra
feelings
kissed
mis@@
máquina
sentimientos
standing
using
worst
00
Pro@@
Sr.
belleza
bridge
deja
der
espacio
flower
forever
forgive
hermoso
llegue
mat@@
memoria
op@@
stars
stole
tuyo
és
agradable
arás
ban@@
boring
correo
ejemplo
hardly
roja
sepa
sports
suele
uso
Bring
Jackson
bathroom
due
educación
encuentro
end@@
entiende
low
neither
oil
ride
simplemente
sweet
twenty
Ask
George
Write
asking
blind
bored
cambiado
eron
fe@@
feels
group
laughed
pensé
report
talks
texto
toma
ur@@
wedding
Acaso
Mar@@
Perdí
above
apologize
arle
ayudarme
boat
cute
faster
feed
jo
lied
llamo
mer@@
named
partir
preocupes
resto
rica
solución
staying
sub@@
tar@@
valor
Peter
Quiere
ayudó
board
casas
cause
charge
crime
delante
dishes
entered
except
explained
gri@@
ladrón
meaning
modo
ob@@
parar
ruso
satisfied
taron
till
tratando
understood
uses
watched
Brasil
Dicen
Tomorrow
Va
bar
cruel
dressed
dulce
earlier
feet
guapa
hadn
happiness
mató
medicina
min@@
ol@@
painting
reached
recently
refused
sas
singer
special
star
surprise
tema
Brazil
Cor@@
Sería
Supongo
ant@@
asiento
bottle
carefully
cru@@
espalda
games
gold
grew
huge
ity
lend
llamada
lloviendo
ne@@
ought
perfecto
preocupado
sonrisa
sur@@
Hice
Jamás
Quizá
Será
Ten
Well
apartment
bella
escribe
gar@@
habían
heat
metro
necesitan
parecen
partes
pencil
rock
roto
sisters
aburrido
actor
anos
aware
bonito
botella
cont@@
example
fit
fo@@
gay
idiota
llamado
middle
necesitamos
paint
ties
tuviera
whatever
9
Dile
Greek
Were
admit
answered
cantante
computadora
correcta
decide
der@@
discovered
ellas
empieza
escuchando
field
healthy
innocent
intelligent
paciencia
pri@@
propósito
quitó
result
tongue
wise
Ar@@
Latin
Whose
abajo
ba
beauty
ber@@
deben
despacio
don@@
flor
form
irte
jo@@
lágrimas
mismos
noticed
original
osa
owe
piernas
pocos
segunda
sen@@
siguió
suddenly
tarta
teatro
Nancy
accustomed
aconsejó
aquellos
bigger
buscar
cha
cual
empleo
enojado
ga@@
gan@@
gives
hermanas
ig@@
irá
laughing
lots
museo
museum
orange
pintura
planeta
recordar
science
suit
tuya
viviendo
Alice
Siento
Something
Ve
aquella
arán
carrera
considered
cul@@
deberían
decirte
deporte
entire
figure
hechos
her@@
inocente
ita
lápiz
mo
pastel
pescar
rent
techo
tivo
view
wears
From
Kyoto
Mi@@
Toda
alma
anciano
bl@@
conocer
contacto
discurso
escape
habrá
hurts
lady
objetivo
pen@@
pin@@
pocas
tri@@
tráfico
50
Desearía
Hablo
Somebody
Was
aciones
arriba
consider
debido
ears
embargo
frecuencia
goal
h
internet
jugador
levantó
madera
nose
pez
planet
por@@
sorprendido
university
vuestro
ándose
ú@@
Dima
Ex@@
Of
Sabe
Según
cerrar
easier
haberlo
japonesa
join
nativo
negocio
paseo
peces
permiso
qui@@
relación
upon
veía
woke
Aren
Rima
almente
anywhere
b
caused
comfortable
darle
ded
ela
enjoyed
enseñó
keeps
llorando
miles
policeman
principal
realize
saved
soul
speaker
threw
within
zar
Éste
Am
accepted
almorzar
cabo
cerrada
cia
culpable
debemos
ding
enfadado
enter
línea
missing
muchacho
quiso
robó
spring
Apenas
Le@@
Veo
absoluto
ario
arla
button
cr@@
cur@@
ejercicio
eros
escribiendo
estaría
fed
forgotten
limpiar
llegué
post
que@@
reach
smiled
sorprendió
step
super@@
traducción
usual
zoo
By
Their
ambos
cal
comen
encantan
fr@@
giving
hables
lack
lar
lee
ling
map
millones
nuevas
oraciones
oscuridad
rate
respondió
sintió
tenían
translated
translation
ugly
zo
4@@
Antes
Li@@
acento
alumnos
believes
cas@@
confianza
cousin
dedos
fresh
galletas
houses
lenguaje
naranja
negó
opción
pieces
planning
premio
preparado
roof
rule
sientes
sonido
stories
sts
succeed
teoría
theory
Llevo
Mamá
Mejor
Saturday
Vi@@
alegro
barely
basura
belongs
blanca
borrow
cards
coger
comportamiento
computador
corbata
costs
doce
enorme
ge
gue
guilty
idiot
instead
intención
itself
mate
memory
pas@@
size
solution
subject
tendrá
ty
vuelve
web
ñ@@
Canada
Ma@@
Par@@
Time
arma
attend
believed
boda
bother
botón
century
crimen
despierto
diario
explicar
finger
fondo
harto
injured
nariz
oferta
ordered
parada
piel
shy
siglo
skin
theater
trans@@
washed
According
Canadá
Car@@
Madrid
broma
buying
cancer
cap@@
cookies
cáncer
distancia
esposo
fa@@
fired
ground
ll@@
mapa
negocios
ot@@
pierna
pregnant
prepared
quedarte
starting
ventanas
viernes
vivía
windows
Greece
War
accent
aceptar
ahead
aj@@
aunt
calling
carretera
casarse
chicken
cho@@
ck
coches
dry
fin@@
habit
hablas
hacerte
mas
nature
ourselves
pequeños
pool
profundamente
página
rara
round
significado
smells
straight
stuck
vuelva
Adónde
Ambos
Cuanto
Espera
Grecia
Portuguese
Probablemente
Queremos
Tenés
Without
absent
area
artículo
casualidad
center
education
especial
estrella
explanation
explicación
football
hayas
honesto
ju@@
ks
liar
local
metal
pertenece
prisión
state
truck
vecinos
volar
Ésta
Algo
Hubo
Más
Necesitas
Paul
Show
Unfortunately
amente
amistad
arms
arnos
darme
entrada
filled
haberte
hubo
supuesto
ter
toilet
vegetables
washing
yes
Hold
Toma
adelante
br@@
courage
dando
daré
disappointed
japoneses
lentes
llamas
market
medi@@
million
ora
picked
placer
probablemente
protect
querés
quince
r
rumor
sh@@
thief
Betty
Friday
Lamento
Welcome
White
ables
avoid
behavior
bill
build
continue
corner
cárcel
có
da@@
dura
entero
escucha
fighting
hell
interesado
italiano
lavar
listened
notice
ores
results
vimos
vuelo
Debe
Encontré
Esos
agreed
als
cheap
depende
director
dying
enseñar
excepto
flying
hablado
incendio
inmediato
je
merece
nervioso
ou@@
permite
plantas
race
recuerda
res
silent
ster
support
vecino
verdaderamente
vuestra
Be@@
Bo@@
Estáis
Roma
World
accused
af@@
attack
breath
brown
ck@@
completo
cool
den
evil
familiar
finalmente
fría
ganado
gr@@
gratis
honor
knowledge
likely
ness
pal@@
parado
resultados
servicio
stas
tomado
usando
Father
Portugal
Pronto
San
anda
arrested
ashamed
baja
calm
colores
cri@@
darte
dedo
dé
ed@@
ends
energía
estábamos
estómago
fool
forced
harder
lar@@
lights
na
painted
plato
quise
recibió
res@@
risk
shed
sábado
tamos
tir@@
twelve
Bueno
Dos
Hello
Read
advantage
artificial
cabello
calls
cash
cincuenta
ció
comí
distance
extremely
fácilmente
huele
jealous
lan@@
largest
pasaporte
pleasure
practice
probar
prometió
pérdida
runs
satisfecho
seriously
sociedad
sor@@
teachers
teaching
wing
ín
Columbus
Help
Open
Sal@@
andar
arena
asi@@
barato
camión
cant@@
cla@@
conocía
convinced
cried
crisis
cross
enseña
estudio
har@@
men@@
naked
opportunity
oscuro
passport
propuesta
ps
resfriado
rosa
salvo
sentí
slow
supone
tiempos
tomando
trajo
ve@@
vote
x@@
5@@
Day
Didn
Fuji
Per@@
admitted
alarm
ance
caer
cambió
cantidad
cola
conocí
corto
created
criminal
cuestión
echar
exercise
extranjeros
fair
fe
helping
hojas
ked
linda
locked
mintiendo
mostró
out@@
probable
programa
raise
reality
responsable
sang
sentir
steis
tastes
vemos
–
Conoces
Cuáles
Kioto
Linda
Ro@@
action
agu@@
ants
apareció
ary
bedroom
bri@@
conoces
correos
crowd
cualquiera
embarazada
encia
esfuerzo
followed
guar@@
hor@@
intentar
lazy
loud
mirror
modern
murder
nearly
neighbor
paró
rose
sorpresa
tarjeta
torta
welcome
wore
writer
6@@
Brown
Colón
Estuve
Hablas
Incluso
Man@@
Papá
Rome
Tenéis
absolutamente
carried
consciente
creía
espejo
estudia
headache
hid
molesta
pareja
pelota
primo
prize
quedado
reci@@
revista
skirt
sofá
soldados
sons
tanta
text
treat
um
w
willing
íamos
.@@
Americans
I.
Mexico
Solía
Then
amaba
bolígrafo
complaining
decía
empezado
energy
excellent
fiebre
flight
gar
gui@@
involved
judge
ker
math
meant
mercado
nubes
perdí
pleased
querías
quisiera
sacar
solos
studies
tada
talento
Hu@@
Mientras
Mother
O
acabó
acer@@
aria
artist
ase
ayude
belong
brain
butter
char@@
creen
cultura
descanso
destino
empleados
estadounidense
fingers
ing@@
invi@@
lonely
matters
ment
mirar
mood
motor
orden
ori@@
pa
page
pair
responsible
robado
salido
ser@@
soci@@
soportar
sti@@
suyo
teme
trampa
visita
volverá
vosotras
ze
én@@
Mucha
Russia
Y@@
alegra
alo
and@@
appreciate
arreglar
artista
cargo
classroom
discutir
dropped
elegir
escaleras
excelente
fal@@
fifteen
flag
fond
física
grass
herido
inteligencia
patience
picnic
poem
portugués
ren@@
sin@@
supermarket
third
vergüenza
zas
3@@
Querés
Rusia
absence
anillo
bandera
casada
cero
chas
dej@@
deserve
duty
ents
esper@@
estuve
facilidad
fixed
ful
gordo
gotten
grave
hearing
hobby
hole
humana
ies
ins
invite
main
matrimonio
mira
mountains
moving
ms
ninguno
nu@@
pantalones
posición
pr@@
songs
sp@@
stuff
supermercado
vivido
whenever
zado
últimamente
500
Dijo
Each
Mom
México
October
Pareces
Say
acu@@
anti@@
article
ascensor
caballos
canta
cantando
changes
cho
consiguió
cuello
endo
erte
ería
fever
ge@@
guste
imagine
interest
jazz
jumped
keyboard
lay
malas
mantequilla
mayores
mierda
multitud
pensado
pobres
professor
ratón
recor@@
temperatura
weird
whom
yenes
7@@
Cu@@
Fuimos
Mo@@
alegría
allow
aran
arios
beso
calidad
conciencia
convince
corre
costó
cover
derechos
drop
ence
fuiste
hable
helps
huevo
latín
magazine
materna
moda
olvidé
paying
plants
podido
potatoes
produce
ras@@
sirve
solar
sooner
stomach
teclado
throw
últimos
2@@
First
Islam
Polish
Quizás
Shut
ations
birth
bite
brazos
canciones
comienzo
contrario
curso
desayunar
elevator
escritor
evi@@
formas
haberme
he@@
herida
hogar
invitados
juegos
ke
lindo
managed
manejar
meal
nivel
otoño
pat@@
poema
prepar@@
pretended
rang
resultó
society
soldiers
sonó
teaches
tiva
vender
CD
Cierra
Ninguno
Quien
abierto
acción
appeared
aprendido
begins
cen@@
che
clouds
conocen
conversación
corta
culture
dare
draw
dulces
freedom
friendship
greatest
hacerme
jacket
jokes
jugo
kinds
llevas
llevo
luces
mediodía
midnight
musical
necesidad
nurse
olvidar
osas
pedirle
pocket
promesa
relationship
religión
sleepy
suitcase
tenías
tratar
vacía
viejos
12
8@@
Ann
Aquel
Eat
Isn
Mon@@
Trabajo
Vive
Vos
Watch
afford
attacked
ausencia
aves
bajó
besó
beyond
bolsillo
cartera
cerebro
certainly
classes
comenzar
confi@@
conocimiento
convirtió
cs
dancing
depends
detuvo
everywhere
extremadamente
fifty
flat
flu@@
friendly
habl@@
habías
hecha
hill
maleta
material
mañanas
medianoche
mouse
names
pants
prestado
rained
sonrió
starts
tame
temperature
tenés
thanks
ud@@
workers
éste
Berber
Gu@@
Once
Thomas
Z@@
answers
apar@@
apartamento
armas
ata
available
awake
china
complete
condition
cuerda
ducha
duerme
earthquake
employees
extra
failure
following
inas
inos
jail
montañas
niñas
nosotras
pedido
piensan
piscina
pistola
population
pregunté
presente
profundo
quality
raised
ricos
rosas
sabido
sion
sión
vende
éramos
1@@
Disculpe
Est@@
Sea
Taro
acabado
bebiendo
caminando
capable
conversation
corrió
cortó
debía
deeply
dieta
difficulty
diría
dió
doble
dormitorio
empezando
equal
esfuerzos
fresco
fun@@
griego
habéis
handsome
importancia
iría
lead
master
móvil
neighborhood
neighbors
normalmente
octubre
pel@@
pl@@
pollo
pos@@
prohibido
proposal
reír
rights
robaron
seldom
spends
thirsty
velocidad
verdadera
wondered
woods
ís
”
$
25
Africa
Ah
Amo
Dis@@
Intenté
Listen
Man
Quieren
Should
Tuvimos
Vete
Water
actuar
adentro
auto@@
bra@@
bright
bro@@
busca
ches
cias
cin@@
ciudades
clearly
cometer
cuarenta
deci@@
diet
disease
distinguir
enemigos
escuchó
fortuna
fracaso
hacerse
historias
intend
inútil
llaman
nación
ning
población
preocupa
profesores
rela@@
remedio
rid
riesgo
solas
solved
stairs
sucedió
total
value
“
18@@
Chicago
Me@@
Po@@
Qu@@
Sigue
burned
cally
camente
casar
cerró
childhood
committed
comprender
contact
crossed
dejé
denied
detalles
e-@@
egg
esquina
fra@@
fuimos
gate
gonna
imagen
informe
ka
lados
members
miembros
mir@@
nation
neck
none
oper@@
oyó
per
photo
podéis
politics
prepare
querido
regalos
reina
remain
socks
stronger
tales
tic
trabajadores
treated
va@@
Although
Cre@@
Durante
Finalmente
Oí
Pas@@
Pre@@
Speak
achieved
antigua
ator
baj@@
bet
biggest
che@@
cities
conductor
cuidar
dispuesto
domin@@
drogas
echó
effort
ena
enemies
et
existen
explicó
extraña
flauta
gen@@
goodbye
hablaba
interés
license
lion
mirada
mundial
murieron
naranjas
ously
pareció
path
ph@@
places
political
pon@@
private
pusieron
razones
reasons
rude
season
según
stranger
supiera
sweater
tendré
tranquilo
tuvimos
us@@
violencia
voluntad
ways
wood
Argentina
Esas
Estábamos
Hi
Iré
Mu@@
Si@@
Three
Twitter
abre
aceite
autor
avi@@
billetera
cierta
clever
cometido
compañeros
cuadro
descansar
discusión
ejército
elección
email
enti@@
estadounidenses
hablante
holiday
jas
llam@@
ls
medida
metros
muñeca
noon
offered
particular
precios
quedan
queen
recibido
rostro
saberlo
scene
sean
tocando
uni@@
volveré
zó
árabe
19@@
Es@@
Neither
None
Pasé
Pueden
Se@@
Susan
Tra@@
Use
adi@@
alas
amas
blancas
bolso
bor@@
cab@@
castle
ciego
cogió
condiciones
contr@@
costumbre
curious
diré
diste
doll
dumb
entr@@
expecting
falda
funeral
furniture
golpeó
gó
iguales
il
illa
lentamente
podrá
político
puse
rec@@
remos
respuestas
señora
sport
suya
terremoto
under@@
violence
ying
yourselves
época
Dad
Pon
Recuerdo
Tan
abandonado
abandonar
abandonó
acciones
ala
ame
aras
army
az@@
badly
castillo
compar@@
complicated
credit
descubrió
difíciles
discuss
efforts
escaped
espero
excited
famosa
fence
flute
fortune
fábrica
gado
guapo
ings
intelligence
joy
kilómetros
letra
losing
manager
muchacha
novelas
pasé
pe
poet
polvo
preguntar
puesta
request
sheep
stick
tal@@
televisor
toy
tuvieron
verduras
veré
vo@@
writes
ábamos
Ahí
Fadil
Haré
Simplemente
Think
according
allergic
armario
bordo
bottom
complain
compraste
construir
cruzar
cubierta
dentista
enta
fuertes
hábito
ic
invented
maestra
marriage
ocurre
pil@@
pity
poniendo
prob@@
propios
ros
seres
shit
sings
spread
turno
vidas
Asia
Carlos
Google
Guerra
However
Mario
Ningún
Sois
Vale
anger
appears
arías
author
añ@@
bajar
billete
brush
cion@@
cumplir
datos
deportes
ear@@
engañ@@
enseñ@@
euros
examination
facts
far@@
feo
fil@@
fully
gal@@
ger@@
handed
illness
insectos
international
lesson
lines
lock
loss
mentiras
ments
miembro
mil@@
mp@@
nombres
ors
pens@@
permission
posibilidad
querría
romper
salary
sent@@
silence
smiling
son@@
strength
subway
suicide
sur
tallest
termina
tomo
tor
unless
zed
zona
ér@@
Jesus
While
Women
acabo
actual
alcanzar
arlos
ats
bur@@
colors
comienza
desert
economía
eta
factory
fail
humans
ida
indi@@
ko
lav@@
lento
llueva
mathematics
mentiroso
mess
metió
muertos
nota
of@@
os@@
players
poca
políticos
program
receive
responsabilidad
saltó
saludable
sand
sharp
tro@@
wound
ye
Being
Buenos
California
Ni@@
Normalmente
Perdón
Preferiría
abandon
acceso
agreement
altos
americano
amigas
apagar
assume
bo
chaqueta
ched
chil@@
cido
cierra
computers
confused
contestar
crédito
débil
edi@@
elecciones
election
esco@@
estaré
esti@@
farm
fri@@
genial
genio
gs
hacemos
hang
humanidad
hung
invitó
largas
llegaron
loca
member
míos
norte
nuts
online
parecer
patatas
plant
ponerse
querer
reads
recibir
religion
remained
ría
simply
sol@@
sombra
square
stri@@
survive
tam@@
toward
understanding
useless
various
viva
yendo
yo@@
área
Arabic
Before
Brazilian
Dejé
Dice
Llegué
Perhaps
Porque
Ri@@
Sol
Sundays
access
agrada
alidad
anas
bal@@
bebida
bereber
buried
calles
character
chiste
copy
cuyo
dama
deaf
doy
drugs
eleven
escena
fallen
hated
hero
ini@@
justicia
llegará
mail
mando
meter
motivo
obey
ocupados
odian
ona
pan@@
pareces
perfectly
pesado
punished
quedaron
quick
reali@@
regla
relax
respeto
screen
sive
sois
speed
tantos
tells
tendrás
tight
toalla
tocó
trabajó
vacío
victoria
virus
wild
ándome
Bu@@
Estaban
Hazlo
June
Lleva
Mal@@
Nemesio
Podéis
amiento
amount
apo@@
aquello
averiguar
breve
brillante
cae
carga
cate
cell
chose
ciento
closer
colina
coma
consigo
consists
dentist
destroyed
ental
entera
escapar
estilo
falling
ged
harm
instrucciones
inteligentes
introduce
kindness
león
located
locos
meta
miel
millas
montar
newspapers
ocean
oranges
pegó
poeta
polite
putting
rarely
refrigerator
repar@@
sabor
sion@@
sions
sobre@@
sun@@
thin
ton@@
towel
traveling
universal
upset
verla
vivió
British
Cats
Cristóbal
Cuidado
Hurry
Jesús
Ju@@
Lo@@
Music
Nací
acep@@
adop@@
andando
apart
appear
asesinato
ayudarnos
banda
caballero
calcetines
candy
cl@@
claimed
comp@@
consider@@
cooked
damos
details
dios
disappeared
drives
emergency
estúpida
exten@@
faith
file
foolish
force
further
gentleman
hombro
héroe
importantes
improve
junio
levantarse
leyó
leí
literatura
llamaré
lugares
ment@@
mission
moto
negra
obtener
olor
opening
ours
paga
paquete
pequeñas
periódicos
planta
plenty
poli@@
presión
pulled
recognize
reg@@
roses
ré
salida
service
solamente
taba
tantas
task
tense
trae
traer
trat@@
trozo
warned
África
Christopher
Close
Harvard
Money
Turkish
Whatever
acting
ages
ale
ang@@
anterior
aspecto
ataque
ati@@
average
awful
based
cabra
citizen
climbed
colour
convencer
ction
cuidadoso
curiosidad
dame
delicioso
desierto
ea
electrónico
excuse
false
fantasmas
fill
flew
fore@@
goat
grados
gran@@
grateful
gué
hers
horses
imagin@@
imaginación
ism
ismo
issue
lección
limpia
martes
nuclear
obvious
océano
passengers
patio
piezas
productos
prove
puertas
quer@@
querían
regresó
responsibility
rope
snowing
str@@
succeeded
suffer
suspect
understands
usado
vo
vuelvas
40
Ad@@
Berlin
Berlín
Ch@@
Lu@@
Mat@@
Na@@
Pues
Quédate
Smoking
Vosotros
aceptó
active
amazing
ani@@
annoying
appointment
ay@@
ayudara
azules
bromeando
calma
cio
comentarios
compañero
compr@@
continued
decidir
dem@@
diver@@
dueño
electric
encontramos
ev@@
fuck
hicimos
highly
hubiese
imos
ines
iremos
juguete
juventud
laid
listos
logró
mas@@
med
menu
muere
okay
opposite
orejas
owner
pasajeros
photos
plata
pongo
quedamos
refuse
remains
repeat
requiere
self-@@
sencillo
sexual
señal
shoulder
shows
siones
suelen
tamaño
tate
tend
tido
tivos
totally
traveled
tí
tímido
val@@
vivi@@
vol@@
weak
15
18
Cualquier
Pablo
Pi@@
Shall
Tanto
Ti@@
Vivimos
absurd
all@@
attractive
audience
bra
brave
cados
capitán
cercana
cientos
cinturón
cli@@
cometió
conocerte
degrees
din@@
discu@@
disculpas
disponible
drove
durmió
echo
economy
encar@@
engine
express
fer@@
flo@@
fluidez
fridge
gra@@
irnos
jar
larger
lately
legal
literature
llev@@
notas
novels
orders
orgullosa
ota
powerful
preferido
regresar
sake
salvar
seguido
seguros
sel@@
sex
shelf
sospechoso
stands
tomé
torre
usan
ventaja
vistazo
volando
Estabas
Parecía
Sabemos
So@@
Yu@@
abor@@
acaso
actitud
agujero
ast@@
autos
ayud@@
beard
bel@@
bell
bello
bilingual
bomba
cando
climate
climb
collar
conoció
dará
decirlo
democracia
describe
dor@@
eg@@
enfermera
entendido
escondiendo
estén
fluently
granja
hablamos
harías
hubieras
hy@@
importar
instructions
internacional
investigación
invitado
io
kilometers
ko@@
ll
llevan
lobo
lon@@
mejorar
mental
menú
meters
pagó
perdón
pintar
pla@@
preparando
producto
pul@@
quedaré
quit@@
radi@@
regaló
rojas
search
style
subir
subió
tecnología
tenéis
thick
tickets
tional
wide
24
300
Beethoven
Dogs
Dr.
Emily
Fu@@
Next
No@@
Podés
Send
Shakespeare
South
Tuesday
Whoever
Yumi
abas
accidentes
acor@@
admitir
amar
amarillo
argument
ausente
barba
becoming
bes@@
captain
casos
científico
conocemos
considerado
contrato
cortar
create
cultural
despertó
dido
escribí
flies
francesa
genius
guests
illegal
increíble
invitación
iron
lat@@
levanta
level
leyes
maravillosa
millón
moneda
motorcycle
national
p.m.
papas
password
ped
pesa
pet
physics
podamos
present@@
pur@@
raw
serpientes
shoot
smaller
soft
sudden
tipos
towards
turns
urgent
vengas
vienen
wa@@
website
winning
zando
zaron
zumo
ésta
11
16@@
Any
Choose
Christian
Dije
Hungarian
Israel
Jo@@
Llámame
Luna
Mayuko
More
Pon@@
Ponte
Remember
Toki
Venga
Ves
acted
added
advance
airplane
anciana
antiguo
apagó
ari@@
attitude
bebió
betrayed
blew
bote
bucket
casados
changing
cida
contraseña
conven@@
cura
deber
descubrir
dest@@
dificultad
direction
elegido
encontr@@
environment
escuchado
evidence
gerente
gracioso
impuestos
insects
intento
inventó
lam@@
laws
lin@@
lips
mintió
muro
necesit@@
ned
occurred
ocultar
oí
parts
press
product
queréis
repair
reply
riendo
rieron
riqueza
ruined
sab@@
saliendo
sells
serán
smarter
sonar
sort
suggest
survived
swear
tando
the@@
thoughts
tieron
trusted
vela
vendría
volviendo
wings
ws
ático
14
Austria
Black
Dudo
Halloween
Lincoln
Mennad
Mundial
Nuestros
Santa
Things
Vuelve
abilities
accompanied
acercó
acompañ@@
acts
alcalde
anim@@
apa@@
asuntos
band
bre@@
cks
comas
concerned
conduce
contado
continuar
conver@@
cure
cómodo
daba
departamento
devil
ej@@
elected
enamorada
entos
eri@@
explo@@
gray
gris
hac@@
hagan
hermosas
hoping
importaría
infancia
intentarlo
ito
je@@
jump
kilo
monte
mover
muchísimo
naive
pagan
petróleo
podés
poesía
pongas
preparar
progress
propias
puntos
ques
ren
rió
row
sabio
salad
sandwich
sepas
someday
species
star@@
ste@@
sto
suggested
touched
trap
trece
ura
uñas
vaca
vacas
venta
ving
visitado
xi@@
Ana
April
Creía
Korean
Ne@@
Picasso
Pona
Tomasa
Tres
Vol@@
aboard
admitió
agradecido
anyway
base
basketball
battle
bears
bil@@
blancos
bles
breathe
cable
cambi@@
capaces
celular
clo@@
compra
contract
data
debate
diera
digan
drawing
duró
elephant
emp@@
enseguida
entendí
ere
erlo
eré
fila
fines
fl@@
golpe
habido
increase
jugadores
ki@@
lation
ler
maravilloso
mismas
muebles
muestra
método
nearest
noble
ocurrido
patas
pecho
permitir
pes
pped
pressure
quem@@
salario
sales
sensible
shame
shape
sto@@
stones
stu@@
sueldo
tratado
valiente
vernos
vienes
walks
wi@@
wolf
ío
Barcelona
During
Empecé
Judy
Meg
Ob@@
Pedro
Sa@@
Seguro
Sobre
Taninna
Trata
Un@@
Vaya
abri@@
acabar
adiós
admi@@
aliens
alimentos
ancient
angel
aumento
cación
cambia
cansados
causó
chos
cinema
cleaning
comentario
constru@@
couch
cow
cá@@
dejaron
del@@
despertar
desperté
dificultades
doors
dreamed
dri@@
drug
dust
ece
electricity
elefante
emergencia
ensalada
enviar
ess
exhausted
extranjera
falso
fotografía
fought
gan
ghost
gloves
growing
guantes
gustado
hierro
importance
intentado
interior
invitation
iz@@
jam
jobs
ki
knowing
llamarme
llame
melo
movimiento
mínimo
ofreció
origen
pantalla
pasear
pensamientos
perfectamente
period
pes@@
piedras
pluma
ponga
prefiero
prices
prohibited
promises
pull
recommend
record
recuper@@
removed
repaired
ridiculous
rin@@
sano
serás
speakers
streets
suave
tendría
tentación
terms
ths
vain
vari@@
vase
via
war@@
wealth
ár@@
,@@
9@@
Al-Sayib
Jones
Olvidé
Pensaba
Washington
abril
agarró
aparte
apellido
aproximadamente
assumed
barrio
bas@@
battery
bebo
beings
ben@@
bomb
cares
cedió
chu@@
ciendo
cigarette
community
complex
conejo
conocida
contiene
có@@
deseando
desper@@
diente
dispar@@
distra@@
divided
drew
electricidad
envió
equivocada
erse
espada
especie
estarás
estudiado
expres@@
fan
fecha
female
forty
gasolina
gritó
haberse
haremos
hello
hoja
holidays
hopes
hun@@
idos
imagination
inevitable
instituto
joking
labios
lamp
limpi@@
llegamos
lloró
lower
mention
method
ming
momentos
nadando
obras
odi@@
om@@
opiniones
podríamos
poems
polaco
preguntaba
prestar
princesa
práctica
páginas
recognized
risa
rooms
rápida
sabías
salv@@
salón
serve
stealing
suffering
supper
sword
tail
talent
tation
tiende
tough
trabajaba
traído
tur@@
unable
unlikely
vel@@
visa
votar
yard
ñas
13
Buy
Ca@@
Dale
Do@@
Ha@@
Happy
Kobe
Llegó
Men
Suddenly
Switzerland
Tras
actions
acusado
adecuado
adorable
alarma
ality
aman
anza
aprende
aprendió
aside
banana
basket
batalla
batería
bot@@
cases
cerrado
cima
compli@@
cuentas
current
definitely
dejaré
demasiada
deserves
desire
dish
dly
effective
els
equipaje
escalera
esperado
exchange
expresión
fatal
forms
fox
fre@@
fuente
granted
gru@@
hire
holding
honey
humo
id
impresión
jun@@
kicked
kidding
lasted
leader
lectura
lent
leo
lia
limpio
lit
locura
matado
misión
músico
nad@@
percent
ple@@
port@@
puppy
recientemente
reco@@
sia
signed
snakes
sofa
successful
sucia
surrounded
tarse
temptation
term
tiró
vano
venden
volví
wherever
youth
án@@
Buenas
C
Cookie
European
Hizo
Intenta
North
Piensas
Primero
Robert
actu@@
aje
alphabet
arañas
argue
ate@@
atrapado
baloncesto
bleeding
burning
cerdo
cheaper
clientes
closet
coin
come@@
compartir
complained
conferencia
contains
cost@@
crear
creas
cuántos
dejara
depressed
destru@@
dormí
efecto
ep@@
et@@
exists
festival
fueras
fuerzas
gained
gando
ger
ghosts
gido
habilidad
hel@@
hidden
higher
imaginar
ke@@
lemon
levant@@
lift
medical
medicamento
mel@@
misterio
molesto
muerta
mueve
musician
mé@@
partida
pasatiempo
pelear
pleasant
poemas
punta
ras
rely
respon@@
ridículo
role
rota
sabiduría
saving
skiing
software
speci@@
tablero
tan@@
tareas
technology
toques
trago
trato
ty@@
unique
vea
verdes
vieron
vinieron
vivos
y-@@
ísimo
Alex
Desafortunadamente
Entre
Gi@@
Hablé
Lucy
Mark
President
Pu@@
Suiza
Vimos
abandon@@
ace
aco
adónde
ai@@
aliento
altura
arguing
ases
baile
behave
boleto
callado
cambios
caron
caído
ceiling
chi
ciudadano
cleaned
consciousness
convencido
democracy
desea
deseos
desnudo
despe@@
despierta
dor
ease
eli@@
embarrassed
entas
entend@@
enter@@
ero@@
err@@
escenario
especialmente
experiment
extraños
favourite
frutas
función
gritar
guía
haberle
hug
ignorancia
impressed
independent
ingly
ink
insult
intent@@
jos
knocked
mentir
miraba
monos
nacional
om
perfecta
pot
preguntarle
prevent
promesas
provo@@
pun@@
pure
push
recoger
región
remembered
ry
sensación
sentada
seré
siesta
silly
sleeps
sociales
source
spirit
stage
sucio
superior
suppose
suspicious
teniendo
tesoro
tied
translator
urgente
violín
visiting
visión
wins
worker
worn
ña
ño
órdenes
Almost
B
Cam@@
Colombia
Entiendo
Estudio
Hab@@
Mor@@
Mt
Res@@
accidents
alguno
amabilidad
americanos
apply
asust@@
cantó
cau@@
causes
challenge
científicos
classical
classmates
comple@@
continu@@
convenció
correctamente
corte
costa
cra@@
crossing
daron
decepcion@@
decepcionado
detective
document
documento
earn
efectivo
entemente
entreg@@
equivo@@
escucho
eventually
existencia
gada
gallina
gatito
gro@@
hin@@
hired
invent@@
letras
lovely
líneas
miento
mistaken
mochila
mono
noisy
nonsense
notebook
notes
nowhere
números
opponent
pad@@
pasan
pasará
plu@@
priest
publi@@
pudimos
rare
resulta
robar
robbed
saltar
seguida
selling
sem@@
shock
snake
spe@@
sta@@
supo
tir
tire
ton
uncomfortable
unhappy
utilizar
vives
zamos
zan
zing
/
Algún
Bible
Ci@@
Comí
Decidí
Drink
Few
Hi@@
Hokkaido
Learn
Lle@@
Murió
Nosotras
Pasamos
Pregúntale
Recibí
Sit
Such
Tomé
Van
accomplished
achieve
aco@@
adultos
apoyo
arre@@
arrest
asustado
avergonzado
ayudará
basta
bebido
becomes
bilingüe
botas
brings
cante
cel@@
cerr@@
colo@@
confía
connected
construcción
construyó
convertirse
copia
corre@@
corriente
court
daily
deje
desapareció
disfru@@
disparó
divorced
ely
encontraste
enfadada
enfermedades
entiendes
ete
finding
generally
hall
hon@@
jar@@
juegan
laptop
lava
llamando
llevará
lograr
louder
lástima
mantiene
mantuvo
marcha
model
moderna
mystery
nap
pago
pesada
pink
pobreza
politician
politicians
pond
preci@@
princess
profunda
proof
properly
puedan
rabbit
rechazó
sees
sentarme
serpiente
sexo
sunglasses
ters
ther@@
trabajan
trapped
up@@
vend@@
volumen
watches
west
zada
Aprendí
Big
Donde
Escuché
Estuvo
January
José
Leí
Llam@@
Policía
Querría
Ten@@
Traté
aburrida
accompany
ache
actriz
alfabeto
apre@@
arro@@
asistir
autumn
bonitas
boots
burst
caba
cap
cheated
cir@@
cle
clásica
complicado
confessed
confidence
consejos
contener
cé
dar@@
darse
dating
decisiones
deny
desgracia
dijera
dime
distinguish
divi@@
divorce
elev@@
empezaron
event
existence
experimento
fake
flashlight
fol@@
frozen
gh@@
handle
ilegal
intention
interpre@@
kers
lación
levantado
levantarme
levanté
librería
lámpara
mini@@
moves
necesitar
numbers
oeste
official
oficial
ol
ory
otherwise
oídos
pasta
pelea
pido
ping
podré
ponerme
pozo
pruebas
pura
quedando
ración
religious
remind
reputation
revi@@
revistas
ron@@
siguen
sore
steal
suéter
sy
talented
temporada
termin@@
tió
trabajos
traducciones
viajes
wishes
ángel
Ab@@
Adoro
Biblia
Check
Claro
Di
Escribe
Escu@@
Esper@@
Esperamos
Feliz
For@@
Fuiste
Hagamos
Lisa
Oye
Piensa
Ru@@
Señor
Tanaka
Tr@@
Trabaj@@
Viste
Volveré
absurdo
adopt
afortunado
air@@
almohada
alumno
aprobó
ares
ave
bench
bes
blo@@
bon@@
bru@@
burn
cali@@
carácter
cercano
charming
chest
chosen
clara
cubierto
cuento
danced
debió
debt
dile
documentos
dudas
enamoró
encantaría
encontraron
erme
ery
erá
esperó
estuviste
fama
filosofía
fingió
fy
gener@@
gustas
heaven
heridas
hierba
húngaro
ide@@
idi@@
iendo
iled
independiente
individual
ingenuo
juguetes
knee
levantar
liberty
libr@@
limón
logical
logrado
logro
lógica
males
malos
medios
mol@@
ne
nevando
normas
note
obvio
ocasión
pagado
pagar@@
pale
papers
pasamos
permanecer
pol@@
possibility
post@@
presence
prevented
produ@@
provide
príncipe
reconocer
recuerdos
resul@@
rio
safety
salvó
secretos
secundaria
shake
shi@@
soap
stops
tados
tengamos
throat
tooth
tras@@
tura
vayan
veras
verle
visitó
ví@@
walls
wisdom
zorro
Coge
Deberían
Dijeron
Egipto
Egypt
Gran
Marika
Qui@@
Saben
School
Ser
Vayamos
Vladimir
abducted
acto
actress
acuerdas
admir@@
admire
adver@@
alegre
alike
alism
amado
anta
appearance
arriving
ass
ayudarle
bald
begun
bici
bió
borrowed
boxes
breaks
cajas
cidos
claramente
cliente
cloud
collect
comment
comunidad
conditions
confío
contenta
creó
deli@@
dessert
dies
dr@@
dy
dó
eléctrica
entrance
especially
expert
extraterrestres
falls
fantasma
fashion
fied
fir@@
formar
funcionar
gifts
guardia
hab@@
hacerle
hand@@
highest
imit@@
improved
incapaz
infierno
insane
int@@
justice
kilos
linterna
llamaste
lle@@
llegues
loose
líder
ló
mit@@
modelo
negros
nevar
opciones
options
pierde
pig
plastic
plástico
postre
practicar
prefiere
primeros
primos
prince
production
products
quedo
quienes
química
ratones
region
regres@@
regular
regularly
rise
rodilla
romantic
ríe
san@@
scientist
secretary
secrets
separ@@
shorter
sink
sk@@
soldado
soldier
south
spite
stra@@
sunny
tarme
taxes
tidos
tiro
traductor
truly
turco
victory
violin
vídeo
0@@
Abre
Da
Death
Debido
Detesto
Doctor
Dutch
Fr@@
II
Learning
Lee
Leo
Ta@@
Tendremos
Tuvo
Vine
Vino
abuelos
ahorrar
ajo
alar@@
alcanzó
ale@@
alfombra
ambi@@
ami@@
attended
ban
bañ@@
beans
ble@@
bola
bottles
bre
breaking
buses
cajón
candle
cave
checked
cheek
chó
cobarde
cocinero
coins
conce@@
condición
conjunto
consiste
control@@
coraje
correctly
coward
creyó
cro@@
cui@@
cuida
dejas
dejo
demanded
descubierto
deten@@
dra@@
effect
elefantes
ending
envi@@
errors
eses
esp@@
espectáculo
espere
espíritu
esquiar
experienced
exámenes
firm
gain
god
gorda
grabbed
grandparents
grown
guardar
head@@
hoped
ian
ignored
image
incident
itas
journey
killing
leg@@
liber@@
licencia
llor@@
lloverá
luce
magic
moral
mostr@@
mp
naturales
negras
ocurra
oldest
oni@@
opinions
osamente
our@@
paredes
pañuelo
permi@@
pesca
pila
plate
points
pray
presents
privado
producción
prome@@
puta
reasonable
resol@@
respe@@
ringing
salí
seek
sensitive
sesenta
site
sor
spell
suma
sweets
tejado
tires
tom@@
toys
translating
treasure
trenes
uvas
versión
viniera
weapons
Ésa
17
17@@
Anyone
Du@@
Fuck
Go@@
Ho@@
Pa@@
Sun
Tendré
Th@@
Translate
ador@@
adult
afec@@
agotado
aho@@
amar@@
ambas
ancianos
apariencia
aprendiste
ators
atr@@
attempt
botellas
bus@@
canadienses
casarme
ced@@
characters
chat
chemical
ching
chinos
cional
cito
cocinando
completa
confun@@
considera
constantly
consu@@
contest
cosecha
cousins
daughters
defend
ders
deserted
despedido
diendo
directamente
dirá
disco
discussed
enas
enfrent@@
eno
escondido
estudió
familias
frame
gen
gió
guard
ilusión
improbable
incómodo
instante
jabón
juzgar
kes
lab@@
llamaba
llamé
llegada
mag@@
masa
mayo
monedas
mueren
multi@@
nuevamente
ochenta
olvidaré
olvide
ordenó
orgullo
pages
pas
pasaba
persuade
pidiendo
pillow
planeando
plaza
pli@@
poetry
ponen
posee
prefer@@
principios
proceso
pronounce
proteger
pushed
raza
razonable
reconoció
remove
renunciar
reserva
seats
segundos
served
sets
signifi@@
sobras
spo@@
stamps
staring
suicidó
superar
sushi
tec@@
tela
temas
tip
toque
trabaj@@
translations
turistas
twins
vayamos
viniste
voted
wheat
zos
íais
22
90
Add
Aprender
Bus@@
Chile
City
Col@@
Creí
Cualquiera
Cuánta
Dejó
E
Francisco
Guar@@
Hablamos
Habéis
Having
Hebrew
Nature
Viene
aca
ace@@
aces
acti@@
además
ah
alegr@@
amenaza
anxious
apoy@@
archivo
ardilla
aries
asesino
ayudado
bail@@
below
belt
bio@@
borde
bromas
cabaña
cakes
camiseta
central
cer
cerdos
cerrados
chistes
circumstances
cking
collection
comiste
cortas
criti@@
cumpli@@
cómoda
damage
daría
decisions
deer
defeat
desarrollo
descar@@
determin@@
dir
dist@@
doctors
drowned
dur@@
edu@@
eme
esperanzas
estudi@@
estupidez
estuvieron
fascinating
fog
foods
founded
frigorífico
garganta
giant
golpe@@
graduated
gramática
grapes
gues
gust@@
habitaciones
hijas
ignore
impidió
ined
influence
ining
ja@@
kitten
lad@@
lamento
len@@
llevado
llo
logist
mascota
maybe
milagro
musulmanes
mutuamente
ners
ocurrir
parecido
participar
pele@@
perfume
personalidad
philosophy
pinta
placed
plan@@
po
pointed
pres@@
prisoner
probado
process
published
quej@@
recién
reducir
resign
resources
respirar
rob@@
scare
sho@@
squirrel
stic
strangers
sum
símbolo
tele@@
tendremos
tent@@
thirteen
title
tonta
trabajado
usó
vest@@
vete
viera
viol@@
visible
weapon
zados
ácido
áramos
Allí
Asegúrate
Bienvenido
Cuéntame
DNA
David
Despite
Eli@@
Elige
Follow
Gre@@
Luego
Nice
Nobel
Sentí
Ser@@
Sh@@
Sigo
Swedish
Tráeme
Wake
accomplish
afeit@@
agre@@
alérgico
amanecer
amarilla
ances
ane
ans@@
aprendizaje
arrepiento
asco
asesinado
bir@@
bound
bs
canceled
castig@@
charged
cheating
claims
comidas
committee
compared
composed
concern
condu@@
conference
consecuencias
consideran
convertido
convi@@
copa
creció
ctor
cuaderno
cy@@
deb@@
dedi@@
department
diablo
dic@@
dioses
directo
diri@@
diseñ@@
disfrutar
e-mail
echado
empleado
encendió
encuentran
enero
envidia
escal@@
escapó
escondió
exclu@@
excusa
exi@@
expresar
falsa
families
fle@@
formed
fundamental
garage
goals
grade
hablantes
hanging
hatred
iga
ignorance
incidente
inglesa
inten@@
intenta
jaula
las@@
libres
llen@@
magazines
marchó
marrón
mentido
mes@@
miente
ministro
mires
monkey
nacimiento
nací
ner
objetos
oveja
oxígeno
parked
parti@@
peligrosa
personalmente
piloto
plant@@
podrás
pona
poquito
positive
poverty
pping
presencia
presentes
pretend
prime
quede
rainy
recursos
reduce
regal@@
register
relaciones
reparar
repe@@
reuniones
robo
sabían
salieron
sam@@
schedule
scolded
seco
sentados
sentenced
shoe
solicitud
soltero
sonriendo
soporto
spot
strike
sum@@
symbol
sándwich
sótano
talo
tear
tinta
tion@@
trains
tranquila
trigo
tru@@
twenty-@@
und@@
unfair
unusual
utiliza
vidrio
volume
émonos
+
2013
Anne
Ayúdame
Believe
Birds
Claus
Corea
D
Er@@
Esperemos
Habrá
Hawaii
Im@@
Intent@@
Llev@@
Nara
Ninguna
November
Pe@@
Queréis
Recuerda
Recuerdas
Red
Sabéis
Sabías
Start
Suecia
Tendrás
Trump
Turquía
Union
Vengo
Wash
YouTube
abejas
abo@@
aguanto
aim
alcanz@@
alquilar
apetece
aring
asks
av@@
añadir
camin@@
canto
carrots
ced
celoso
ces@@
chairs
cigarettes
clothing
cocin@@
colección
comité
conocimos
consul@@
cough
cows
crea
dancer
defectos
deliciosa
descubri@@
detail
diary
dimos
discussion
dreaming
dé@@
educado
egoísta
employee
enfad@@
ento
eo
estudios
expression
extranjeras
ey
ey@@
fabri@@
falleció
fea
fluent
frightened
fruits
fuese
fuma
gane
generalmente
gged
gieron
ging
glo@@
grano
guide
gustar
helicopter
humanity
ideal
ill@@
insul@@
invisible
irán
jueves
juicio
lastim@@
leftovers
link
liz@@
llegaste
lleve
lotería
lottery
mado
manage
meals
messages
mice
miracle
moderno
mordió
mó
nails
nativos
nerves
niebla
nor@@
obedecer
ocultando
orden@@
origin
oscura
package
pares
partici@@
parties
pasto
periodista
personality
phrase
planted
populares
poten@@
prefieres
preparing
preparó
pride
puerto
quedes
quejas
realizar
regreso
research
reservation
response
revés
ruin
samente
sandwiches
scary
semejante
sha@@
shadow
shared
showing
sides
sienta
sonreír
squ@@
stepped
sters
surgery
taciones
tch
telo
tivas
trabajador
turning
título
verás
vine
visi@@
vivimos
wasting
well-@@
wounded
yeron
zanahorias
zo@@
zoológico
Bien
Empezó
February
Fueron
Fumar
Her@@
James
July
Korea
Llama
Mars
Marte
Mrs.
Muslim
Pasó
Save
Scotland
T
acabas
ades
adopted
alej@@
aliz@@
alternativa
ambiente
anu@@
araña
arias
automóvil
bananas
basic
bees
begged
bones
brains
cage
cancel
cariño
carme
caus@@
centr@@
cing
clave
colgó
compromiso
conducta
conec@@
considero
conversar
crema
dades
dawn
desperate
despite
dia
diamond
difficulties
drawer
dro@@
embajada
ement
encantadora
endi@@
engaged
ens
ensayo
entering
entra
espacial
estalló
exciting
experto
explosión
f
faces
fate
foreigners
fresca
frontera
garbage
gastos
ges
gods
goods
gos
grab@@
grandma
gre@@
género
hablé
habíamos
ham@@
harsh
iban
ignor@@
income
infantil
infec@@
influencia
ingresos
interro@@
ios
ira
irri@@
ish
ist
ista
itos
journalist
juez
junk
ladrones
lasts
latest
lla
llevaré
luchar
majority
mali@@
marca
mask
mata
memories
mentioned
mid@@
mostrar
movimientos
nervios
objeto
obligado
od@@
onto
oponente
pairs
partió
pasaron
passes
pedirte
pensamiento
perder@@
pilot
planetas
planned
port
preocuparse
puntual
purse
qued@@
receta
related
reminds
reputación
require
requires
resuelto
ritmo
rueda
sac@@
sauce
scream
seca
security
separated
shirts
shook
sil@@
sillas
silver
sobrevivir
strict
sucede
sweat
talla
tarlo
tengan
tin@@
tiny
tomas
tomate
tomato
tradu@@
tí@@
upstairs
zca
íbamos
196@@
23
Además
Carlsen
Central
Compr@@
Deme
Dick
Eve
Everest
Find
Instead
Joe
Michael
Muslims
Norte
R
Sal
Sam
Ste@@
Suelo
Thursday
Tradu@@
Whenever
ach@@
aches
activity
adme
adulto
adults
antiguas
apologized
approve
approved
atos
aviones
barking
blow
brief
buildings
bush
caras
caros
cen
cheque
chis@@
cinta
comfort
comments
comprarlo
comunicación
concurso
conden@@
condenado
conduciendo
confundido
construction
coreano
creative
cubo
cueva
culo
cups
cuántas
césped
círculo
d-@@
desafío
despreci@@
detener
ditch
eds
elimin@@
ema
encender
endas
engineer
enojada
ense
entirely
entrevista
envelope
envy
ernos
escrita
estructura
estupendo
expli@@
explosion
fascin@@
gasta
gracia
gripe
habilidades
ham
harina
hesitate
horror
hundreds
hunger
ias
ibas
idad
impli@@
incluye
indifferent
ine@@
inspi@@
inst@@
insurance
irás
jan
lacks
ladder
lean
lecture
lessons
levanto
llego
llos
logía
male
mide
miserable
moments
moverse
nations
nearby
obser@@
observ@@
ocul@@
operation
pado
palo
parezca
pasillo
peligrosos
perdiendo
perdieron
permitido
physical
ponerte
preocupada
profesional
professional
quarter
quedaba
quedara
ran@@
refrigerador
resembles
retraso
rising
roads
scientific
scissors
secretaria
sen
sh
siva
sli@@
smo
spi@@
stove
struck
suffered
surface
tación
tarda
tará
testigo
tre@@
trick
vais
valuable
version
viaj@@
viejas
víctima
weigh
wished
Ése
ándolo
ética
útiles
-up
200
20@@
Anna
Apaga
Ay
Ber@@
Buen
Existen
Fortunately
Hablar
King
Laurie
Lord
Mantén
Pen@@
Perdió
Quiénes
Speaking
Trabaja
Turkey
Ver@@
a.m.
acostumbr@@
actividad
actividades
adamente
adicto
advanced
agradec@@
agradezco
amante
anc@@
antiguos
ape@@
arrival
arían
atractiva
bala
balls
ber
besar
bienvenido
bitch
blanket
bonitos
butterfly
caluroso
calvo
carrying
cat@@
caída
cep@@
cial
cidas
cionado
circunstancias
ciudadanos
clu@@
comercial
congel@@
consist@@
contribu@@
crecimiento
cti@@
cy
dam@@
damente
demanda
deme
destroy
detenido
diseases
double
doubts
dí@@
economic
elos
enci@@
engañar
enseñarme
escalar
essay
famosos
ficción
fiestas
firmar
forbidden
forces
former
frecuentemente
fucking
function
gaste
gathered
gemelos
gimnasio
gira
gradu@@
grammar
grosero
gustaban
habitual
hagamos
hambriento
hammer
helicóptero
however
huyó
ilumin@@
imagined
incredible
influ@@
interrupt
interview
jeans
julio
kissing
lac@@
largos
leads
listens
llas
llenó
lucha
límites
mada
major
mam@@
mariposa
mark
matemática
mejilla
mosca
muchachos
muero
mum
murdered
mustn
médicos
mías
north
noti@@
ordenadores
outfit
painful
passion
perman@@
pianist
pianista
pidieron
pir@@
planets
podrían
policy
pones
pop
preocup@@
presa
promedio
pronunciar
pudieras
pues
queja
quitar
redu@@
resi@@
respond
robot
sabés
seconds
selfish
sencilla
señorita
shining
sincero
sixty
sorprende
soñar
spending
spider
supe
sw@@
tadas
temp@@
teníamos
tercer
terror
tese
threatened
tinto
toki
topic
tourists
trash
tries
udo
vago
van@@
vasos
velas
vendió
verse
vuestros
weighs
wheel
whoever
wooden
én
éndose
ónica
&apos;@@
.000
16
Acep@@
Afortunadamente
Aquella
Au@@
Bach
Bi@@
Bienvenidos
December
Dej@@
Eh
Enjoy
Four
Johnson
Laura
Like
Llé@@
March
Nowadays
Old
Perdona
Rio
Spring
Sweden
Te@@
Unión
Won
Year
ack
acostumbrada
adap@@
adelantado
aguantar
aid
album
alo@@
ano@@
aparece
apetito
apresur@@
apun@@
ars
atacó
ayudaría
border
bunch
cadena
carajo
career
carse
cast
chando
charla
ché
cierre
cigarro
code
comi@@
comprarle
comuni@@
confuse
conocieron
conscience
consequences
constitu@@
coser
cottage
creado
ct@@
damaged
darkness
dear
debí
definitivamente
demasiados
demonios
dibujo
documents
down@@
duermo
déjame
edificios
efectos
ei@@
emocionante
encontrarás
enjoying
entienden
ently
entradas
erla
erlos
escritura
essential
eternidad
evento
explor@@
fan@@
fork
fotografías
grades
gym
harás
hayan
haz
herramientas
hi
horario
hunting
ignorant
illas
impaciente
intended
invention
invitar
jado
landed
lavó
llora
luggage
lápices
mad@@
martillo
materia
mer
metas
modos
mojado
mos@@
mosquitos
muriendo
máximo
necesariamente
necessarily
nublado
ny
object
oc@@
organized
oxygen
panda
partidos
pasión
pepper
personally
pide
pintó
pipe
pockets
poison
pra@@
preparada
proces@@
prote@@
proteger@@
puestos
punishment
puro
puzzle
recibí
registr@@
represent@@
rest@@
revealed
revenge
rojos
rá
salga
salud@@
scarf
schools
segu@@
seguía
sentarse
senté
ships
sientas
slave
slight
solid
spilled
sufrir
tercera
thanked
thousands
tijeras
toast
tomar@@
tourist
trataba
tránsito
tter
twin
usualmente
victim
wanna
weekends
wer
witch
yó
0
99
Busca
Cambi@@
Déj@@
Envi@@
Escucha
Fi@@
Finnish
Gri@@
Haga
Haría
Julia
Justo
Kabyle
Llegamos
Nu@@
Pres@@
Ricardo
Right
Run
Stand
We@@
abandonada
abraz@@
aci@@
acondicionado
advirtió
afterwards
aguant@@
altas
ambulance
aparcar
aprend@@
aqu@@
arles
arruin@@
asientos
aula
authority
averigu@@
baked
beg
beside
bienvenida
bitter
bol@@
branch
bruja
bug
cab
cam@@
cancelar
cated
celebrate
cigarrillo
cios
comprando
computadoras
conejos
confir@@
constantemente
contexto
controlar
correspon@@
counts
cted
culpar
customs
def@@
defeated
dejaste
demand
demasiadas
derrota
desaparecido
desat@@
desearía
despedir@@
deuda
dieciocho
dislike
dizzy
dozen
earns
east
ecen
encontrarlo
encuentras
escu@@
escuché
especi@@
estanque
etas
fa
febrero
fewer
films
fits
flour
foreigner
franceses
fur@@
gigante
goose
greeted
habits
hebreo
hilo
honestidad
horno
hugged
hur@@
impor@@
impression
including
increíblemente
informed
insulto
interesada
interesantes
jugó
juntas
jó
laron
lastimó
laughs
leerlo
limited
longest
lí@@
mani@@
mass
mates
memori@@
mensajes
moscas
mostraré
máquinas
non@@
noviembre
ns
obtuvo
ocup@@
oigo
olvida
orgullosos
ovejas
pacientes
parking
part-time
pasos
pedazo
pens
pets
pierdas
pista
plates
plus
preciosa
prima
principles
protección
pulso
released
rented
rodeado
ros@@
salgas
saste
series
servi@@
sitios
snowed
sordo
soñando
structure
suceder
superficie
sábados
tara
tarte
taré
templo
therefore
throughout
tico
tiger
tigre
tirá
trates
trescientos
tristes
typical
ul@@
venganza
wn
wor@@
zaba
ármelo
éstos
únicos
000
60
Ac@@
Bruno
Busco
Cal@@
Cree
Cut
Cállate
Deberíais
Dor@@
Draw
Dé@@
Either
El@@
Great
Hacía
Hawái
Helen
Jiro
Ko@@
Long
Mac
Mas@@
Millie
Miss
Or@@
Pick
Pri@@
Queda
Segu@@
September
Son@@
T-shirt
abiertas
acero
ach
activo
agot@@
alist
alista
amarillas
ambulancia
americana
aparato
apology
appetite
aprobar
arrestado
astuto
atrapó
ayudando
baffled
bags
bailando
ballenas
barata
bishop
calent@@
camos
campos
celebr@@
cellphone
chor@@
cigarrillos
circle
circu@@
colectivo
collecting
communicate
comprendo
comúnmente
concepto
confess
construido
content
context
convenient
corona
crash
crashed
crecen
cular
depend
desastre
despertador
dirigió
drowning
eando
ejemplos
emo@@
enfer@@
engañado
eno@@
entenderlo
erás
esca@@
esconder
escuch@@
exact
exams
eó
flat@@
fon@@
frequently
ft
furioso
fáciles
gastado
genes
gir@@
harvest
heads
height
hockey
idiotas
ily
impresionado
imágenes
indispensable
iness
inocencia
intenciones
intérprete
issues
izquierdo
jugaba
keeping
logy
mac@@
machines
mandó
measure
measures
mejorando
mina
mobile
molest@@
molestes
mortal
mostrarte
mudó
muñecas
noventa
objects
objetivos
ocupa
odd
opinas
origin@@
ot
oven
owns
pack
packed
painter
paron
pasas
pavo
pencils
pesadilla
pesos
phones
pico
pimienta
pis@@
pizarra
portátil
preguntado
presentó
preten@@
progreso
propiedad
proved
puestas
puts
quejarse
quemó
quiénes
quí@@
ratas
ration
recha@@
regard
retired
retor@@
ricas
riding
saliera
salsa
salvajes
sar
seeds
seriamente
serie
siguiendo
sir
stared
suitable
suits
tabaco
tale
tardes
taxis
tem@@
temple
thi@@
tida
tiendo
tis
tismo
tomes
tosa
tower
tradujo
treatment
ture
um@@
unexpected
visité
volvería
vuelven
witness
work@@
worrying
ys
álbum
ético
2010
54
About
Actualmente
Ali@@
Am@@
Antonio
Ba@@
Bar@@
Chris
Date
Dem@@
Día
Entiendes
Esperaba
Han@@
Hang
Hicimos
Hong
Inter@@
Kar@@
Marie
Muéstrame
Obviamente
Park
Pregun@@
Sabés
Tim
Vosotras
Vámonos
Wednesday
Work
Yeah
ablemente
ably
abundant
accordion
acid
acknowledged
acordeón
acusó
adolescentes
adventure
affected
ais@@
ak@@
alemana
alemanes
allows
alquiler
altar
ard
asegur@@
asteis
autoridad
bat@@
bers
billion
bing
blin@@
brasileño
cambian
canal
capacidades
captured
cast@@
celebrated
champion
chances
cir
cked
closest
comete
commit
composition
compraron
comprarse
compraré
conclusion
confor@@
conozca
conscious
conseguido
considerar
contemp@@
corri@@
cortinas
costumbres
cristal
critical
cuales
currently
damas
defensa
delgado
demos
development
dibujar
disguised
distracted
diversión
divide
dle
dolls
drunken
dud@@
edge
effects
elas
ele@@
eng@@
engañó
entre@@
ered
escribo
espaldas
estaciones
estre@@
estudias
estúpidas
evidencia
ex
ez
fac@@
fairly
fifth
formal
fracasado
fumo
furious
gano
gastar
gida
got@@
greater
gustará
handwriting
haz@@
hazlo
headed
hood
hundió
hurried
hábitos
iPad
identifi@@
ignoró
impatient
inclinó
inclu@@
inf@@
introduced
inver@@
involucrado
joyas
lanzó
lata
leaned
les@@
llevarse
load
makeup
maneras
manten@@
matches
menores
mento
metido
minister
miércoles
médica
mí@@
nights
observando
odiaba
ok
olvid@@
overcome
oírte
parcial
permitió
pic@@
pides
piense
pintor
pit@@
plazo
ples
plátanos
ponerlo
potato
poured
practical
precioso
precious
predicted
principalmente
probó
prohi@@
protection
queráis
quietly
ram@@
raz@@
recipe
refu@@
retir@@
rode
romper@@
rush
salen
searched
seda
semáforo
sentimiento
servicios
sewing
shave
shouted
sour
spoon
ster@@
stica
stubborn
subido
supersti@@
tap
tarla
tasted
tax
temper
tends
tible
tiendas
tomará
tono
toothpaste
toro
track
tro
tuvieras
tó@@
unknown
vegetales
vehículo
vencido
veremos
violent
wal@@
wealthy
whale
wondering
worries
wounds
zar@@
ése
ísima
ón@@
19
Adiós
Alicia
Basque
Ben
Brian
Bro@@
CDs
Charles
Chopin
Compramos
Donald
Déjalo
Dígame
Einstein
Finally
Fred
Fuera
Gan@@
He@@
Humans
Janeiro
Little
Mag@@
Min@@
Modern
Muy
Necesita
Nor@@
Nuestras
Plan@@
Pásame
Steve
Though
Trat@@
U.S.
Usa
Ven@@
X
Yokohama
Young
abide
abra
abras
aconse@@
activities
adecuada
ading
advise
anteojos
apesta
aprendí
aros
arrepen@@
artículos
atentamente
atmosphere
atractivo
atrap@@
atravesó
atro@@
audi@@
bañera
bebés
blackboard
bling
borr@@
búsqueda
cabe@@
cadas
campana
castigo
cation
cazar
ceder
citizens
claim
cloudy
cocinera
command
communication
competencia
competi@@
competition
confes@@
confuso
consi@@
contain
conten@@
contestó
cooper@@
costará
criticism
cuantos
cuchara
células
decírselo
despise
diablos
dieciséis
digital
discutiendo
disgusting
distingu@@
distinta
divertida
dormida
duelen
duermen
emocionado
encouraged
ende@@
ender
enfadó
enme
entrenador
escándalo
esperamos
estatua
exceso
exist@@
existir
fairy
farmacia
felici@@
figured
fina
finds
fled
flu
focus
folded
fried
furry
galo
grado
growth
guen
hadas
happily
helpful
hermosos
holds
hormigas
huelga
huesos
incredibly
infeliz
ingleses
innocence
intereses
interests
investig@@
jac@@
jer@@
ji
joined
justi@@
lau@@
lea
lido
lip
llegara
loudly
lover
loving
lun@@
mandar
marks
maron
materials
mem@@
mezcla
mile
mul@@
nacido
narrow
nas
negative
neighbour
nieto
night@@
nube
obviously
owes
passing
pastor
picante
pienses
plátano
pounds
prefers
prendió
pretending
propor@@
provided
purple
quebrado
rama
reales
rehusó
replied
retras@@
roll
rough
ruins
rán
rí@@
sar@@
scale
sco@@
screamed
semillas
separate
septiembre
shine
sienten
sincere
ski
sorprend@@
spiders
statue
sted
sueco
sueles
suje@@
sujeto
sunset
suponía
swims
tel@@
tenedor
threat
thrown
thy
tivamente
tocaba
toman
tool
traditional
training
tratamiento
tristeza
tt@@
tumba
tures
uniforme
veas
vecina
vendedor
veneno
vigil@@
villa
virtud
vot@@
waiter
warn
zero
Ángeles
ámonos
áticos
ólogo
ór@@
Actually
Ambas
Ayud@@
Better
Britain
C.
Cant@@
Catholic
Che@@
Chess
Comi@@
Condu@@
Corrí
Cuba
Dec@@
Dijiste
Discu@@
Em@@
Encontr@@
Far@@
Forget
Generally
Gobierno
Hacer
ID
Jews
Jorge
Kong
Limpi@@
Mantente
Mari@@
Paulo
Perdone
Planeo
Pr@@
Queen
Really
Salió
Salí
Suena
Veamos
Venid
Wow
abolished
adu@@
agudo
alfil
almor@@
amor@@
antici@@
apli@@
apur@@
armed
arran@@
arreg@@
arreglar@@
arrogante
arru@@
atmósfera
avergon@@
avoided
ay
backs
ballena
basement
bitten
bled
boiling
bookstore
bowl
breathing
burnt
cables
cafetería
camp@@
carpet
casaron
casé
cells
cepillo
ceremony
cionó
cloth
comenzado
comprarme
concentrate
concept
conclusión
confesó
constant
consume
correctas
counting
crece
creciendo
cruzó
cting
cuestan
cumplido
damn
dañ@@
daños
declar@@
deleted
delivered
desconocido
descu@@
despedir
detec@@
deudas
developed
device
devolver
dez
diciembre
difun@@
disappoint
disaster
downstairs
dresses
eces
empiezan
encantado
enormous
enseñando
entorno
erías
escribir@@
established
ester@@
eternal
examples
explicarlo
fame
fer
files
financial
firme
follows
fran@@
fueran
funcionan
gación
generous
ght@@
giendo
gor@@
grafía
grand@@
greatly
gritando
half-@@
hearts
heavily
heridos
horizon
hurting
illusion
ils
impresionante
included
incorrecto
inferior
inge
ino@@
ky
laughter
lavadora
lets
libras
ligero
llamaron
llegan
llenos
llevaron
lobos
lá@@
manga
manual
marco
maíz
meetings
micro@@
milla
millions
minds
moder@@
mosquito
movi@@
nado
nail
natal
nave
ocu@@
offended
opera
operación
oportunidades
option
ordinary
organización
outstanding
paintings
paliza
papeles
pausa
perezoso
permit@@
pers
peón
plain
podían
policías
practi@@
preferida
preguntarte
prestar@@
prestó
produced
prof@@
program@@
property
pública
quizás
ramas
rapidly
recent
refle@@
regards
respetar
responde
revel@@
roca
rompe
ruinas
scratch
searching
sellos
selo
she@@
sheet
shocked
shown
silk
specific
stes
stomachache
strawberries
sue
surely
swam
swee@@
tables
tazas
terribly
thir@@
ticos
tirar
tomates
tortured
tram@@
transi@@
tuviste
tuyos
types
típico
ur
ures
ved
viaja
washes
waves
zco
14@@
15@@
20th
3.@@
Ali
Aprende
Asumo
Conocí
Correct
Cru@@
Darwin
Dinner
Edison
Entr@@
Eran
Escocia
Escri@@
Estudi@@
FBI
Guess
Hago
Harry
Health
Hiciste
Language
Levant@@
Llevaba
Llovió
Llueve
Luis
Lávate
Marco
Marina
Nagoya
Olvi@@
Pase
Pass
Pay
Pens@@
Pokémon
Prueba
Reading
Regres@@
S
Sent@@
Street
Sur
Suzuki
Tome
Trae
US
Until
Vuelvo
Yamada
Yoko
Zamenhof
abi@@
aclar@@
actúa
adoras
ahorrando
ahorros
alimentar
alizado
ansioso
apla@@
areas
arlas
arti@@
ato
audiencia
aventura
ayudaré
ayudé
balance
ball@@
bat
beneficios
biología
bisexual
black@@
blonde
bomberos
bow
cabe
caminaba
casarte
cent@@
chef
ciega
cimos
coach
coincidence
combustible
comenz@@
compare
computadores
confident
consta
continuó
contra@@
contratar
copi@@
corrected
coughing
crowded
crown
cuentos
cuero
customers
cuya
daste
decidieron
defender
dejan
delay
demostrar
deprimido
derro@@
diamantes
dir@@
distribu@@
divorcio
doctores
dollar
earon
economi@@
eighteen
elephants
eléctrico
embassy
emi@@
empecé
encontrarte
enfadar
enjoys
entendió
entienda
entren@@
esclavitud
escolar
estarán
extra@@
ez@@
fans
fastidi@@
fields
figura
fourth
framed
fritas
frog
gallo
generation
ghts
gol
haircut
handkerchief
hil@@
horizonte
idas
inado
incorrecta
infl@@
informado
inqui@@
jersey
jes
judíos
jugado
jumping
juz@@
ku
lada
lavado
lavando
lavo
leña
li
llamadas
llevarme
lls
loses
lujo
maid
maneja
mango
mariposas
mb@@
mejorado
mencionó
mero
mica
mico
monster
monstruo
mostrarme
motivos
murderer
naciones
necesites
nightmare
nowadays
ola
ology
ony
optimista
pajamas
ped@@
peleando
peligrosas
perdon@@
persuaded
pica
picking
plo@@
porqué
preguntar@@
prisionero
privada
progres@@
prometo
prácticamente
pudieron
pálido
pó
pó@@
quedarnos
quejando
quieto
quil@@
rad
rat
rebel@@
recibo
regardless
rejected
relatives
relaxed
repetir
rescue
revisar
robots
ruedas
sacerdote
sacrifice
sali@@
saludó
sana
savings
screaming
severe
sigo
skirts
slipped
slo@@
sm@@
smo@@
soledad
soli@@
solucionar
somewhat
spare
split
stays
sting
subiendo
sufre
suggestion
sugirió
sul@@
switch
sándwiches
target
textbook
ther
til
tile
timos
tively
tomaron
tools
trabajas
trade
travelling
travels
trá@@
typhoon
té@@
usuario
v
vecindario
venía
verb
virtue
vodka
volleyball
víctimas
windy
yield
yu@@
áticas
ír@@
ños
1.@@
65
Answer
August
Calm
Camin@@
Canadians
Cha@@
Continu@@
Depende
Enten@@
Entra
Estaremos
Explain
Goodbye
Happiness
Haven
Henry
Imagino
Intentó
Miller
Oliver
Ori@@
Poland
Quí@@
Reino
Rem@@
Sam@@
Several
Sil@@
Sleep
Soon
University
War@@
Whether
X@@
abrazo
absor@@
act@@
adolescente
agrees
ahor@@
aimed
aldea
aliment@@
alimento
alizar
although
ambu@@
ancho
answering
aos
apparently
arrow
ash
assistant
ast
attempted
attracted
auténtico
ayudes
babies
back@@
bark
barri@@
beben
bebidas
bolsillos
bore
borrar
bothering
bullet
camina
camisas
captur@@
carbón
cargar
castigado
ceremonia
cheerful
cieron
ciervo
cogido
collected
coloni@@
comer@@
comieron
comport@@
concentr@@
condujo
conspi@@
consultar
crecer
creí
crítica
ct
cuidadosamente
curar
customer
código
dados
defense
described
detalle
dici@@
discovery
disfruta
distant
distinto
dolores
dominar
dreamt
duck
durar
eb@@
ech@@
educated
elderly
eligió
embarrassing
enfrente
entar
entregar
escuelas
esfor@@
españoles
especiales
especies
estantería
estemos
ests
evolución
ex-@@
excusas
expenses
faltan
farmer
fascinante
fellow
fica
ficación
forehead
forgetful
frutos
funcionó
gam@@
gamos
garon
gases
global
guest
hall@@
holandés
honesta
hueso
iling
imaginé
ingeniero
injusto
insisted
interpreter
irlo
italiana
judío
jungle
ketchup
lad
lament@@
laundry
lej@@
letting
leyenda
limits
lions
listas
llames
llegando
lloraba
loan
líquido
malentendido
mankind
manners
mantenerse
marzo
mataste
mers
methods
mezcl@@
mic
misses
mot@@
mud
máscara
nutri@@
obli@@
obsessed
occupied
officer
olla
opens
organiz@@
oírlo
parecían
patinar
peanuts
pear
pedazos
performance
petición
phi@@
planea
pollution
pondré
ponerle
positivo
postura
prayed
previous
previsto
principales
print
prisoners
pulse
quedará
regarded
regularmente
rendi@@
renunci@@
rescued
resist
respeta
reun@@
revolución
rollo
rotten
rías
sabios
scientists
section
seria
setenta
shing
shout
siblings
sigues
siguieron
sivo
sixteen
slapped
smoked
sonríe
sou@@
stado
stamp
suficientes
sustitu@@
suyos
taban
tapa
tape
tasa
tasty
tera
terminé
thieves
timbre
tirlo
toler@@
traicion@@
turas
unemployed
vali@@
vegetarian
vehículos
verbo
vestida
victims
vin@@
visitors
vital
voluntario
vueltas
wed
whistle
wolves
ándote
átomos
10@@
195@@
21
26
35
80
AI
Anything
Apuesto
Baj@@
Baja
Cas@@
Clean
Conoce
Deben
Deje
Enséñame
Escribí
Fin@@
Fish
Gabriel
Holmes
Hon@@
Je@@
Llevamos
Llevas
Magdalena
Mathematics
Men@@
Mondays
Narita
Netherlands
Newton
Nuevo
Nuja
Obama
P
Pol@@
Quítate
Ren@@
Romans
Segunda
Siéntate
Tómate
Unido
Venus
Vietnam
Viven
Wikipedia
Zealand
Zelanda
a-@@
abstract
abu@@
ac
accommodate
aceler@@
aceptado
acked
addicted
agosto
agrad@@
agreg@@
alu@@
anime
announced
anti-@@
applied
appropriate
archi@@
arries@@
arrojó
ashed
asustó
atas
atheist
ative
atra@@
atu@@
aumentando
bee
berries
biology
bli@@
brilla
bufanda
cand@@
cans@@
careless
casillas
caste
chemistry
cher
cherry
ciertas
ciona
clar@@
claridad
climbing
colon@@
comemos
comprend@@
comía
consegu@@
constante
contrary
conté
creature
crecido
creerlo
crudo
cumple
curtains
cálido
cí@@
debts
defini@@
dejaría
delicate
delito
derram@@
descri@@
desierta
desig@@
destiny
determined
dev@@
diccionarios
differently
disculpa
donkey
dora
económico
ego
ejecu@@
encontraba
enda
entregó
equipos
ern@@
erta
escap@@
esclavo
esclavos
estaremos
estricto
eto
events
evolu@@
excepción
exit
exterior
extrañ@@
fastest
fiction
fiel
fights
finales
fingir
flood
foot@@
forecast
formulario
fren@@
gata
generación
gentle
gio
gli@@
gota
gradually
grandson
grasa
griega
grifo
grows
happier
harmful
holes
huellas
huir
idiots
imp@@
independencia
industry
instrumento
jury
kick
knight
labor
ladra
lawn
limit
liquid
lity
llámame
log@@
logr@@
límite
magia
mamíferos
mezquita
mientas
misunderstanding
modest
molestar
má@@
negar
nerviosa
neuro@@
novelist
numerous
occasion
occur
ocupar
ología
pant@@
pasarme
pawn
pays
penalty
perdimos
permanente
pida
pilas
plane@@
planeado
poker
poorly
popcorn
praying
predict
preocupados
pressed
primeras
protest@@
pá@@
quarrel
quejarte
quinto
quisi@@
quizá
rana
random
recovered
reflection
regrese
relojes
remembers
rep@@
representa
reservar
restri@@
revolution
reírse
ries
risks
rivers
robando
ríos
salty
sci@@
seated
sección
separado
señales
shade
sheets
shes
shu@@
simpático
smiles
stock
stress
stro@@
stupidity
suffers
sufrimiento
suicidarse
t-@@
tamente
three-@@
tifón
titu@@
toes
tomatoes
truco
twisted
two-@@
términos
unidad
usas
valla
vapor
views
vio@@
voces
volviera
vor@@
vía
vó
youngest
Últimamente
ín@@
10,000
150
70
Abandon@@
Acab@@
Adivina
Apo@@
Apparently
Asumí
Atenas
Bang
Cer@@
Computers
Confío
Consi@@
Czech
Dentro
Deseo
Dormí
Espere
Existe
Falta
Feli@@
Forgive
Green
Hablando
Hor@@
Ir@@
Irán
Jewish
Jugamos
Leer
Mad@@
Miré
Mozart
Mucho
Pag@@
Parents
Playing
Pá@@
Qued@@
Rec@@
Roberto
Roman
Science
Second
Siga
Sigues
Sir
Soviet
Study
Summer
Sí@@
Texas
Too
True
Tur@@
Ve@@
Viaj@@
Western
Wilson
aborto
abrazó
aca@@
acas
acknowledge
acostado
acostar
actos
actualmente
adonde
adoptar
advi@@
afi@@
afilado
alcance
alérgica
amamos
amenaz@@
annoyed
apaga
app
apr@@
apri@@
aprob@@
aprovechar
apuesto
apuntó
aquél
argued
arrastr@@
aspirin
asu@@
ata@@
ath
atrapar
atrasado
automobile
avan@@
aver@@
avis@@
ayudan
añadi@@
bakery
beef
besides
bicicletas
blamed
bone
book@@
broom
bull
burden
cachorro
caciones
camarero
candidate
candidato
caza
celebra
centre
cercanos
charlar
chief
chocó
cina
cirugía
cle@@
cof@@
colder
color@@
companies
complejo
completed
compone
conser@@
consigue
console
contac@@
contarle
convertirme
convierte
coro
coronavirus
coun@@
countryside
creatures
crecí
cristiano
crí@@
cuantas
cuentes
cuerpos
culpar@@
cámaras
dated
deceived
decidí
decor@@
defec@@
degree
demand@@
demostr@@
deprisa
descubrimiento
design
desmay@@
dictionaries
dida
discover
distintos
distract
downtown
earned
echa
echar@@
elements
emotions
enamorados
encantaba
ene
enseñanza
enterrado
enviado
equally
estable@@
estacionar
estante
estufa
eti@@
eu@@
europeos
evol@@
excuses
extr@@
fainted
falsas
fantastic
flecha
flir@@
fruto
fuel
furi@@
gallinas
gging
giró
graci@@
gravedad
griegos
groups
grupos
habitantes
happiest
herir
hospe@@
humil@@
igas
inclin@@
increased
increasing
indeed
independence
industria
ingredientes
inju@@
insulted
intentions
j
ji@@
keen
kin@@
knives
lando
lea@@
leas
leather
leen
length
ligera
limit@@
liter@@
llamamos
llamarte
llegarás
llegas
llevaban
llo@@
logic
lío
macho
manner
maquillaje
mascotas
med@@
medias
medicamentos
medidas
mejor@@
memorizar
miraron
miré
mixture
mosque
motion
nave@@
navegar
necesite
necessity
neutr@@
niega
norma
normally
novelista
obede@@
objective
olas
ordeñar
organization
owl
pasaje
pata
patria
pedo
peores
perform
perra
pesadillas
piña
poderoso
preguntando
pronunci@@
pronuncia
pronunciation
proposed
provocó
pró@@
pudiste
pupils
pus
quejó
rar@@
rastro
recogió
reempla@@
repeated
restaurants
restless
reírme
rito
rocks
rol
root
rás
sabia
sail
scandal
sec@@
seguramente
sentamos
sentaron
shaking
shar@@
shor@@
shortly
sist@@
smokes
sobrino
sonando
sow
sque@@
stable
stadium
stake
stinks
stó
suel@@
suelto
sumo
syn@@
talkative
teenager
temen
temer
temor
terminará
terremotos
tests
tetera
theirs
thread
tica
tin
tism
tolerate
tonterías
trampas
triunfar
trivial
tropas
troubles
trozos
ty-@@
tón
unhealthy
uniform
ure
uro
vac@@
variedad
veloz
viajó
videojuegos
vir@@
visitas
visits
vocabulario
voló
vuela
whi@@
zación
zcan
12@@
ADN
Abr@@
Acaba
Ap@@
Arabia
Athens
Ayú@@
Añ@@
B.
Bebe
Bebo
Beijing
Bor@@
Bur@@
Bush
Busqué
Cap@@
Cataluña
Chi@@
Constru@@
Corán
Den@@
Enseñ@@
Estuvimos
Explí@@
Extraño
Fill
Five
Florida
Germans
Grab
Human
Juguemos
Keiko
Kennedy
Kids
Mac@@
Moscow
Moscú
Okay
Paula
Pedí
Permítame
Podríamos
Polonia
Prome@@
Push
Raise
Rom@@
Río
Scott
Sen@@
Teníamos
Termin@@
Tomamos
Tre@@
Tro@@
Vir@@
Vives
Volvió
Walk
Wherever
abdu@@
aboli@@
acks
acompañó
acostumbrados
acrobat
acróbata
adivin@@
ads
affect
aficionado
aged
agente
aju@@
alización
ams
aplica
approached
aprobado
ardillas
argumento
arreglarlo
artificiales
ash@@
asist@@
asistencia
atasco
ateo
ativo
attract
awkward
ax@@
ays
azar
aña
backpack
baggage
bajando
bal
barca
basa
batteries
beating
beats
beginners
behaviour
boasts
boil
boiled
bombero
break@@
brilliant
brin@@
bringing
británicos
buscas
buscó
buys
cadáver
calcular
cambiando
caminó
carnet
casco
causar
celebrar
chased
cheat
chew
chir@@
cidad
cionar
cious
civilización
cles
cobr@@
coincidencia
collapsed
comenzaron
comercio
complaints
conceited
conci@@
conduct
conocidos
conta@@
contar@@
contaré
contest@@
contrat@@
contribute
controversial
coordin@@
cries
cristianos
cucarachas
cuchillos
cursos
cuts
cycle
darnos
dealing
declared
dejarlo
depri@@
describir
devolver@@
dig@@
dining
direc@@
direct
directly
disa@@
diseño
disminu@@
disparo
divorci@@
docena
dol@@
dominio
dormidos
dude
dupli@@
duras
dy@@
eager
earthquakes
eches
eclipse
edades
ef@@
ego@@
eleg@@
emociones
emotional
enamor@@
encuentre
enos
enseñaré
enterr@@
esperes
esperábamos
estr@@
estuvieras
euskera
evolution
exitoso
explicar@@
extin@@
faithful
falle@@
favour
fijamente
financi@@
flows
fracasó
fresas
fru@@
fríos
fum@@
físico
gase
gender
gin@@
gloria
glu@@
golden
goma
graves
guarda
hats
homosexual
identidad
ids
impact
impacto
incen@@
industrial
infinite
insecto
interrupted
inusual
ises
ished
islam
jamón
jewelry
jogging
juegues
knock
lares
learns
lema
lightning
llevamos
lob@@
luchando
maletas
marcado
mere
mermelada
mineral
minor
modifi@@
mon
motiv@@
mps
multa
murciélagos
métodos
nacionalidad
necklace
neg@@
neighbours
ner@@
niveles
ots
pac@@
paraíso
passage
pato
pedi@@
pedir@@
peeling
pensarlo
peras
peri@@
periodo
philosopher
pho@@
pilló
pinos
podremos
pos
postal
preguntes
preocupación
preocuparte
prestas
pretendía
prevenir
principiantes
probarlo
programas
prometido
proper
protec@@
protected
quebr@@
querrías
químico
recto
recuerdas
regu@@
remarks
reminded
replaced
resolvió
respiración
revolu@@
rugby
rumores
rusa
récord
ró
sabrá
sacrifi@@
salesman
salgo
sand@@
sanguíneo
sank
sation
satisfechos
scenery
screw
sencillamente
sentarte
sentirse
ses@@
settled
siga
signs
sirven
sits
soleado
solving
solían
some@@
southern
spade
spy
squares
stabbed
stal@@
steps
strictly
struggle
sucedido
sugerencia
supieras
supplies
supported
swe@@
tarjetas
telefónica
test@@
thankful
tho@@
thri@@
tick@@
tocado
tore
tour
tran@@
trips
tune
turista
tw@@
tímida
unreliable
users
utili@@
vag@@
vel
visitarme
voices
vuestras
vy
warning
we@@
wiped
wives
,000
400
Air
Alcan@@
Algerian
Amar
Bail@@
Between
Bra@@
Break
Christ
Compraste
Desper@@
Devuélveme
Due
Elizabeth
Empieza
Escriba
Estará
Food
Free
Gra@@
Hablemos
Hazme
Hell
Holy
Iba
Is@@
Jupiter
Júpiter
Ke@@
Lea
Levanta
Moon
Mé@@
N
Over
Pacific
Papa
Pla@@
Pocos
Ponga
Rosa
Sab@@
Saca
Someday
Swiss
São
Throw
Tri@@
Tu@@
USA
Vendré
Vienes
Way
Wood
Yours
abrí
absolute
aburri@@
acaban
accidentally
accumulated
acompañado
acordar
adapt
addition
administr@@
aguar@@
ais
ak
aled
alfab@@
alismo
alize
ancia
angle
arco
arguments
arquitectura
arrives
arrodill@@
arruinó
assure
atraves@@
aument@@
aven@@
aviso
awesome
ayudarlo
backyard
bajas
bajos
balde
bathtub
besado
betray
billetes
bless
bloque@@
bodies
bom@@
borrachos
brand
británico
burns
burro
buzón
calcul@@
cameras
cana
cancelado
cazador
celos
cera
cesta
chalk
cheeks
chores
ciales
civil
cliff
closely
clue
coast
coleccionar
comic
compuesto
conclu@@
conocer@@
conociste
conseguiste
contando
contarte
contenido
copies
cortado
creemos
cruce
crush
ctive
cuernos
cumplió
cómplice
dan@@
deca@@
decent
declaró
decre@@
dedicó
dejarte
dejen
demonio
desagradable
desarroll@@
descans@@
descripción
description
dese@@
designed
despedida
diosa
directions
disagree
disculparme
divirtiendo
dormía
droga
dí
echarle
eco@@
económica
elementos
elo@@
ema@@
ences
encias
ency
enlace
enseñado
entré
envenen@@
eren
ering
erto
escoba
esperan
esperaré
esses
estadio
estudian
etos
evidente
examined
exercises
experiences
experiencias
expertos
exploded
explotó
extendió
extrañar
extreme
faults
fel@@
ff@@
forgiven
freezing
funcion@@
funcionará
gados
galaxia
ganando
garse
gation
glory
gobern@@
grama
grito
gum
hablarle
hacían
hardest
harta
heater
hero@@
hirviendo
hombros
homicidio
honesty
há@@
húmedo
incendios
include
ingredients
inmigrantes
insect
instruments
intense
interrumpi@@
inundación
inva@@
investigation
involucr@@
islas
jubil@@
jugamos
knees
ku@@
lana
land@@
lands
le-@@
lenta
lin
lio
llevara
llovido
llovió
logros
ly@@
madura
mammals
manta
mareado
matarme
matic
melodía
meta@@
military
millonario
misleading
misled
mojada
mona
movement
muchachas
muer@@
nar@@
nephew
nest
nica
nido
nodded
nombr@@
non-@@
oblig@@
ocasion@@
ofrece
onions
oreja
outdoors
paisaje
panadería
paral@@
parec@@
pasaste
passionate
pasteles
patients
payaso
pedimos
pegado
pequeñ@@
perdida
perdonar
perfec@@
permanece
permaneció
person@@
perten@@
pharmacy
photograph
piratas
podías
poisonous
pose@@
postponed
practicing
praise
precipit@@
preferiría
preocuparme
preso
prest@@
prestarme
primi@@
principiante
prisioneros
produjo
promoted
pronunciación
pronóstico
préstamo
pusimos
pánico
quita
rabia
rado
rats
rayos
receiving
reconoce
redacción
regañ@@
regi@@
regretted
reliable
relieved
remarkable
remote
repentinamente
reporte
rer
resemblance
resort
respected
respetan
reunió
romance
rompi@@
romántico
rse
rubio
ruled
sentar
services
sever@@
sexy
shooting
sickness
signal
signo
siguientes
skill
skills
slower
smallest
snows
sobrevivió
sorrow
spirits
splendid
staste
stores
stos
stru@@
suavemente
suceda
sudor
sweating
swimmer
sábanas
tad
taxista
teams
thirty-@@
thunder
tiera
tionary
tives
toco
tortuga
tradición
traducido
traicionó
trataron
troops
tumbado
técnica
underestimate
uniforms
variety
vaste
vegetable
vendido
verdaderos
verlos
virtu@@
vió
volver@@
vuelvo
vulnerable
wakes
ward
wasted
well-known
whichever
wil@@
wo@@
zapato
zes
zone
zu@@
Éramos
árbitro
ído
ónico
últimas
000@@
199@@
95
Acepto
African
Always
Aprend@@
Beth
Christians
Cocin@@
Doing
Doy
EE.UU.
Empecemos
Entré
Esperé
Estado
Estudia
Finland
Ford
Fran@@
Frankly
Galileo
Generalmente
Had
Hand
Hope
Hungría
Irish
Isaac
Jessie
Juego
Ka@@
Ku@@
Lar@@
Llen@@
Magnus
Mexican
Minister
Muiriel
Nepo
Obviously
Olga
Pacífico
Prices
Prime
Prometo
Ra@@
Ram@@
Real
Rob@@
Sally
Sandra
Shi@@
Sho@@
Soñé
Stick
Students
Talk
Tam@@
Tenías
Titanic
Toco
Tomas
Tó@@
Val@@
Varsovia
Very
Visi@@
Vivir
Vo@@
Wal@@
Wang
Warsaw
Words
abismo
absurda
abused
abyss
acceder
acceptable
aced
acepta
aceptable
acné
acostarme
acostumbrarse
acuerda
adera
admite
afecta
affairs
afir@@
aggressive
agit@@
agri@@
alcan@@
amantes
amazed
andaba
anes
ankle
antly
anía
aplicación
application
apropiado
aprove@@
architecture
artistas
aréis
aspectos
asqueroso
atento
aterrizó
atravesar
atre@@
atreves
au
aun
autobuses
ayudarles
ayudaros
ayudas
ayúdame
bebí
benefits
bigote
bio
boards
bolígrafos
bowed
bride
bá@@
caballeros
calculate
campaña
campeón
camping
capaci@@
carbono
cared
cations
cción
celosa
chocolates
civilization
cky
cleared
click
closes
coal
colega
colegas
comedi@@
communi@@
complicada
compositor
compraría
compre
comunes
confíes
connection
conocimientos
conserv@@
contador
contagious
contributed
controver@@
conveniente
cooks
corrup@@
corté
cortés
counter@@
crack
criado
criaturas
crimes
criticize
crops
curiosity
curtain
cuáles
cálida
dal
dale
darán
dedor
dejarme
delayed
dele@@
delete
delighted
desear
desesper@@
destruir
develop
diamante
diecisiete
dinosaurios
direcciones
disculp@@
disi@@
distin@@
distintas
disturb
dito
dores
dried
driven
elabor@@
ele
elle
embar@@
enamoré
encontrarme
encuentres
enfermos
enseñé
equivoco
erles
escuchaste
esencial
espi@@
esquí
estim@@
estu@@
eterna
examin@@
examine
ff
fiar
firmó
fortunate
frías
fu
fuentes
girar
gram@@
grammatical
gras@@
gua
guarantee
guards
guerras
harían
haunted
heating
herramienta
hicieran
hip@@
hola
huelen
identify
igh
imitate
immigrants
improvi@@
impul@@
inexplicable
infinito
infor@@
inform@@
instantly
intenté
intercambio
interesan
introdu@@
invención
invest@@
investigar
invitaron
inó
italianos
jam@@
jefa
jewels
juegas
kanji
ken
kin
knocking
ladrando
legend
leía
lingüística
loaded
madrugada
mainly
mandé
medication
mejillas
meter@@
mutual
nace
nate
necesaria
necesidades
net
new@@
ney
nieva
nightmares
niñez
obligación
obsequio
onda
ong
opposed
optimistic
ordenar
orquesta
ote
outcome
ow@@
oye
paci@@
palacio
pare@@
parejas
particularly
partner
pañ@@
peaceful
pecado
pee
pelos
percep@@
permit
personaje
persons
pills
pineapple
pintado
pirate
pisos
plac@@
plumas
políticas
porte
ports
posibilidades
posiciones
postu@@
privacy
produces
prohíbe
prolon@@
promotion
pronounced
propaganda
punctual
purchase
pé@@
quema
quinientos
rain@@
raincoat
ranas
rayo
razon@@
raíz
recuperó
refer@@
referee
refres@@
relative
reports
reptiles
reserve
reserved
resfri@@
respects
rever@@
richer
riesgos
rifle
rises
rogó
romanos
rook
rumbo
rusos
rían
sacrificio
safely
saldrá
salimos
salo
saludos
salía
scar@@
school@@
scre@@
seasons
secuestr@@
secó
selec@@
serlo
servir
setting
shark
sir@@
sis
skating
slaves
snack
snow@@
solitario
speechless
spicy
spl@@
steak
sten
sticos
stics
stor@@
sufrió
suitcases
sunlight
sup@@
suspected
sweep
sy@@
symptoms
sí@@
tain
tango
tations
temos
tensión
terrified
territory
testigos
tiburón
tical
tiles
tirado
tirte
tobillo
tomarme
tomarte
tontos
tost@@
tradicional
traducida
transfor@@
transporte
treats
treaty
tricks
trop@@
trunk
ttering
tting
tunnel
término
túnel
unfortunately
vate
vation
vec@@
vendrán
vengo
veros
vers
verá
veterinario
violento
vision
voleibol
volvieron
water@@
wer@@
worm
zanja
zy
É@@
ác@@
ática
úa
Above
Alberto
All@@
Anda
Anti@@
Apa@@
Aquellos
Aun
Bebí
Belgium
Bri@@
Bélgica
Carol
Celsius
Cen@@
Charlie
Ciudad
Coffee
Comer
Comparto
Compra
Consider@@
Diez
Dí@@
Easter
Enciende
Encontramos
Entró
Finlandia
Fo@@
Fre@@
Ger@@
Hac@@
Heaven
Ian
Iran
Iremos
Jill
Juega
Llamé
Monte
Pé@@
Roger
Saturdays
Sencillamente
Sign
Silence
Str@@
Tan@@
Temo
Terminé
Tim@@
Tomó
Universidad
Uruguay
abunda
abundan
acabar@@
aceptaría
acerques
ade
adequate
adero
agr@@
agradecerte
alcoholic
algodón
alibi
aliviado
alright
alternative
amables
aman@@
ancestors
andas
ands
ang
ange@@
animó
anot@@
anticu@@
apagado
apoyó
approach
approaching
aprendi@@
architect
arr@@
arrancó
aseguro
aspirina
atar
atas@@
ately
atoms
atribu@@
attic
aya
ayudarla
añas
balcony
banged
barefoot
barra
belief
bellas
ben
benefit
bia
bin@@
bites
blouse
blowing
borders
bos
bosques
box@@
brakes
bun@@
cabras
calendario
camel
camp
cancel@@
cans
capacity
captura
capture
castaño
catches
catorce
cciones
cementerio
cent
cents
centímetros
chain
chen
cheques
cism
clients
closing
cockroaches
coge
coleccion@@
colored
comerse
commonly
compasión
composer
composición
comprende
comprensión
concentrarme
conexión
confirm
conflict
conociera
consult
continuación
contradic@@
contrató
contribuir
cortina
cortos
costo
cour@@
credi@@
cristiana
crushed
cría
críticas
crítico
cuer@@
cueste
cuidó
culturas
cum@@
cén@@
dad@@
dada
day@@
decides
decl@@
decorated
dedicate
delfines
demands
dence
dería
desa@@
desired
desprecio
dete
devolvió
devoted
diagnosed
digging
discount
document@@
doloroso
dolía
dragon
dul@@
dwarf
eagle
eh
enca@@
encant@@
enfada
engor@@
enojar
enojó
ented
entres
epi@@
equipment
equivocados
erán
escala
escasez
escriba
escriben
española
esposas
esqu@@
esqui@@
estampillas
estúpidos
exacta
exhausto
expan@@
expressed
fantástico
fati@@
favorable
favoritos
feeding
fem@@
feria
fica@@
flames
fli@@
fluido
fluye
fuegos
functions
galaxy
generoso
gh
globo
grandpa
gravemente
grief
grites
guardó
guns
heart@@
heels
higos
hobbies
human@@
identical
identity
ignorar
igu@@
imbécil
impedir
imper@@
imperi@@
importaba
impressive
improving
imán
incapable
includes
incurable
insist@@
insistió
instrument
instrumentos
int
intentes
interrupting
investigando
investigating
ise
istas
ites
jarra
jerk
jungla
jurado
kidnapped
kingdom
kne@@
laboratorio
lastimar
lemos
leones
lighter
limpiando
lindos
lleguemos
llevando
llevé
loser
lyrics
madres
maestros
magn@@
manipul@@
marineros
marked
mataron
matarán
materiales
medal
medalla
mediante
mentirosa
mez@@
millionaire
minimum
miras
mix
molecule
molécula
monar@@
mordido
mosquitoes
muerde
mus@@
mysterious
nal
narices
nationality
navidad
notó
nut
odias
ofen@@
olvidar@@
ope
orado
orphan
pains
palomas
parientes
parrot
pasara
pasaría
patr@@
pensás
perderás
perdiste
perfor@@
perhaps
pijama
pint@@
ple
plena
poisoned
pondrá
praised
precisión
predecir
premi@@
prend@@
prensa
preparados
presté
prey
printed
producen
profit
propina
prove@@
práctico
pueblos
pulling
pár@@
quen
quieran
rac@@
racist
rap@@
reac@@
read@@
red@@
redonda
reino
renta
replace
resaca
resca@@
respondido
rested
reward
richest
rodillas
romp@@
rows
ruego
sado
satis@@
saxophone
scri@@
seg@@
seguir@@
semi@@
sentimos
seventeen
seventy
shoulders
sible
sim@@
sincera
sinking
sins
sistemas
sito
skinny
sla@@
sobra
soñado
spoiled
statement
stew
stink
stre@@
strongest
strongly
sucios
sumamente
sumer@@
supi@@
síntomas
tab@@
taremos
teenth
telefon@@
terriblemente
terribles
terrific
tería
tics
tidy
tiría
tiste
tly
tocar@@
tomaré
tome
torneo
tortugas
touching
tournament
trabajamos
trousers
ttered
turkey
ud
usu@@
utilidad
utiliz@@
val
valle
vals
vendiendo
vering
vet
vice
vocabulary
volunteer
volverás
vuelan
vul@@
vulgar
warmer
whisky
winner
ye@@
yed
yell
zadas
zz@@
zón
águila
áneo
ánimo
árselo
éstas
190@@
198@@
1990
36
88
A.
Abor@@
Alguno
Alí
Angeles
Apla@@
Bel@@
Bil@@
Br@@
Cab@@
Cinco
Comimos
Corre
Corri@@
Dejá
Descan@@
Disney
Don@@
Duerme
Eiffel
Emi
Empe@@
Eras
Estar
Eu@@
Evi@@
Gar@@
Gol@@
Greeks
Guár@@
Hamlet
Hanako
Hicieron
Hilton
Hiroshima
Horses
Hotel
Iglesia
Ignor@@
Intelligence
Jerry
Jimmy
Juli@@
Kan@@
Kaz@@
Kim
Lech
Levántate
Linux
Live
Llamaré
Lojban
Manten@@
Marilyn
Mer@@
Miles
Milky
Mind
Mir@@
Mona
Mur@@
Naoko
Noel
Ocean
Ocurrió
Ohio
Padre
Paper
Pin@@
Pope
Quit
Rara
Rol@@
Sachiko
Sato
Sch@@
Scientists
Seguramente
Sha@@
Soccer
Sta@@
State
Sy@@
Taiwan
Tarde
Tears
Ter@@
Teresa
Toyota
Truth
Trá@@
UFO
V
Venezuela
Wo@@
Yemen
abeja
abriendo
aburre
acab@@
accountant
acusaron
addict
admit@@
affair
afil@@
agent
agradecimiento
agradeció
agregar
aked
alcanzado
alejado
alistas
alized
alling
almorzando
alojamiento
alzó
ame@@
amusing
aniversario
anniversary
antibióticos
approximately
archivos
ards
argumentos
aristo@@
arm@@
arque@@
ased
asignatura
asombroso
astronaut
astronauta
atender
ater@@
atomic
atorio
atory
atrapados
atras@@
att@@
attorney
aventuras
ayú@@
bailarín
baking
balón
barks
bathing
bebas
bios
blocked
blog
bloom
blown
boo@@
bos@@
bothers
branches
brushing
budge
bum
calculator
callar
callar@@
camello
candles
cantaba
caracteres
carbon
cardio@@
carece
catching
cating
cattle
causing
caí
cebollas
centimeters
chan
checking
chimenea
chup@@
chy
cimiento
clavo
clown
clí@@
coartada
cog@@
cole
colle@@
combin@@
comedor
comerme
comimos
compro
comunista
concep@@
conseguí
consideraba
consideración
consol@@
construida
construyendo
contin@@
continente
convencerle
cookie
cop@@
corazones
cord
cotton
creencia
cruzando
ctions
ctiva
cts
cuar@@
cuisine
culpo
cultiv@@
curioso
cutting
cuán
cía
cólera
deber@@
dece@@
decente
dela
descuidado
deserved
desmayó
desocupado
despi@@
dest
detailed
dian
diariamente
diarios
dict@@
dif@@
diferencias
disap@@
disappear
disculpó
disparar
dity
divertirse
dragón
dull
durará
dyed
dólar
earrings
echa@@
echaré
ecu@@
efficient
ega
eighty
ejercicios
electro@@
elegante
eliminar
emborra@@
ements
empez@@
emple@@
empresas
encourage
ensa@@
enseño
enthusiastic
envidi@@
equi@@
equivocas
erase
ere@@
escribiré
escuchas
espantoso
esperé
espía
estaf@@
estarías
estrecho
estro
etc
ette
exager@@
exception
explica
extrover@@
faced
facing
faint
familiares
fascinated
fav@@
fears
filósofo
finishing
flojo
forests
fortaleza
frenos
fries
frijoles
fucked
fuga
funcionando
gall@@
garaje
gemelo
gidos
glance
goats
good-looking
grace
graduate
granjero
grey
gross
guilt
gun@@
gustos
gón
hablemos
hal@@
hambrientos
hamburguesas
heavier
heladera
helados
hered@@
herman@@
hicieras
hier@@
hollow
honeymoon
host
humble
hunter
ingres@@
inici@@
inscri@@
intrig@@
ishing
jala
jet
jirafas
jur@@
kilograms
ladies
lan
learnt
lec@@
lees
levels
lid
lig@@
liking
limpias
llando
lling
lucía
luxury
manchas
mangas
marcó
mari@@
marrones
masturb@@
matando
mature
memorize
mencion@@
merely
merezco
mild
mischievous
modernos
molestia
monkeys
mou@@
movió
mula
musulmán
nacieron
nativa
needn
nickname
nico
nine@@
ninety
nueces
o-@@
oboe
ocasiones
ocurrirá
oficiales
operate
opposition
orbit
orchestra
ore@@
ori
oscuras
owed
oy@@
pace
palace
paranoid
pare
peculiar
pensamos
peones
perdonado
permanent
permitted
perrito
phoned
phrases
pidas
pierda
pisó
pizzas
plomo
poder@@
pose
posponer
possibly
potencia
pound
pper
predi@@
presentar
prestando
producir
promising
protagon@@
proto@@
quilla
rage
rainbow
rame
rap
reacción
rechazar
recibir@@
recoger@@
recomendó
recommended
recorded
recu@@
relaj@@
relajado
remor@@
reno@@
repugnante
resigned
resist@@
restaurantes
resting
ria
rings
roble
rode@@
rolled
rompecabezas
rompí
rs
rumors
saca
saco
sagrado
sailors
sartén
sat@@
sate
seas@@
sequía
serves
sexuales
shares
shelter
siglos
significant
signos
sillón
similares
sinceridad
sitos
skip
sl@@
slavery
sleeve
slightly
sneeze
soltó
sopló
sorprendente
sorprendida
sosten@@
soñ@@
stored
suicidio
superficial
surrender
sustancia
swollen
systems
só
tails
talentoso
tante
tardará
tarnos
teando
teapot
tej@@
telephoned
temporary
tendrán
tequila
terminan
termine
tern@@
territorio
testi@@
theft
thesis
thro@@
ticas
tierras
tilla
tillas
tiré
tis@@
tons
tors
tortur@@
traduce
trans
trasero
trusts
ue
universitario
upside
urge
usada
ut
vacant
vada
vaqueros
veinti@@
veinticinco
veinticuatro
verbos
verbs
visual
voyage
whispered
wns
worthy
wrap
yas
yelling
yers
zi@@
zonas
Á@@
Éstos
ártelo
éndome
íes
ógicos
ópera
únicamente
&amp;
0s
1,000
1,@@
27
33
Abra
Abrí
Admiro
Ag@@
Agradezco
Albert
Anyway
Apple
Aprecio
Armenia
Ben@@
Blood
Boys
Bretaña
Buena
Cayó
Char@@
Ciertamente
Comprendo
Cont@@
Cop@@
Copi@@
Cows
Creés
Cri@@
Cuatro
Cuesta
Cui@@
Damn
Dar@@
Debiste
Drive
Déjeme
Encontraste
Esperaré
Estuviste
Fire
Gen@@
Gr@@
Guarda
Hablaré
Habría
Hijo
Ido
Invi@@
Islands
Jugar
Justice
Ki@@
L
La@@
Lidia
Limpia
Lin@@
Living
Llegaré
Láctea
Mand@@
May@@
Mil
Milk
Mine
Mirá
Mué@@
Mírame
Nad@@
Op@@
Oíste
Pagué
Pel@@
Poor
Prepar@@
Pón@@
Quedé
Respon@@
Rev@@
Sara
Seguimos
Sel@@
Serás
Sim@@
Sién@@
St@@
Surely
Tampoco
Thai
Thir@@
Tomo
Tonight
Tor@@
Tuvieron
Under
Volvamos
Vuestro
Vía
Yo@@
abnormal
abogados
abounds
abrupt
absorbed
absur@@
abundancia
acarici@@
ached
acne
acquainted
actuando
admired
adura
agenda
agon@@
agrado
aguas
ahogó
ahorr@@
aks
alcanza
altamente
alter@@
amaz@@
ambición
ambitious
ansi@@
ante@@
appli@@
appointed
apretó
argelinos
arrogant
asegurar
asistente
asusta
asustada
aten@@
ativa
atrae
atropellado
avergüenza
ayudamos
azo
bab@@
babo@@
bai@@
baila
bake
balcón
bancos
bang
beginner
berg
bienestar
bills
biting
bits
block
blu@@
blusa
breed
bro
budget
burgo
buscan
butterflies
cabezas
cador
cajero
calcu@@
calculadora
calendar
cals
canasta
cane
cantan
caramelo
caridad
carre@@
carri@@
carte
cartero
cela
celebrating
cenas
cerradas
chada
chado
char
chewing
cicatriz
ciencias
ciertamente
cintura
cionales
circo
cochera
coger@@
coinci@@
cojones
cole@@
colleagues
coment@@
cometa
comfor@@
comman@@
compass
complacer
complains
compos@@
compu@@
compuesta
concer@@
concierne
confusing
conmovió
conocerlo
conservative
considerable
considerada
consideration
contempor@@
continúa
copias
cops
corn
cosquillas
creativo
crew
cry@@
crímenes
cuadros
cupboard
cántaros
cómodos
cú@@
dalo
deals
debiste
dec@@
decirles
declined
dense
dep@@
departure
dependent
dering
desayun@@
desayuna
descubrieron
despertado
desprecia
dge
diabetes
dico
didos
diferenciar
differences
dim
dimi@@
disculparse
dishonest
dislikes
disturbing
div@@
divertimos
drivers
dru@@
dudo
duermes
duties
ean
eas
echas
eco
ecía
eding
edor
ee
eles
embajador
emoción
empate
empeor@@
empeorando
empeorar
enano
encontrarse
ende
endes
endido
energ@@
engagement
enoj@@
entendi@@
entraron
entusiasmo
envié
ep
equilibrio
escon@@
esperara
esperas
estrictamente
estrés
estudié
estuvi@@
eva
ever@@
eves
existo
expelled
explaining
explicado
exter@@
extraordinario
extraordinary
factura
faldas
falló
fec@@
feeds
festi@@
ficó
finés
firma
fist
flea
flexible
flota
fo
forgetting
formado
fresh@@
fron@@
funcione
funciones
fí@@
gaba
ganos
gas@@
gem@@
geni@@
gentil
gesti@@
giraffe
gloomy
golpear
gram
great-@@
haberla
habit@@
hablarlo
hablaron
hardworking
heal@@
helmet
hicisteis
hidrógeno
highway
higiénico
hol@@
holy
homeless
hospitales
hospitals
hotter
hoyo
huérfano
iceberg
igualdad
immediate
imported
inar
inconsciente
indiscre@@
individu@@
inging
interven@@
intr@@
invent
inventar
irlandés
ironed
ising
islands
ited
jaque
jarrón
jection
jengibre
jeron
jornada
judo
jugaron
juramento
lamos
latas
leak
lecciones
lessly
leta
lidos
literally
llores
logo
lé
mammal
manda
manejo
mantenido
mascul@@
mati@@
melts
mercy
meterse
mido
miendo
mientos
mistook
mixed
modesto
moons
mudarse
mueras
multipli@@
muriera
museos
museums
nes
nin@@
nudo
obe@@
obviamente
oculta
ocupadas
ocurren
oned
oning
oposición
oras
ordenado
otas
oto
oxi@@
oíste
pag@@
paloma
pap@@
parecidos
parent
participate
pay@@
pedos
peel
pendientes
perfección
perju@@
permiten
pertenecen
pesimista
photographer
pica@@
pinturas
pirata
pistas
poderosa
pork
porta
positions
prender
prepara
presentación
presented
presu@@
presupuesto
profile
profundidad
provecho
punish
puñetazo
póquer
quarre@@
quedarás
quemando
quetas
quot@@
rabbits
radio@@
rat@@
rata
realizó
receipt
rechazado
reconocido
reconocí
recordó
recover
recuperar
refr@@
registradora
regre@@
regrets
relaxing
remark
renunció
reported
represent
requieren
required
respi@@
resultar
retire
retiró
retro@@
reveló
rincón
ripe
rlo
robbery
rocas
roommate
sabría
sabíamos
sacred
salvado
sangr@@
sangrando
santo
saxofón
scar
score
scra@@
seafood
seamos
sedu@@
sembr@@
semester
semestre
sending
sensa@@
sepan
sesión
settle
shaped
sity
slice
slu@@
solares
soltera
sometime
sorda
sources
spouse
stra
stream
string
subestim@@
subjects
supply
suspen@@
swallowed
sú@@
teléfonos
temblar
temporal
terminamos
terreno
terroristas
textos
theatre
thorough
tigres
tious
tolerant
tomamos
torio
toss
tragedia
tragedy
traidor
traitor
trasera
trate
trial
tribunal
trigger
tuna
unconscious
underwear
ung
uniformes
unió
unlucky
usarlo
vaci@@
vacun@@
vado
valid
valientes
valley
vame
varían
vegetariano
vely
ventas
venti@@
verdura
vería
vestir
vis@@
visitarnos
visu@@
vity
volverme
vuelos
ví
wave
wig
win@@
worship
xed
zarse
zation
zorra
Órale
ándole
ángeles
émoslo
éndole
érselo
ídas
íos
ística
ñó
ü@@
100@@
1939
1974
197@@
2023
28
30@@
Act
Acu@@
Admito
Af@@
Ale@@
Animals
Another
Aparentemente
Apr@@
Aprendemos
Artificial
As@@
Basta
Bell
Bru@@
CNN
Cairo
Cambié
Christianity
Clar@@
Coca-Cola
Comemos
Congratulations
Cono@@
Creemos
Cro@@
Cul@@
Decidió
Diego
Diles
Doctors
Doesn
East
Echo
Ed@@
Estaría
Estonia
Estudié
Europea
Habló
Hagámoslo
Holanda
Huele
Hungary
IA
Imagine
Indian
Intentaré
Intentemos
Irlanda
Jun@@
Karen
Ken@@
Lamentablemente
Lav@@
Limítate
Llegaste
Lots
Luces
Luckily
M
Making
McDonald
Medi@@
Melanie
Monroe
Napoleon
Necesit@@
Necesitaba
Necesitan
Nepomniachtchi
Nixon
Nochebuena
Not@@
Out
Pardon
Pat
Peace
Perman@@
Pocas
Podr@@
Pregún@@
Pua
Puso
Pídele
Q@@
Rep@@
Romanian
Roosevelt
Sac@@
Salimos
Sean
Sinceramente
Singapore
Soci@@
Squeeze
Step
Sue
Sur@@
Sír@@
Tak@@
Tar@@
Ted
Tenga
Thousands
Toca
Trabajas
Trabajé
Trans@@
Ucrania
Uganda
Unos
Uso
Varios
Viva
Wa@@
West
abandonaron
abdomen
abortion
abrieron
abur@@
abuse
acabe
accomplice
aceptaron
achievements
aching
ack@@
acordarme
actuación
adivinar
admiración
affects
aga@@
aguja
ah@@
ahorita
aim@@
aking
alb@@
alerta
allo@@
alturas
amargo
amarr@@
amaré
ambassador
amenazó
amientos
analy@@
ander
ank
anormal
antemano
anzas
apasion@@
apañ@@
api@@
aplau@@
aplicar
aprobación
argu@@
armado
arregló
articles
ase@@
asma
assistance
aster
aters
aumentado
aumentar
autor@@
avoiding
aw@@
babbling
balloon
bancaria
barbar@@
barcos
basada
bastón
bats
behaved
blunt
blushed
bodas
bon
borró
bribe
briefcase
bugs
bul@@
bullshit
burglar
buscado
búho
cabin
caminos
campus
canceló
canos
capa
carni@@
carné
carries
casamos
catedral
causado
cayeron
cement
cenando
centi@@
cepillar@@
ceps
cerá
cess
charon
chatting
check@@
checkers
cheered
chickens
childish
chin
ciera
cil@@
cimientos
cionados
cocodrilo
cogí
coli@@
colli@@
comb
comienzan
commercial
competent
compramos
confirmar
conflicto
congela
congelado
conocerle
consecu@@
consumo
contactar
contaste
continues
convenience
convertirá
core
corregir
creación
creates
creating
criminals
cristianismo
crocodile
crueldad
cuad@@
cucaracha
cuerdas
cured
curi@@
custom
dances
danza
dates
deepest
dejando
dejará
delfín
delgada
deliver
democr@@
dental
depar@@
deportivo
dered
desanim@@
descen@@
descuento
deseaba
despedirse
despidieron
destruyó
diagnosticado
diagon@@
differ
digesti@@
dirse
dirías
disparado
dispararon
disponibles
dispu@@
dita
dough
drome
dug
débiles
ebrio
eció
edly
eficaz
ek
electrical
empu@@
encendido
ench
enden
endió
ening
enormes
entendía
entiendas
entitled
env@@
enví@@
esc@@
escen@@
escuchaba
escucharlo
esencia
espe@@
essence
estable
estri@@
eternity
etiqueta
ets
evident
exhaust@@
experts
explains
explicár@@
expliqué
extinción
extinct
extrañas
extremo
eyesight
facili@@
farting
favoritas
fico
fideos
fined
flights
flow
fooled
formación
formu@@
fortal@@
forth
frogs
fronteras
frustr@@
frying
fting
futbolista
gadas
ganador
ganará
gang
gastó
gentlemen
ght
gn@@
grams
grita
guardado
gueme
guessed
hablara
hablarte
handy
hangover
harán
heal
hec@@
hechi@@
herencia
hing
hirió
histori@@
historical
hitting
homes
hormigueros
hoteles
hotels
hou@@
hunt
háb@@
héroes
ides
igan
iles
impresora
individuo
inhabitants
inidad
insinu@@
insoportable
interes@@
interpretó
interrumpió
intimid@@
inv@@
inviting
inútiles
irregular
irs
itu@@
japonesas
judged
jugu@@
juro
justa
killer
kills
lame
laste
lations
lawyers
leading
lear@@
letas
levantas
liado
licen@@
limitado
limpió
lindas
llegar@@
llegaría
llé@@
location
logramos
loo@@
loro
lovers
lunar
lung
mach@@
mago
mailbox
mamífero
mancha
manipu@@
marcar
mariscos
mbr@@
mear
mej@@
mela
melted
meti@@
metí
mienten
milagros
milking
miro
mites
mix@@
modales
mojados
monstruos
mostly
muñeco
nacer
nam@@
nasty
natives
needle
nerve
neumático
nevera
nicas
nis
nit@@
nove@@
novi@@
oak
observar
obtain
od
oler
oli@@
olvi@@
olvidéis
one-@@
organismo
orias
overcoat
overnight
owned
pala
pandas
participó
past@@
pecados
pedirme
pega
pelotas
pera
perfil
perlas
personajes
personales
perver@@
período
picos
pier@@
pintando
plat@@
platform
plenamente
plá@@
podrán
podíamos
politely
ponía
posibles
powers
precisamente
prefieren
pregun@@
preguntaron
preocupar@@
prescri@@
preval@@
printer
probe
processor
procrastin@@
programs
proteínas
provides
pudi@@
pulsera
pusiera
pí@@
quantity
quar@@
queríamos
raci@@
racista
racket
radical
rar
raste
re-@@
rea
react
reaction
reap
recall
recibe
recom@@
recomend@@
recur@@
redes
refugio
regañó
relajarme
relations
rendirse
repor@@
reprodu@@
requested
reside
resistir
respec@@
responder@@
resulted
retrasado
retrasó
retrato
revol@@
reza
ridícula
rindas
rival
rocket
rooster
rotos
rubbed
rubia
ruina
rutina
ríen
sailing
saves
scarcely
scen@@
scheme
sector
secure
segui@@
selva
sentidos
sew
señal@@
shallow
shouting
simpli@@
sirvió
skate
sle@@
smooth
sni@@
sno@@
snowman
soaked
sociable
soil
solici@@
solíamos
sordos
sorprendería
sounded
spaghetti
spon@@
spr@@
squirrels
st-@@
staff
stain
stle
stroke
stunning
sube
submar@@
sucediendo
sucias
sudando
supongo
surgeon
suspiró
swallow
tary
taría
tat@@
technique
temperaturas
temperatures
temía
tendencia
tender
tercio
terminarlo
terr@@
tesis
thoroughly
thumb
tienden
tigers
tina
tip@@
tivity
tiza
to-@@
toe
tol@@
tone
tones
torno
trag@@
traicionado
traiga
trained
trig@@
ubi@@
unidos
univer@@
unto
usos
utilizado
utilizan
vacías
var
vas@@
veamos
vegetarianos
vejez
vendrás
vengan
vergonzoso
vestidos
vestirse
videos
vie@@
vigilando
vivían
volcano
volcán
volun@@
volveremos
vé
waist
waking
wers
whales
wind@@
wire
woken
yogurt
zaremos
érmelo
ésa
éticas
éticos
íste
óni@@
…
1000
39
Abri@@
Acor@@
Ajedrez
Alexander
Ancient
Aprendo
Arro@@
Atlantic
Australian
Año
Beauty
Bienvenida
Bol@@
Can@@
Cerr@@
Change
Church
Compared
Comúnmente
Continúa
Cross
Cup
Danos
Deci@@
Decir
Decían
Descubri@@
Disculpa
Disneyland
Drop
Eating
Education
Emilia
Empezamos
Estudiar
Fear
Fif@@
Fing@@
Fir@@
Freedom
Hablaremos
Hable
Id
Identi@@
International
Ireland
Iron
Istanbul
Ja@@
Juro
Knock
Lat@@
Liberty
Llame
Llegaron
Merece
Miguel
Mire
Mount
Mán@@
Noruega
Norway
Obe@@
Okinawa
Oxford
Pasa
Pat@@
Patri@@
Pensamos
Poco
Por@@
Prepárate
Puse
Quedate
Reci@@
Recibiste
Recientemente
Relájate
Salvador
Seen
Siguió
Sor@@
Space
Spe@@
Stephen
Sugiero
Susie
Tend@@
Tower
Trabajamos
Trato
Ukraine
Ukrainian
Ur@@
Vend@@
Viví
Vuestra
Wall
Winter
_
abrirá
abro@@
abstracto
abundance
aburridos
aburrimiento
accounts
acompañar
acostó
activa
actuó
acudir
acy
addiction
adding
adicción
adquirir
ain
alert
alia
alimenta
alla
amarillos
ames
ancias
and-@@
ank@@
announ@@
anuncio
any@@
análisis
apariencias
apel@@
apoya
appe@@
appreciated
apreci@@
apropiada
aproxim@@
apuntes
aquellas
ared
arise
aro
aroma
arquitecto
arrancar
arranged
arreglado
arri@@
arruinar
ascen@@
ases@@
asintió
asom@@
aspi@@
associate
astronomía
astu@@
atardecer
ator@@
attached
atur@@
automático
awa
ayudarlos
ayudaron
ayudo
bad@@
bailarina
banca
barro
beb@@
bebi@@
beers
begging
bend
benefici@@
bian
bicycles
bienes
bilidad
bilingües
bility
biological
blaming
bly
boli@@
bondad
boste@@
brake
brea@@
bres
brill@@
brillaba
bron@@
brushed
burlar@@
busc@@
cabilio
cambiarme
cambiaron
cambiará
campeonato
cancelled
cano
cantantes
capitali@@
cari@@
carreteras
cartón
cathedral
cavar
cenó
cerradura
cervezas
chamos
charity
charlando
checks
cid@@
ciertos
cil
cionada
cioso
circus
cirujano
cis@@
ciste
cleaner
clocks
cobardes
cockroach
cohete
comenzando
comerci@@
cometas
comparable
comparte
completar
comunismo
conducen
conductores
conduzco
confiaba
confusión
connect
cono@@
conocerla
conqui@@
considers
conso@@
consum@@
consumir
contaminación
contentos
continent
controls
cop
correc@@
corredor
corresponde
corro
corría
costoso
coughed
creation
criar
cuartos
cubri@@
cuchar@@
cuidará
curry
cuántica
daban
dable
darles
deadly
deba@@
debilidad
decepción
decidiste
decimos
declaración
dedica
defendant
defin@@
deliber@@
demo@@
democratic
densa
depor@@
derramó
desafi@@
desapare@@
desempleo
desesperado
desires
desnu@@
despedirme
despegó
despier@@
despises
destination
destroying
destruido
dialect
dialecto
dicas
dijisteis
dinosaur
dirigido
discussing
disfrazó
dispuestos
distraído
divine
divirtió
dolphin
domestic
domicilio
dondequiera
doubtful
draws
drought
dudar
dó@@
ecerá
edo
educa@@
educada
efec@@
ejerci@@
elbow
elders
electrónicos
eless
embr@@
empe@@
empiece
encendida
enfermero
enseñas
enta@@
ential
entren
entrenamiento
entretenido
enzo
equivoca
eremos
escapar@@
escondidas
escritos
escuches
estab@@
estad@@
estir@@
estupenda
exhibition
exige
experiment@@
extent
extraordin@@
factories
farewell
farther
fax
felizmente
feminist
feminista
fen@@
fiable
fici@@
filo@@
fingía
firefighter
fires
floating
floors
flush
forzado
foto@@
fountain
fourteen
freely
freno
fumando
galaxias
ganaron
garlic
gará
gatillo
genu@@
genuine
gers
gesto
gible
ginger
gl@@
good-@@
gorra
gossip
graduó
graphy
grin@@
gráfico
gé@@
gü@@
hablaste
hablen
hamburger
hamburguesa
haríamos
heartless
hierbas
hoax
hormiguero
housework
hunch
huracán
hábil
ilust@@
imitar
import@@
incluyendo
indu@@
indulge
inesperado
influenced
inform
infr@@
infra@@
ingreso
initi@@
insist
install
instant
inte@@
intenso
intentionally
internacionales
interpretar
intoler@@
investigate
investment
ironing
irías
jada
jal@@
jec@@
jugaban
ka@@
kindly
kno@@
landing
lastimé
law@@
leaning
legible
levantarte
leíste
lidiar
life@@
lifetime
limpiado
literalmente
llamarle
lleg@@
logra
logré
lor@@
lunas
magnet
maintain
maj@@
maletero
mandar@@
mant@@
marse
masculine
mataré
mated
mean@@
meas@@
meterme
micas
militar
minerales
ming@@
mistress
molestando
montó
monumento
mothers
motocicleta
mow
multiple
mínima
nacionales
negoci@@
nes@@
nevará
niece
niego
nietos
niñita
notado
novato
obje@@
obligaron
obligó
observe
observed
obsesionado
obtained
occidental
ocurriendo
odor@@
off@@
ofrec@@
oiga
oles
olfato
olviden
oneself
ono@@
ordenada
ordeñ@@
organ
ow
ox@@
oír@@
palomitas
papa
parallel
paro
parpad@@
patada
pción
peach
pegar
peleas
penetr@@
penny
periodistas
permitir@@
permitirme
perspectiva
perspective
peti@@
pick@@
pigeons
pingüinos
pirates
plana
planchar
play@@
plugged
pm
polaca
pondría
posiblemente
posteri@@
practically
preguntarme
preocupo
presi@@
presion@@
presta
primió
probé
procesador
pronouns
protein
proviene
provocar
pudiéramos
punk
pusiste
pésimo
quear
quedas
querida
quir@@
químicos
ramo
raqueta
reciente
recog@@
recomiendo
recompensa
reconocimiento
reconozco
recovery
recurrir
referring
refieres
refuses
regar
relation
religiosa
remedy
repentina
report@@
resbal@@
resemble
restos
restroom
resumen
rindió
rodeos
romántica
rushed
sabrás
sadness
salto
salvaje
sanc@@
sanit@@
satellite
satisfacer
satélite
scor@@
scru@@
secreta
secu@@
seeking
seguirá
seguiré
selección
self
separados
session
seventh
severely
sex@@
shaved
sig@@
sighed
significa@@
simpler
singers
sixth
snoring
sober@@
sobor@@
sobrevivi@@
sobrina
sonda
sonidos
sopl@@
sorabo
sospe@@
sospecha
sowed
ss@@
states
steam
steel
stin@@
stió
straw
strings
struggled
sty
subscri@@
substance
sued
suegra
suenan
suene
sufriendo
super
supports
supre@@
surprises
suspended
switched
sympathy
synony@@
tario
tarle
tas@@
tatuaje
teenagers
telescope
tenerte
tenista
tent
tered
teó
thou
thrilled
thus
tless
tomarse
tontería
tores
toser
trabajadora
trace
tradition
traen
tribute
tricked
triunf@@
trucos
tun@@
tá@@
unattended
unbearable
unemployment
unlocked
unpleasant
ups
usaba
usuarios
vacuum
values
vanished
vast
viajando
viniendo
vinieras
volante
volunteered
voto
wardrobe
wed@@
welcomed
willingly
witnesses
wr@@
yac@@
yos
zarte
zará
ándonos
ángulo
ão
ída
ógica
ónicas
1950
1980
1989
2011
2012
26@@
3,@@
31
45
48
Adop@@
Aires
Amazon
Among
Andalu@@
Andrea
Ania
Anybody
Argent@@
Arreg@@
At@@
Atlántico
BBC
Bad
Bai@@
Bears
Besides
Beware
Buddhism
Business
Caesar
Camina
Caminamos
Canal
Carl
Comen@@
Comes
Compar@@
Compare
Conocés
Conseguí
Curi@@
Cuén@@
Cy@@
Daniel
Decid@@
Desconozco
Descu@@
Detroit
Dev@@
Devuél@@
Dices
Ding
Dra@@
Dur@@
Dá@@
Ecuador
Elephants
Eris
Escribo
Escrí@@
Esperad
Estambul
Estarás
Estate
Estudiamos
Estudias
Exam@@
Exi@@
Expli@@
Fal@@
Fanta
Filipinas
Frank
Galician
Gam@@
Ge@@
Girls
Got@@
Habláis
Hacemos
Half
Ham@@
Hashimoto
Helsinki
History
Hy@@
Inspi@@
Italians
Ito
Its
Jac@@
Jean
K
L.A.
Lad@@
Les@@
Libertad
Marcus
Mari
Mc@@
Mercury
Mina
Move
Much
Mundo
Napoleón
Nat@@
Odi@@
Paraguay
Party
Permíteme
Person@@
Pes@@
Philippines
Play
Pluto
Ponlo
Presta
Prin@@
Quienquiera
Quédense
Reality
Republi@@
Republic
Rey
Robin
Sali@@
Sed
Seeing
Seré
Seven
Sevilla
Singapur
Socrates
Sol@@
Solamente
Soli@@
Sorbian
Soviética
Sub@@
Sure
Swimming
Sócrates
Thailand
Therefore
Times
Tobias
Tobías
Tomaré
Tomemos
Traje
Tuviste
Under@@
Upon
Valentine
Venecia
Vengan
Venice
Vinieron
Visité
Volví
Wil@@
William
abiertos
abolish
abruptly
absorbe
absten@@
accu@@
accurate
acknowled@@
aclam@@
aconsej@@
acquired
adaptarse
adelant@@
adlo
afer@@
afueras
agarr@@
agujeros
aki
albor@@
alizó
almas
alternativas
altogether
ama@@
amelo
aming
anar@@
andro@@
aned
angels
annoys
antibiotics
anytime
apagaron
apare@@
aparecer
appeal
aprendas
aprenden
arcoíris
arriesgado
art@@
artists
aseguró
asesinados
ashes
asiáticos
aspir@@
aterrador
athlete
atic
ató
ató@@
atún
automatically
automáticamente
automóviles
autopista
autoriz@@
avances
ayuden
azot@@
azu@@
background
banjo
baratos
belts
bendición
bent
bert
besando
best@@
bias
bicho
bieron
biol@@
blan@@
blond
bloody
boils
bombas
bombs
borra@@
bots
breast
brillan
buil@@
but@@
bé@@
cabr@@
caen
cales
cambie
campaign
campamento
cantes
caos
capitalismo
capri@@
caracter@@
cará
casual
caz@@
cellar
cenado
cenizas
centuries
cham@@
championship
charges
charm
chase
chate
chicle
choir
chop@@
chopped
ciado
ciegos
citas
claras
client
clumsy
cocido
codo
colas
colgar
columns
coman
comb@@
communist
compañías
compens@@
compete
compleja
compres
compromise
conclusiones
condi@@
conditioner
cones
confis@@
confusion
congratulated
consciencia
conservador
considerate
consistent
consola
contributions
convencer@@
cooperación
coque@@
corpo@@
corpus
corren
corrupt
cos@@
cou@@
counter
couples
courses
creati@@
crezca
criatura
criminales
crió
crystal
cuadrado
cubiertas
cubiertos
cuel@@
cuente
cuestion@@
cuestionario
cunning
curr@@
curse
custo@@
darás
deceased
deceive
decían
dedicated
defen@@
defi@@
define
demonstrated
desal@@
desapar@@
describió
desean
desen@@
desnuda
despejado
desta@@
detal@@
detectives
determinación
determine
devastated
devor@@
dica
dictador
dieras
dignity
discipl@@
discriminación
disfrazado
disfruto
dismissed
disper@@
distingue
ditched
diversas
doblar
doct@@
doctora
dolphins
domesti@@
doms
doscientos
dot@@
drama
dremos
dripping
dropping
drops
dón
ecer
echando
economics
elder
elections
elige
embaraz@@
emigr@@
emocionada
empezaste
empujó
encontraremos
endida
endí
ened
enfermó
engaño
enseñan
entendemos
entiendan
entó
equals
erce
escapado
escondite
escribi@@
espinas
estableció
estados
estadísticas
estando
estrope@@
estuviese
evalu@@
exacto
exag@@
excepcional
excursión
exigió
experimentado
expor@@
familiari@@
fathers
feared
federal
fies
figu@@
filete
filtr@@
finger@@
fireworks
five-@@
fixing
flas@@
forman
fotógrafo
four-@@
frac@@
freezes
freg@@
frequent
froze
ful@@
fur
fábricas
físicamente
gains
ganaste
ganso
gays
ggled
girlfriends
gno@@
gon@@
gotta
grab
graceful
grain
grandchildren
graz@@
grueso
guay
guitarist
gy@@
habrían
haciéndolo
hamburgers
hasty
hearted
heavens
hechas
helada
hemor@@
hen
hidr@@
hometown
horizon@@
hus@@
hydrogen
iPhone
iler
illu@@
images
imaginary
import
impres@@
impress
incertidumbre
ind
ind@@
indign@@
individuals
infected
infection
infin@@
ingu@@
inquieto
inspiración
intellectual
intentaba
interfer@@
interfere
interpret
intersection
invaded
invitada
ire
iste
item
itting
ive
jera
jirafa
kar@@
ladrar
lastimado
latter
leaking
legis@@
lejano
let@@
leve
lic
liebre
limpios
ling@@
linguistics
lish
list@@
literal
literary
liver
long-@@
longitud
loyal
lágrima
mación
maldi@@
mall
manages
manifest@@
masticar
mastur@@
matan
mataría
matemático
mathematical
mber
meaningless
medieval
meets
melody
meme
mend@@
mentes
merecía
migra@@
mir
miran
misa
mmy
mojadas
monsters
montones
morado
mother-in-law
motto
mudo
muera
muestran
muevas
muni@@
mustache
my@@
mágico
músicos
nadan
naturally
need@@
nervi@@
nicer
no-@@
norte@@
nostalgic
nucleares
oath
obstáculos
ofendido
offensive
olives
olvidamos
olvidaste
olvido
ológico
omni@@
opina
opuesto
orador
organism
ority
orph@@
ortografía
otor@@
overseas
overslept
overweight
oyes
parado@@
parano@@
pariente
pastillas
pate
pec@@
pediré
pediste
pelar
peluca
pendiente
pi
picó
pistol
piz@@
plucked
plural
poetas
ponente
postpone
potable
pouring
practica
practicando
preciso
predijo
preferred
presentarte
pretende
primar@@
privacidad
producido
productive
profesión
profession
propuso
provoca
próximos
puked
pulgas
pupitre
puño
py@@
quebró
quedaría
questionnaire
rab@@
raramente
realista
reando
rear
recapitu@@
recep@@
reciben
reck@@
reflect
reflexionar
relationships
release
relief
religioso
remembering
reo
repairing
república
responsables
resu@@
revent@@
rezando
ribbon
roman@@
routine
ruidoso
rup@@
ruta
saint
sangra
satisfac@@
satisfactory
satisfecha
sau@@
saurs
sca@@
scored
secas
secre@@
secuestrado
seize
sely
separately
serias
serios
servir@@
señores
shone
sign@@
siles
simples
simpática
sincerity
sita
sites
sively
sleeves
slightest
sm
so-called
socio
soda
sole@@
sonrieron
sopor@@
souls
spelling
spit
spots
stada
stained
stains
steep
stein
sticks
stool
storms
stretch
sucederá
sucedería
sufficient
sunrise
supiste
surgió
survivors
suscri@@
suspendido
tacos
tag
tagalo
talentosa
tari@@
tase
tattoo
telescopio
temblando
temper@@
tendency
tendr@@
tenso
teo
terror@@
tested
tha
thou@@
tidas
tightly
tioned
titud
tomaste
toothbrush
topé
tostada
trabajé
traducir@@
tratas
tril@@
tripulación
tron@@
tronco
trumpet
tta
tters
tube
turnos
turtle
tuviéramos
twentieth
uda
ultimate
unded
uts
vacuna
valores
vary
vendré
vent@@
verb@@
verge
viajado
viajero
vigor
vil
vini@@
visitamos
visitor
viuda
vivas
viví
voluntarios
volvía
voting
votó
vuelvan
wars
waved
wea@@
weakness
weeds
western
whistling
wit@@
ya@@
yelled
yer
yogur
zon@@
ám@@
ç@@
éndolo
éndote
éticamente
ónimo
&gt;
00@@
2,000
201@@
25@@
32
8.@@
Acabamos
Acabas
Achilles
Admi@@
Agrad@@
Ak@@
Allow
Ano@@
Apresúrate
Aquiles
Armenian
Ayudé
Añade
Bajos
Ban@@
Bebes
Blan@@
Breathe
Bú@@
Caminé
Canc@@
Cari@@
Cast@@
Cel@@
Che
Cho@@
Cier@@
Clearly
Cogí
Comencemos
Cometí
Complete
Compró
Confi@@
Consider
Corrí@@
Creéis
Cuídate
César
D.
Deb@@
Dejad
Denmark
Describe
Desea
Dinamarca
Dinos
Dispar@@
Duele
Egyptian
Elena
Embassy
Encontrarás
Englishman
Entre@@
Escribió
Espíritu
Eventually
Ever@@
Exercise
Fine
Finish
Football
Gal@@
Grand@@
Guau
H
Haces
Hazte
III
Instagram
Inteligencia
Kingdom
Ladies
Lake
Languages
Light
MP3
Madre
Mar
Martin
Mercurio
Mil@@
Mis@@
National
Of@@
Oigo
Olympic
Otra
Parti@@
Pasaron
Pekín
Perdimos
Pese
Piotr
Polo
Pul@@
Quedaos
Quédese
Rain
Repeat
Return
River
Roja
Salgamos
Santo
Sar@@
Sarah
Satan
Señ@@
Sigamos
Sin@@
Sobre@@
Solar
Som@@
Sospecho
Spaniards
Spiders
Sra
Strange
Success
Sá@@
Tagalog
Tailandia
Tal@@
Tango
Teach
Tem@@
The@@
Tou@@
Traduce
Trust
Ty@@
Ul@@
Us@@
Venden
Vendí
Ver
Volverá
Vu@@
Wi@@
XIX
Yahvé
abarro@@
abdominales
abe
abolir
abreast
absoluta
acabará
accelerated
accessible
accountable
accusing
aceitunas
acepto
acera
acking
acomo@@
acostumbró
adapted
aded
adic@@
admini@@
admira
admits
afición
aging
ahogando
aja
alab@@
aler@@
alien
alienígenas
alimentan
aliza
all-@@
alquil@@
aluminio
ambition
amed
amistoso
ampi@@
ampli@@
ampu@@
analysis
anhel@@
anochecer
anteayer
antique
anto@@
anuncios
ao
aparecieron
approaches
aprecio
aprendes
apuñaló
argentino
armi@@
arra@@
arrepentirás
arrepiente
arrojar
arts
aríamos
assemble
asta
asustados
atacado
atacar
atascado
atch
atom
atropelló
atómica
authors
automovilístico
autóno@@
avalan@@
avance
aví@@
awoke
backwards
bajaron
banging
banks
barrer
bañarme
baños
bean
beber@@
bebes
bedrooms
beds
behalf
beli@@
besara
blank
bledo
bleed
boats
bolsas
bothered
breeds
británica
broad@@
brus@@
bró
brújula
bullets
bumped
burló
buscaba
buscar@@
butt
bye
bí@@
caban
caca
cafe@@
calefacción
camas
cambiaré
cambié
caminata
capitalist
capitalista
capturar
capturó
capítulo
caramelos
carto@@
casamiento
ce-@@
cem@@
cemetery
cemos
cepil@@
chairman
chame
champú
channel
checo
chero
choices
cian
cielos
científica
ciervos
cionalmente
cismo
civili@@
climático
clásico
coca@@
cocinó
coj@@
collapse
colleague
columnas
combate
comerte
comestibles
comparado
compelled
compla@@
compor@@
conciertos
concre@@
conduces
confesar
confiable
confiado
confirmed
confundas
conscientes
consecuencia
construyeron
consumi@@
container
contamin@@
convincing
cooperation
cope
copying
coreana
costaba
costar
costar@@
counted
cowards
creatividad
creerle
creerme
criticized
crop
cruzados
cubre
cuidando
culpes
culto
cultures
cump@@
cuna
currency
cuánta
darías
decidir@@
decirnos
decírtelo
decís
deeper
defended
definitiva
dejaba
delant@@
dentists
depen@@
depend@@
depender
derre@@
desa
desarrollado
desarrollar
descan@@
deser@@
deshacer
deshon@@
desliz@@
despair
desperdici@@
despidió
detallada
dibujando
dibujos
dibujó
dick
dictadura
dictator
die@@
dig
digit@@
dilig@@
dinosaurio
dinosaurs
dirig@@
dirige
disappointment
discre@@
disfrutando
disguise
disgust
divertidas
dividir
doorbell
dragones
drain
dram@@
drawn
década
dígame
eca
echaron
edores
elegant
elemento
eligieron
empeoró
emperador
empiezo
encanto
encarcel@@
encontrará
encu@@
engines
engordado
engordar
enojo
enormemente
enseñarte
entendimiento
enterado
entrado
entrega
envious
equ@@
equivoqué
ertas
esome
espadas
espar@@
especialidad
esperaban
establecer
establish
estacion@@
estornu@@
estreme@@
estres@@
estudie
estuvieran
estuvimos
eterno
evapor@@
evitarlo
exaggerate
examinó
excepciones
exchanged
exhi@@
exig@@
expectations
expectativas
explicaciones
explicarme
explicaré
explí@@
exposición
extingu@@
extremi@@
fabuloso
fallo
fas@@
feather
femen@@
femin@@
ferrocarril
ficar
fication
fierce
fif@@
figures
filas
financiera
firewood
fla@@
fles
flock
flooded
flotando
footing
forgiveness
foul
foundation
fro@@
fts
fuertemente
fundament@@
futur@@
fying
gador
ganara
gancia
gasoline
gastar@@
gathering
gatitos
gemelas
generaliz@@
geografía
geography
god@@
goddess
gorgeous
granjeros
gratitude
gro
guardias
guitarrista
haiku
halcón
hambrienta
handbag
harmony
harp
hayamos
heated
hervir
hesitated
histó@@
homeland
homo@@
hongos
hook
horizontal
horne@@
horns
humilde
humili@@
humiliated
humour
ica
ico@@
identificación
identificar
identified
ignorante
ima
immortal
impact@@
impolite
importan
inamente
inan
incorrect
indiferente
indis@@
industri@@
indí@@
inferi@@
ingenua
injury
injusta
insecure
insol@@
instal@@
installed
instincts
instru@@
insultó
intentas
interesados
inters
intersec@@
inundaciones
inventado
invité
irresistible
ised
isolated
isteis
jita
jug@@
jugará
kets
kid@@
kie
laciones
lagar@@
lanz@@
lars
launched
lavarse
lechuga
lers
letr@@
lettuce
liberó
licked
lidad
lifted
ligh@@
lightly
llamen
llar
llevarlo
llevarte
lloran
lluvias
locali@@
locker
locu@@
log
lou@@
maletín
malvado
management
mandado
mane@@
manejando
masterpiece
maté
mbled
mbre
measured
medir
mejora
mejoró
melancolía
merec@@
mese
micos
microscope
microscopio
minority
mió
mod@@
modi@@
moj@@
moleste
monedero
mono@@
monument
mortales
mosle
mostré
motivación
motores
muertas
murciélago
musicales
mysteries
mágica
músculos
nadaba
nadador
nap@@
nat@@
natación
neblina
necesitábamos
negativo
neutral
nicos
nocturno
nocturnos
noises
northern
numerosas
obligation
observa
obses@@
ocur@@
offend
ofreci@@
old-fashioned
omi@@
onar
opportunities
ordin@@
org@@
organizado
orio
oscurezca
oted
oured
ousness
pación
pacífi@@
paella
pagando
pagará
paguen
palest@@
panic
paraba
paradise
parques
partieron
pase@@
pastry
pateó
pathetic
patético
pau@@
pav@@
pawns
payment
peak
peanut
pearls
peasant
peinado
pelu@@
pene
perd@@
perdi@@
perdonará
perdonaré
pereza
perple@@
persi@@
persiguiendo
persiguió
persist@@
pher@@
photo@@
photographs
physically
pigs
pillar
pino
plot
plug
podcast
poderes
poli
pollera
pondr@@
ponemos
ponte
potential
pregunt@@
prescribed
presiones
pression
prestaré
primas
prise
prometida
prometiste
promin@@
propietario
provienen
psicó@@
psy@@
publicado
publicidad
pulmón
punched
pupil
qualified
quedaras
quejaba
quemos
quisieras
quitas
racial
racismo
ranch
rational
ray
ray@@
rays
realizado
recomendar
recordado
rect@@
refleja
refugiados
regulares
regularidad
rel
religiones
religions
reparado
repli@@
reporter
reserv@@
resfrío
responded
returns
revolo@@
risky
riñón
roots
roso
rug
rum@@
rumano
runner
rápidos
ré@@
régimen
rón
sabiendo
sabot@@
sad@@
salada
salta
sample
san
sardinas
sardines
scheduled
seatbelt
secador
secos
secretly
seguimos
sello
separa
sequ@@
serv@@
server
servirá
señaló
shines
shopkeeper
shortage
shrimp
sian
sidewalk
silenci@@
singular
sintiendo
situaciones
slippery
soborno
sodio
solitude
solucion@@
sombras
somehow
sopla
soportarlo
sores
sors
sostenía
spoil
squeezed
squid
stame
stan
steri@@
sticas
stico
stranded
strawberry
stretched
stunned
suck
sufri@@
suger@@
sugi@@
sunshine
superiores
superó
supli@@
suppor@@
surprising
survival
sustantivos
susurró
séptimo
sín@@
tail@@
tain@@
tains
tang@@
tartamu@@
tarán
telefónico
ten-@@
teri@@
termino
tery
testamento
tete
tex@@
there@@
thirst
tionally
tionist
tobacco
tomada
trai@@
traigo
trajiste
transfer@@
translates
traslad@@
treating
tres@@
tripped
tted
tty
tud
tum@@
ty-five
unci@@
unds
une
unfortunate
unite
unnecessary
unt
uri@@
urr@@
urs
user
username
utterly
valo
vegetarians
vehicles
vencer
ventajas
ventanilla
vers@@
verti@@
vertical
veían
vientos
violeta
virgen
visado
vistas
vistió
vitamina
vivieron
vivirá
volu@@
volverse
vomitar
votaron
watered
watermelon
waters
whereas
whistled
who@@
widow
wiser
wonders
wool
workaholic
worthwhile
zaste
ze@@
átomo
íaco
ídos
ógico
órgano
ótica
1492
186@@
1945
1992
1st
200@@
2020
2021
5th
75
911
Abraham
Accept
Adondequiera
Age
Akiko
Almor@@
Almorzamos
Ameri@@
Andy
Angela
Ankara
Antiguamente
Ari@@
Ariel
Asian
BC
Bajo
Barack
Bas@@
Baya
Biden
Books
Brush
Bé@@
CO
COVID-19
Cabilia
Camino
Catalonian
Cathy
Celebr@@
Cerca
Columbia
Comamos
Cool
Corrió
Corta
Count
Creen
Cuida
Cuán
DVD
Dado
Dance
Deep
Dejame
Dejemos
Del
Del@@
Denme
Dimos
Discúl@@
Disfrutamos
Dum@@
Déjanos
Dígan@@
EEUU
Eché
Emperor
Encantado
Encendí
Enséñ@@
Entendiste
Eric
Esperen
Espérame
Estabais
Europeans
Ever
Express
Extrañ@@
Fa@@
Fe@@
Frank@@
Gira
Gover@@
Greene
Habl@@
Hagan
Hans
Hatred
Haumea
Hitler
Houston
Hun@@
Hur@@
Há@@
Hágalo
Institu@@
Intento
Interlingua
Iraq
Isabella
Islas
Jef@@
Jeff
Judging
Karl
Kato
Kenji
Lady
Leonardo
Leván@@
Liisa
Lis@@
Llegará
Llor@@
Mandarin
Marc
Marta
Masha
Math
Mediterranean
Middle
Ministro
Must@@
Nació
Nations
Nevó
Night
Oc@@
Occid@@
Odia
Ogawa
Ol@@
Oleg
Parec@@
Países
Pharamp
Physics
Pier@@
Pis@@
Plutón
Pobre
Podrás
Podrían
Pole
Prefieres
Pregunta
Prob@@
Professor
Prohibido
Quise
Quran
Rel@@
Religion
Remain
República
Resultó
Revolution
Ron@@
Ronaldo
Salgo
Sat@@
Saturn
Saturno
Seguí
Sentémonos
Serbia
Society
Sonó
Sooner
Square
Stefan
Sudáfrica
Super
Suél@@
Sweet
Súbete
Takahashi
Terminamos
Tie
Tira
Tráigame
Unless
Usually
Utili@@
Valentín
Vancouver
Vati@@
Vende
Vendo
Vendrá
Vista
Want
Whi@@
Win@@
Wor@@
X-@@
XX
XXX
Xi@@
Yoshi@@
Zar@@
aback
abrirla
abro
abstain
aburro
acantilado
acceler@@
accepting
accommodation
accomplishment
accuracy
acordó
acquire
activos
acuesta
adió
adjust
administración
ado@@
adqui@@
adí
affection
afortunada
agan
agradecerle
ahuy@@
aires
alidades
alivio
alls
aloj@@
amada
ambicioso
amused
amusement
anal
ancestros
andan
anged
annual
anto
anunci@@
app@@
appro@@
approval
apuñal@@
arian
armenio
arreglando
artes
ascenso
asemeja
asombrosa
asshole
assured
astonished
astrónomos
astuta
atacaron
aterrizar
atleta
atraen
attacks
atten@@
ature
aty
auténtica
avent@@
avergüenzo
averió
avisar
award
ayudaremos
aéreo
babysitter
balas
balloons
banned
bap@@
bare
barr@@
bars
basis
bass
bassoon
baste
bau@@
beaches
beaten
bed@@
behaves
beneficio
besé
bin
bit@@
boletos
boli
botes
boun@@
bras
brasileña
bridges
brillando
brother-in-law
budismo
bulb
burg
burg@@
burles
bury
by@@
cabinet
cache@@
calamar
calientes
cambies
camion@@
canguro
cano@@
capitales
carelessness
carpenter
carpintero
caré
casara
casará
castillos
castles
catalo@@
catástrofe
causas
cebolla
celo
censur@@
centric
chab@@
chapter
chapu@@
characteristic
chatarra
chaval
chilló
chin@@
chol@@
cians
cionario
ciosa
citos
ck-@@
cogni@@
colabor@@
colgado
colours
combine
comen@@
cometiendo
compartimos
compen@@
compensar
comprara
comprensible
concentración
conclusions
conectado
conflictos
congratulate
conju@@
conservar
consideró
consigues
conson@@
constel@@
constitución
constructed
consulted
contagiosa
contienen
contradi@@
contradict
contradict@@
contratado
convencerlo
coo@@
correspond
cortesía
cosmos
covers
creativa
creerá
cros@@
crucial
cruda
cruelty
crust@@
cré@@
cta@@
cto
cuadrada
cubrir
cuidadosos
cuidara
culp@@
curb
cuén@@
cuñado
cál@@
cómodas
dación
dam
dea
deas
deaths
decapit@@
decepcionó
decorate
dejamos
delegados
delivery
demanding
dente
deprived
derrite
derrotado
descalzo
descon@@
desconcertado
desconocidos
describir@@
descubrí
desempleado
desesperada
desnudos
desorientado
destruida
desvan@@
devast@@
dew
dialed
dictatorship
didas
dieran
differs
dignidad
diligent
dimitir
diploma
discutido
disfraz
disfrutado
disfrutan
disfrutó
disliked
disposición
disturbed
disuadi@@
diversidad
divertirme
dness
dney
domé@@
donated
dou@@
dre@@
dreadful
dressing
dryer
duermas
dumped
e4
echarme
eché
eck@@
eda
edible
eficiente
eighty-@@
electr@@
electrones
electronic
elementary
eléctricos
em
embrujada
empap@@
empezamos
empezará
empeño
emphasis
encantador
encantados
encargo
encontrarla
encontraría
encounter
endieron
enemiga
enes
enfadados
enfo@@
entendieron
enteré
enveje@@
enviaré
eraser
erec@@
ergy
erle
ertos
eru@@
erup@@
erupción
escapes
escoger
escolares
esconde
escondi@@
escribas
escribieron
escribirle
essness
estacionamiento
estate
estima
estimated
estru@@
eth
euro
eved
evolved
exactitud
exce@@
execu@@
exerci@@
experimentos
expi@@
exposed
expulsado
extended
extrañé
ezca
ezco
facultad
fagot
falsi@@
faltas
faltó
familiarizado
famine
fantasy
fantasía
fashi@@
faucet
feathers
fera
fertiliz@@
ficado
figs
filling
finge
fingernails
fingerprints
fingiendo
fino
firmemente
flame
float
florero
fluidamente
fobia
focused
fondos
fools
form@@
fraud
freed
freezer
fregadero
frescos
frightening
frustrated
fumas
fundada
fundó
fuse
fó@@
fórmula
fós@@
gardener
garme
gast@@
gastando
gations
gatita
gel
gg@@
gica
gin
globos
gol@@
gotas
graduación
gramaticales
gramos
graphic
gravity
great-grandfather
habili@@
hablarme
hacerla
hada
hagáis
hair@@
har
haste
heading
hed
heights
helpless
here@@
hermanito
hind@@
hipo@@
hoarse
hospitali@@
hubieran
humedad
humill@@
iPod
icos
id@@
ien@@
igned
illo
illos
immature
imparcial
impecable
impermeable
impi@@
impide
imports
impu@@
ination
incompetent
indig@@
indignado
inesper@@
inexcusable
infarto
infección
informó
inged
ingenieros
inglesas
iniciar
inicio
inmen@@
insiste
inspiration
inspired
institu@@
inta
intensa
intentaron
interpretación
interpreted
interrog@@
interrump@@
interrumpas
intolerant
intui@@
inund@@
invento
iones
ith
iti
iva
ized
jab@@
jamos
jardinero
jate
jero
joyería
judging
junta
justify
juzgues
kings
kite
labio
ladas
laguna
lamentable
lamentarás
landscape
lary
lastimarte
lavas
legi@@
lemonade
libremente
lida
ligeramente
lim@@
limonada
litro
lla@@
llamara
llanto
llenas
lleves
llá@@
lows
lucharon
lungs
lus
lú@@
mados
maduras
magical
magician
magnífica
manteca
mantel
mantenerte
mantu@@
maquil@@
mara
maravilla
marea
martial
masti@@
mation
mau@@
meadow
meditación
memor@@
mencionar
mendigo
mentales
mentar
mentí
mereces
messed
mete
meteor@@
mid-@@
miko
miracles
miseria
misterios
mit
molestado
monum@@
motivated
mour@@
movements
muchísimos
mun@@
munici@@
mur@@
muralla
mushrooms
musicians
musulmana
máxima
móviles
navaja
near@@
neat
neglected
negociaciones
neur@@
noslo
notar
noted
novias
numerosos
obeyed
obligatorio
observación
obstacles
oca
occasionally
occidentales
ofender
offers
officers
oh
ols
olvidadizo
olvidarlo
olvidaron
omit@@
onal
onas
oral
organizar
organize
originales
orilla
orinar
oría
osi@@
osidad
oto@@
overwhel@@
oía
pagaré
pain@@
pame
pandemic
panel
parks
particip@@
pated
patin@@
patrón
peaches
peacock
pedias
pegar@@
pela
penguin
penis
perce@@
perdedor
persecu@@
persistent
persu@@
persuadi@@
persuasi@@
pertenencias
pese
petals
phem@@
physi@@
pierdes
pio
planeas
plano
planting
playas
pled
pleno
plunged
pod@@
poe@@
polacos
pomo
portero
porting
posing
prayer
precisely
predicción
prefi@@
preocupaciones
presentimiento
pressing
prettier
primary
priori@@
probador
professors
prometes
pronombre
protest
proven
proverb
pulsar
pup@@
quemar
querrá
questioned
quie@@
quin@@
quitarme
rabo
rancho
range
rascacielos
rayas
raíces
reaches
rece
reclu@@
recogni@@
recordaba
recortes
recuperación
referred
refiere
reflects
reflexión
regalé
registro
regresará
relevant
rellenar
reluctantly
remera
repetirlo
repi@@
repisa
repu@@
reser@@
reservado
resor@@
resume
retirar
reto
revolves
rezar
rid@@
ridicu@@
riqu@@
rme
robada
robe
rocío
rodeada
romano
rome
rompiste
ronco
route
rowing
ruidos
ruining
rusty
s-@@
sabéis
sage
salarios
sandía
saque
saqué
scaras
scenario
scratched
scu@@
sembró
senses
senti@@
sentirme
seremos
servant
sesos
sharing
sharpen@@
shelves
shepherd
shit@@
short@@
shots
shovel
shud@@
sico
sidad
silbar
silenciosamente
sintieron
sinvergüenza
sional
situated
sivamente
sivas
sivos
sizes
siéntese
slammed
slices
smelled
sne@@
socialist
socialista
softly
soltar
soluciones
solutions
sometido
sorprendi@@
sorprendidos
sorprendí
sospechaba
sospechosa
soñé
soñó
spar@@
spill
spinach
spreading
squeeze
starving
stará
steady
stir
stry
stuffed
stupi@@
subestimes
subir@@
substitu@@
succes@@
sucediera
sucks
sufrido
suici@@
sung
supervivencia
susp@@
suspendió
suspicion
susto
swim@@
sym@@
symphony
tablet
tano
tap@@
tarot
tarás
tato@@
technical
teen
tembl@@
tendrías
tenth
teorías
terco
teros
terrorists
teñ@@
teó@@
tha@@
theories
thetic
thinner
tide
tigo
tili@@
timo
tista
titude
tiéndose
tolerante
tomaría
tontas
torn
tortilla
towels
towns
tra
trabajes
tractor
tradicionales
traductores
traj@@
transformó
transparente
traté
travieso
tribu
trom@@
trueno
tró@@
tude
turca
turcos
turtles
tuyas
twenty-five
typewriter
uigur
ulu
undone
undressing
unforgettable
unit
unpredictable
unwilling
urgentemente
vaccinated
vainilla
valioso
vanilla
var@@
vean
vehicle
velo
venció
vesti@@
veter@@
vey
viajo
vieras
violet
virgin
visitantes
vitamin
vitaminas
vitamins
vuelves
vuél@@
ván
wandered
wanting
weary
wheels
wl
worthless
wrapped
year-old
yel@@
yields
zan@@
zanahoria
zorros
ácti@@
árabes
ésimo
ína
íralo
ófono
órganos
ú
​
&apos;all
&lt;
0,000
194@@
1969
19th
2006
8th
9.@@
Absolutely
Actu@@
Acá
Air@@
Ala@@
Alaska
Aprendimos
Apun@@
Apúrate
Arctic
Aver@@
Avísame
Ayuda
Az@@
Blue
Buddhist
Bye
Campeonato
Cele@@
Cerré
Chicos
Cien
Classes
Cold
Comenzó
Compraron
Compro
Consí@@
Cook
Copa
Crime
Cuento
Cur@@
Daddy
Debí
Declar@@
Dejen
Desayuné
Descubrí
Detente
Diana
Dibú@@
Dilo
Disfru@@
Divide
Dob@@
Dre@@
Echa
English@@
Esco@@
Escoge
Escucho
Estuvieron
FIDE
Favor
Fore@@
Gané
Gasté
Georgia
Getting
Going
Gold
Grandfather
Grandma
Hag@@
Har@@
Harías
Heat
Hmm
Hollywood
Honesty
Hopefully
Hora
Hueles
Háblame
Ice
Imperio
Inglés
Internacional
Jesucristo
Joh@@
Johnny
Jor@@
Juegas
Julio
Kaby@@
Kiss
Ko
Kyushu
Lan@@
Lau@@
Lift
Llegas
Llévate
Logr@@
Looks
Lou@@
Lower
Lá@@
Mel@@
Mem@@
Mez@@
Mierda
Milan
Mongo@@
Ms.
Must
Má@@
Naciones
Natur@@
Necesitás
Negro
Nile
Nilo
Norwegian
Orwell
Other
Out@@
Pagaré
Paso
Peel
Pep@@
Phi@@
Pide
Posiblemente
Prize
Pude
Q
Quita
Recoge
Regresa
Revi@@
Rh@@
Richard
Russians
SIDA
Saca@@
Salud
San@@
Seamos
Seriously
She@@
Siendo
Sing
Social
Sou@@
Spi@@
St.
Stal@@
Studying
Sucedió
Sup@@
Supe
Sus@@
Tai@@
Television
Tendrá
Terminaste
Thus
Tom@@
Ton@@
Torre
Trataré
Uni@@
Usualmente
Uyghur
Vení
Verdaderamente
Viajar
Viniste
Vot@@
Whales
Wipe
Wouldn
X.
Z
aband@@
abandonan
abducido
abhor
abhor@@
abolida
abomin@@
abordar
abound
abriera
absorbs
abundante
acababa
acabaron
acari@@
acces@@
aconsejo
acos
acostarse
acostumbrarme
acosté
actores
acumul@@
adar
addressed
adecuadamente
admiration
adoran
aer@@
agotando
agradables
agradecer
ajes
ajustar
al-@@
alber@@
alivi@@
aliviar
alleg@@
alojar
alrededores
alucin@@
americanas
amounts
amplio
amé
ancy
anfitrión
antigüedades
anxiety
aparcamiento
aparenta
aparentemente
apetec@@
aprendemos
apresurado
apuro
apuros
arañ@@
arbusto
ardiendo
arreglo
arrestó
arroj@@
arroyo
artistic
asegurarme
asen
asign@@
asoci@@
asombr@@
asthma
astronomers
asumir
asumió
ataques
atoria
atraer
atrevo
atta@@
auda@@
audio
audí@@
aumenta
auriculares
australiano
averiado
awfully
aé@@
backup
bacterias
bag@@
bancarrota
baratas
barber
barked
basi@@
bate
bañar
bble
bebía
beggar
bel
beloved
besarla
bic
bienvenidos
bimos
bitter@@
blas@@
blessing
blocks
blue@@
bole@@
bombones
bor
botones
bour@@
braces
bran
brandy
brate
bribed
brome@@
bubble
bucear
budista
burlaron
busin@@
básica
cachorros
cad@@
cago
calcetín
calculated
callada
callejón
calmed
calmly
calurosa
cambiarlo
cambiarse
canilla
cansó
cantado
cardi@@
cardí@@
carica@@
carreras
cart
casero
casilla
casts
católica
católico
caver@@
cayendo
cazan
cede
cerebral
cerezos
cerrando
certificado
chant@@
chap@@
chasing
chemos
chips
chon@@
choosing
chur@@
chón
cier@@
cigar
cilla
cip@@
circul@@
ciru@@
civiles
cker
ckers
ckle
classi@@
classmate
clever@@
clic
clon@@
clubs
clá@@
co-@@
cock@@
codi@@
codos
cogieron
col
colgando
coloniz@@
colorful
columna
combinación
comenzarán
cometen
comma
communities
comodidad
competición
competir
comporta
comportarse
comun@@
comunicar
concedió
concor@@
concrete
condemned
conectar
confli@@
confundió
conocéis
conquered
considering
consolar
constitution
consulte
consumes
contam@@
continental
contribuciones
conversaciones
copiando
cordero
cordones
corr@@
corrupción
corruption
cosiendo
creéis
creés
cristales
crow@@
cruci@@
cula
cultiva
cumpl@@
curiosos
cus
cuscús
cuñada
cállate
cáscara
cón@@
darlo
database
decepcionar
decidimos
dedu@@
defecto
defraud@@
degrad@@
dejaras
delicada
delicado
deliciosas
demandas
dent@@
dentes
denunci@@
dera
desayunado
descal@@
desear@@
desmor@@
desol@@
despegar
desperdi@@
desperdiciar
despertarme
despierte
destro@@
desventajas
desvi@@
detenerlo
detenga
dibu@@
differ@@
digno
dij@@
dimensional
dimientos
dings
dioxide
direct@@
directorio
discos
discouraged
discrimin@@
discrimination
disgustado
disgusted
disparos
display
disputa
distr@@
dium
divides
dividida
dividido
divorció
dióxido
dling
dolorosa
dormir@@
dormirse
dosa
dragged
dudes
duros
dye
dímelo
e-mails
e5
eada
earing
ecería
ech
echaba
edlo
egas
eight-@@
ejas
elec@@
elevado
elsewhere
embrollo
emente
emotion
employed
employment
emptied
emáti@@
encantó
encen@@
encerró
enchuf@@
enciende
encías
enders
endless
eness
enfu@@
engaña
engineers
enigma
enre@@
enro@@
entendería
entendiste
entran
entraste
entusias@@
entusiasmado
envejec@@
enz@@
equality
equivocadas
equivocarse
er-@@
eradi@@
erizo
erlas
err
escalo@@
escaparon
esconder@@
esconderme
esconderse
escondidos
escondí
escrib@@
escribes
escribiera
escribirme
escribiste
escribía
escuchan
escuche
eslo@@
espant@@
esperen
espina
espléndida
estimate
estornudar
estrecha
estropeado
estudiaba
etings
eventos
examinar
excepcionalmente
exceptionally
exclam@@
exhilarating
exigente
existed
expects
expedición
expedition
expense
experiments
explore
expose
extravag@@
extremos
eza
fabulous
facial
fade
fall@@
fantástica
farmers
farted
fascinantes
fear@@
fees
fenómenos
feroz
ficit
fiddle
fijado
firmar@@
fiscal
flamen@@
fle
floja
flore@@
fonos
forgets
formula
foros
fraude
fresa
frescas
frito
frágil
fulfill
fundamento
furro
fuéramos
fé@@
fú@@
g-@@
galaxies
gallego
ganancias
gané
gara
garanti@@
gardening
garte
gase@@
gasolinera
gather
gaz@@
gaze
gement
ght-@@
ghter
gi
gic
glanced
globe
glori@@
gobernador
gobi@@
gobierna
gono
governed
gra
graciosa
granada
grape@@
gree@@
greed
greet
grises
guió
gums
gunshot
gur@@
gutter
habituado
hablaría
habré
haci@@
hacés
hail
halla
hambruna
hare
healthier
heartfelt
heir
hemisfer@@
heroes
hiciese
hiciéramos
hierve
high-@@
hiking
hinchado
hipócrita
honored
horr@@
hospitalidad
howling
hueco
hunde
hunted
hí@@
ible
ical
ico
ideales
ido@@
idén@@
igualmente
imagino
imanes
impartial
impo@@
imposed
impresionar
imprud@@
inal
inappropriate
inau@@
incluido
increíbles
indefen@@
indica
indicar
indicate
indirect@@
individuos
indul@@
influenci@@
informar@@
inga
ingeni@@
ingo
inició
inmortal
inno@@
innumer@@
insensitive
insom@@
instant@@
instructor
intends
intentamos
intentaré
intentaría
intente
interminable
internal
interrup@@
intrigued
invali@@
inversión
investigadores
invitaste
iny
ists
itable
itch
iting
jack@@
jese
jueguen
jugué
justificar
jón
keeper
kimono
kins
lab
label
ladores
ladr@@
lanes
langostinos
lanza
lated
leaf
lear
lectores
leftover
lesbian
levantan
levantes
lingü@@
liter
lito
lizó
llamarla
llegaba
llegaremos
lleguen
llevarla
llevaría
lli@@
lluvioso
locales
logi@@
lograron
lolli@@
loso
luchó
lumin@@
ly-@@
madman
madrastra
madur@@
magnificent
maintained
manif@@
manufac@@
marcas
marchado
mares
marina
marrying
marshmallows
masculino
masks
massive
maste
matemáticos
mato
mayúscula
mecan@@
mecá@@
medicación
medicines
mejore
melas
menospreci@@
menta
mentiría
mentiste
meo@@
mera
merecen
metales
meth@@
mia
minerals
mirarlo
mism
miso
misunderstood
mite
mito
monta@@
morder
mostrado
moun@@
mped
mpi@@
mueble
mundos
muscles
muscular
mué@@
mática
naciste
navideña
neas
necesarios
nega@@
negativa
negoti@@
negotiations
nerviosos
nevó
nia
niñera
noción
noob
noodles
nostalgia
nouns
numb
obliged
obsole@@
obtiene
occa@@
ocultó
ocuparme
odiado
ods
ofensivo
ofrecer@@
olive
onable
one@@
open@@
operating
opi@@
organic
organs
orian
originated
otic
ous@@
ovni
oy
oysters
pagaron
pagaste
pagos
pagué
pal
palma
palos
pandemia
parade
parezco
parlantes
participated
parto
pasadas
pasajero
pasarás
pastel@@
pati@@
patiently
patriot
patriota
pearl
pedía
pelando
peligros
peluche
pend@@
penguins
perdidos
perdonó
perejil
perfectos
performed
perseverancia
petri@@
physician
physicist
pierdo
pigeon
pillado
pillaron
pilo@@
pingüino
pipa
pis
piss
placeres
planeaba
plantado
plantar
platillo
ply
podrido
pollu@@
polución
polí@@
popu@@
popularidad
portar
posi@@
posses@@
posted
predic@@
preguntan
preguntaré
prejuicios
prende
prepararme
preserve
presidential
prestarle
presumir
previ@@
prim@@
primaria
prints
privilege
privilegio
proce@@
proced@@
profes@@
profesion@@
programación
promote
propa@@
propi@@
proporcion@@
proverbio
proves
proyec@@
prud@@
psiquiatra
psychiatrist
ptica
pts
puer@@
pulmones
puntillas
purchased
puré
pusi@@
pálida
pétalos
quarters
quedaste
quemé
quero
quet
quienquiera
quitting
racional
raciones
radios
rank
rapid
raras
realizes
recibimos
reclam@@
recomen@@
reduced
referencia
refiero
reflejo
refre@@
regional
rehú@@
relacionado
relacionados
relativamente
remedi@@
remedios
rencor
repeti@@
repite
reportero
representan
representative
represents
reproductor
republic
requi@@
resbaló
rescate
resignation
resistencia
respetuoso
resultaron
resultaría
returning
revelar
reyes
reímos
rhe@@
ripped
ris@@
robar@@
robbers
rou@@
round@@
rub@@
rubbish
ruidosos
run@@
rust
rying
rábanos
ríamos
ró@@
sable
sabroso
sacudió
salgamos
sanguiju@@
saques
scent
screwdriver
script
seguidas
seized
selection
seme
sened
sentarnos
seo
sers
severo
shadows
shampoo
shi
shoelaces
shore
sicos
sigui@@
sil
silab@@
silb@@
sili@@
sincer@@
sirvi@@
sister-in-law
situada
sized
siéntate
sk
skeptical
sleep@@
slippers
sloppy
sn@@
snail
snails
sneezed
sneezing
sober
sobrado
sobresaliente
sobrevivieron
sock
sof@@
sonri@@
sorprendentemente
sospechas
spec@@
spin
ss
standard
stare
staron
starte
starve
step@@
stepmother
stiff
stroll
stung
sty@@
submit
subscribe
subtítulos
subur@@
suceden
suces@@
sudar
sueña
suizo
surname
swine
syllab@@
sólida
tabla
tad@@
tage
tardar
tatar@@
temples
tengáis
tensa
tenue
tering
terminaste
tero
tes@@
thunder@@
tirse
tismal
tividad
toallas
tolerar
toothache
toquen
torture
traducidas
traeré
trajeron
tranqui@@
tranquilidad
transmitted
trap@@
tratan
traía
triangle
tribe
trimmed
trompeta
tropical
trot@@
tré@@
tumb@@
tuoso
tural
técnicas
técnico
témonos
ubica
udado
ues
ultra@@
uncertainty
uneasy
unido
union
unirse
united
unión
unsure
upper
urbana
usamos
utter
vaga
valen
valentía
valu@@
varies
vegan
veintidós
vence
veni@@
vicio
vidad
viewed
vig@@
villain
vinos
violenta
visitan
visitaste
visito
volunteers
volv@@
volvemos
volviste
vom@@
vu@@
válido
vámonos
w-@@
wages
wards
ware
weeping
welfare
wicked
winds
withdraw
worlds
wri@@
yoga
ywhere
zaré
zmente
zones
°
Ártico
áni@@
áti@@
éli@@
énfasis
ét@@
íb@@
€
--
-dijo
-out
10.000
119
180@@
1941
1956
1972
1976
1984
1998
1999
2-@@
2000
2004
2008
2014
42
89
Academ@@
Accidents
Acepté
Acostumbr@@
Adam
Agre@@
Akira
Albania
Algerians
Algiers
Ama
Amanda
Ander@@
Andr@@
Andá
Aprove@@
Argel
Argentinian
Arnold
Astron@@
Back
Bali
Beat
Bir@@
Biwa
Blessed
Bot@@
Bowl
Bun@@
Burn
Butter
Callate
Cambridge
Careful
Cat@@
Catalan
Championship
Chec@@
Cla@@
Cock@@
Come@@
Comencé
Comparado
Confes@@
Confieso
Confía
Const@@
Constitution
Consul@@
Consumes
Contin@@
Cra@@
Cruz
Cuenta
Có@@
Cómete
Dam@@
Davis
Demo@@
Democracy
Derr@@
Descans@@
Dio
Disfruto
Divi@@
Dragons
Dude
Díganme
EE
Ear@@
Edad
Elvis
Empiezo
Empire
Encontraron
Encu@@
Engañ@@
Enví@@
Escú@@
Estarías
Euro@@
Exactamente
Experience
Exprí@@
Felicidades
Filiberto
Fl@@
Flowers
Focus
Francamente
Fri@@
Friends
Fun@@
Funciona
Ga@@
Galicia
García
General
Giraffes
Glenn
Glo@@
Golden
Graham
Greg@@
Habiendo
Hablan
Hacen
Heather
Hip@@
Hunger
Hyogo
Iceland
Icelandic
Imag@@
Ishmael
Islamic
Islandia
Jason
Jessica
Jump
Jur@@
Kal@@
Kathy
Kazak@@
Koko
Kylie
Liberen
Lie
Liren
Llá@@
Lock
Logré
Lola
Luke
Lárgate
Marruecos
Media
Merry
Messi
Minogue
Mirad
Miren
Miró
Mol@@
Mom@@
Morocco
Muchísimas
Muhammad
Mum
Murieron
Musk
NASA
Nadar
Nag@@
Naomi
Neptune
Neptuno
Nick
Nintendo
Northern
Oil
Ok
Olvídalo
Orden@@
Organiz@@
Otro
Oyes
Oímos
Parecen
Parks
Parra
Pascua
Pensás
Perdiste
Perfec@@
Permane@@
Philidor
Pido
Pit@@
Pién@@
Poetry
Poli@@
Police
Politicians
Potter
Poverty
Practi@@
Presidente
Press
Primer
Pru@@
Putin
Párate
Querías
Rafael
Recently
Reconozco
Reina
Rellen@@
Resulta
Revolución
Rick
Romania
Sabíamos
Sadako
Sapporo
Saudi
Sayoko
Scrooge
Seis
Seize
Set
Seville
Shar@@
Sherlock
Shibuya
Shishir
Sici@@
Sientes
Siete
Six
Skype
Smile
Solíamos
Sophi@@
Spirit
Sugar
Sysko
Terminemos
Terr@@
Tommy
Tracy
Traducir
Trang
Travel@@
Twelve
Tí@@
Unas
Universe
Universo
Vac@@
Vari@@
Vayan
Vegas
Vendemos
Vendrás
Verdad
Viena
Vienna
Vietnamese
Viol@@
Vivía
Volvi@@
Vote
Váyanse
Waiter
Wel@@
Whom
XXI
Yam@@
Yuri
Zamboanga
Zeus
abanico
abbreviation
abdominal
abrazar
abren
aburrió
academic
accesorios
accessories
accounting
accredited
aceleró
acercarse
acerque
acertijo
acher
achievement
acimiento
acog@@
acompañaré
acompaño
acord@@
acost@@
acostarte
acre@@
acuer@@
acuesto
acusando
adaptó
admiro
admission
adrede
advantages
adverbios
adverbs
adverti@@
advertido
aeroplan@@
afectado
aga
agachó
agotador
agotó
agresivo
ahogado
ahogarse
ajena
alam@@
aleg@@
alegremente
alejó
alemanas
alg@@
aling
alito
alization
alle@@
alley
almacén
almuer@@
alos
altered
amateur
ambiental
amisto@@
amó
analgé@@
anchor
ancing
andén
anglo@@
angu@@
anon@@
ansiedad
antemente
anteri@@
anthro@@
antigüedad
antiques
anunció
apaci@@
apasionadamente
apoyar
apoyes
applies
aprendo
apretar
aprobará
apunta
arbitr@@
ardu@@
argelino
armonía
arrastró
arregla
arrestaron
arruinado
arth
ascend@@
asegura
ashi
ashi@@
asistieron
asistió
assem@@
assignment
asting
astro@@
asustarte
atado
atajo
atal
atem@@
ater
aterrori@@
athle@@
aton@@
atracción
atrapar@@
atrevió
auti@@
autoestima
automatic
autores
ava@@
avanzada
avanzado
avergonzada
avestru@@
avo@@
avoi@@
awak@@
ayo
aza@@
azos
bacon
balanc@@
balanced
ballet
bankrupt
bata
bath@@
bauti@@
baña
beautifully
beba
bedtime
beliefs
believing
belongings
bendiga
berry
besaron
besarte
besaste
bidas
bielor@@
bir
bla@@
blemente
blessed
bloo@@
blows
boa
boarded
bofetada
bold
bombil@@
bores
bouquet
boy@@
brass
breasts
breathed
breeze
brightly
brillantes
brillar
brushes
buddy
bull@@
burbu@@
burl@@
burlarse
busco
buzz@@
bú@@
cacahuates
cafe
cafeteria
caigo
calabaza
calentando
calificaciones
calificado
calmente
calories
camisetas
campesino
candidates
candidatos
cansa
capturado
capu@@
capítulos
caracoles
característica
caram@@
carbon@@
care@@
cargos
carpa
carros
casan
case@@
casu@@
cata@@
catastrophe
catchy
cautiv@@
cavando
caviar
cejas
celda
celebración
cenamos
cente
cepill@@
cepillando
cería
cesa
challenged
chamber
champagne
champi@@
chan@@
chaos
chapters
chec@@
chimney
choque
chulo
cicatrices
ciclo
cientas
cies
cifras
cione
cirá
civilized
clam@@
clapped
claros
claustro@@
clerk
cló@@
cocino
coherente
colap@@
colds
collabor@@
colonia
combination
comedia
communism
compares
compassion
compe@@
competitions
complac@@
complicadas
concentration
concerns
concerts
conditioning
conducía
conduzcas
conferencias
configu@@
confin@@
confías
conocidas
conocés
conocían
conozcas
conquer
conseguirlo
conseguirte
consentimiento
consequence
considerablemente
consideras
consolar@@
const@@
consti@@
consumed
contagioso
contara
contenedor
convencida
converted
convicted
corras
correspondencia
corrieron
corte@@
costaría
coste
costo@@
couscous
cracy
cradle
craft
crap
crawling
creían
criada
crip@@
criticar
cruces
crueles
crías
cuidados
cuidaré
culpas
culpó
cultivo
cultivos
curfew
curly
dage
dalt@@
damages
damned
dared
dañado
deadline
dealt
deando
deberíais
debéis
debían
decade
declare
deco@@
defenseless
definir
dejaran
deletrear
deliciosos
demostrado
demuestra
dencia
dentistas
depart
dependienta
deposit
deriva
derived
dero
desaf@@
desam@@
desayunando
descend@@
descifrar
describes
despec@@
despensa
despidan
desplo@@
destinado
destornillador
desvaneció
detenerme
deva@@
diabetic
dial
diamonds
diarrhea
difieren
digna
dijimos
dimensions
diminu@@
diplomatic
diplomático
directed
dirás
disk
dismo
disorder
disposal
dissatisfied
disteis
diversity
diversos
dme
docenas
door@@
dosis
doso
download
drag
drained
dreamer
drin@@
drowsy
drum
drun@@
drá@@
duch@@
duelo
dueños
décadas
ebri@@
edora
educational
ef
egg@@
egos
eighth
eing
electrician
electricista
eleventh
ell
elling
elogi@@
elogio
elor@@
emails
emocion@@
empar@@
empezaba
empi@@
empres@@
enamoradas
encaja
encerrado
encoura@@
endiendo
enfado
engañan
engañes
engre@@
enloque@@
enoja
ensu@@
entenderás
entenderías
entendiera
entro@@
entusi@@
envied
environmental
erais
erg@@
erna
erno
erro
errónea
ert
escar@@
escucharon
escur@@
esen
espaci@@
espec@@
específica
esperándote
espesa
espin@@
espu@@
estabais
estallar
estan
estaríamos
ested
estor@@
estra
estropeó
estructuras
estudiaste
estupendamente
estupideces
etapa
europe@@
exagger@@
exam@@
excelentes
exceptions
excu@@
excur@@
existing
experimentar
explique
expuls@@
extracted
f-@@
factor
fails
fare
farmacéutico
fasti@@
fat@@
fatter
feminine
fenómeno
fic
fidelidad
fieles
fig
fij@@
fijó
finals
fire@@
fireplace
flaco
flavor
flaws
fleas
flor@@
flowed
flown
forgave
formation
forme
foro
forzó
fragile
francesas
freckles
frust@@
fulness
fumadores
futbol
galleta
gambling
ganan
ganarse
gang@@
ganse
gena
genoci@@
gentileza
geometry
geometría
ggling
ghten@@
giera
gigantes
gila
gim@@
gle
gobiernos
good-bye
gorrión
gotea
gradualmente
gramaticalmente
granos
gratitud
gratu@@
greenhouse
grounds
guera
guts
géneros
habernos
habitu@@
habitualmente
hablaban
hablabas
hablaré
hablase
hacernos
haceros
hala@@
halfway
hawk
headphones
heals
hears
heli@@
hens
heredó
hesitation
hidro@@
hiere
hipocresía
historic
historietas
ho
holgaz@@
homes@@
hondo
honorable
horneó
horri@@
hospitality
hot@@
humi@@
humid
hurricane
huéspedes
hígado
ice-@@
icon
ideals
igh@@
ignora
ignorantes
ignoring
igüé
ilegales
illnesses
imitating
impacientes
imprimir
improv@@
impuesto
incendi@@
inci@@
incid@@
incomo@@
incre@@
increment@@
incu@@
incómoda
indicarme
indiferencia
indoors
iner
iner@@
inevi@@
infantiles
infi@@
inflam@@
inflexible
ingenio
injustamente
injusticia
inmaduro
inmediata
inolvidable
insists
instinto
instintos
insu@@
insults
intentan
interfi@@
intervino
intimi@@
introdujo
ints
invernadero
involucrados
inyección
ion@@
irritante
irritated
ish@@
items
itor
ium
ión
jacta
jale
joven@@
judicial
jui@@
justamente
karate
kisses
km
knot
koala
laboral
landia
last@@
legend@@
leisure
lenses
leñador
liberado
liberal
limones
lings
lipstick
livia
llamados
lled
llegarán
llenar
llevarnos
lloras
lord
lotion
lti@@
lum
lógico
madness
mage
magi@@
magne@@
magnetic
maldita
mandatory
manej@@
mangos
manifestación
mantengo
mantuvieron
manuel
manzano
maní
maratón
maravillas
marchar
marci@@
mare
marinero
mashed
matarte
materno
matri@@
meditando
medium
meg@@
melt
melting
menti@@
mentirosos
mercancía
mesas
metres
mic@@
micr@@
microondas
microwave
mida
mides
migrat@@
minas
minifalda
mirarme
mire
mista
models
moderni@@
modest@@
modified
molecular
molestarme
moment@@
montado
monó@@
mordida
moron
mortalidad
mouths
much@@
mug
mular
murmurando
mutu@@
mutuo
narro@@
naughty
negar@@
negotiate
neo
nephews
network
nevado
neys
nidad
nineteen
niñito
nocturna
nod
noruego
notable
noticing
noun
nuisance
numbing
ní@@
nó
objection
obligados
observó
obstinada
obstáculo
oceans
odiar
oficin@@
oficio
ofrecieron
oks
oma
omelet
omin@@
onia
onó
operar
operated
opongo
oportuno
opri@@
opuestos
orbit@@
organizada
orios
oscureciendo
oscuros
ostras
oth
oun@@
ouse
owners
oí@@
oímos
oírme
pacientemente
pagas
pajar@@
palideció
palmada
panor@@
papaya
para@@
parados
paranoico
pararme
paras
parcel
parcialmente
parsley
part@@
partículas
paste
patri@@
patron@@
pedest@@
peeled
pegarle
pein@@
peine
penicil@@
pent@@
percató
perci@@
perdona
perdóname
perjudicial
permitiré
perpetua
persistente
persuadir
pertin@@
pescando
petrol
pharmacist
phenomenon
picky
piensen
pierced
pizca
plague
plantó
plumber
pobl@@
pointless
pollos
polluted
ponerla
pong
porción
porn
porno@@
porquería
portamos
ported
precaución
pregún@@
prejudice
premature
preocupe
preparadas
presas
presentado
presionó
pretendo
prevents
principle
prioridad
probabilidad
probando
producing
programmer
programming
progresos
prohibida
prometedor
pron@@
prono@@
pronoun@@
proporciona
propose
propuestas
prot@@
protecting
prudente
psico@@
publicó
puentes
puñado
pú@@
públi@@
q@@
quedaban
quedaros
quedase
quejan
quejándose
quick@@
quilos
quinta
quitarse
quito
rada
railroad
rase
rash
ratito
razonar
readers
realistic
recen
recesión
recibieron
recipiente
reconci@@
rectangular
reforma
refugi@@
regalar
reinfor@@
reject
relajarse
relatively
relieve
religiosos
rellen@@
reluctant
relám@@
rem@@
reme
remoto
reparación
reparó
repeating
repleto
rescató
reservas
respectful
respiro
respondas
responsibilities
restr@@
reti@@
retirement
retroc@@
reunir
rewrite
rhythm
rian
riddle
rido
rily
risen
risked
rla
rle
rob
ron
rotas
rover
rubber
ruidosa
ruler
rá@@
ríes
saban
sabremos
sacarme
sacaste
sación
sacu@@
sages
sailor
salchi@@
salgan
saltando
salvavidas
sangrar
satisfactoria
saucer
scattered
schol@@
scoundrel
sculp@@
se-@@
sealed
second-@@
sede
sediento
seeks
seguras
seguí
sela
self-esteem
sels
senior
sens@@
sensibles
sep@@
separadas
separar
servidor
serían
serías
seven@@
severamente
sexto
shameful
shameless
sharpen
shaves
shaving
shift
shops
show@@
siembr@@
sigas
signature
significan
silbato
silencioso
silently
sinfonía
sirviente
situations
slim
smooth@@
snore
sobrepeso
solitaria
solu@@
sombreros
sonado
sophisticated
soport@@
soporta
sorcer@@
sospechosos
sostiene
soñaba
sparrow
spelled
spera
sphere
spil@@
stam@@
stante
statistics
stically
stiendo
stimulation
stirred
stormy
stressed
stron@@
structures
subscription
subsi@@
subtitles
suburbs
suc@@
suf@@
suggesting
sui@@
suministros
sunbathing
superado
surprisingly
suspi@@
swept
swi@@
sílabas
símbolos
sóli@@
tablas
tablecloth
taburete
tac@@
tacaño
taining
tanos
taras
tardó
taria
tarios
taro
teasing
templos
temprana
tempted
tenerlo
tenos
teriores
terminal
terminaron
termines
termómetro
territor@@
terrorist
tetas
thermometer
thin@@
thorn
threatening
throne
tiburones
tira
tiri@@
tirme
tocas
top@@
topics
tormentas
torn@@
torpe
tou@@
tradiciones
traerme
trajes
tranquilamente
tranquilos
translators
transmi@@
trau@@
travelled
trembling
tribu@@
trim@@
triunfo
troll
trono
tropezó
trou@@
tub
tuberculosis
tubo
tumor
turb@@
tured
turismo
tuviese
typically
typing
tés
tían
udos
um-@@
unacceptable
unció
unding
unir
unirte
unity
unmarried
urero
urged
uros
use@@
uten@@
utilizando
vable
valiosa
valiosos
valor@@
vamente
vations
vayáis
ventilador
verses
vertebr@@
vertió
vessel
veterinarian
videojuego
vido
vigoroso
villagers
violini@@
virtual
virtudes
visitando
visitarte
volado
volcan@@
voluntariamente
vomitó
votes
wa
warnings
weighed
wept
whore
wink
winked
witnessed
wned
worldwide
wra@@
wrink@@
yawning
zapatillas
Ésas
ál@@
áspera
él@@
ícula
ífico
ísimas
ísimos
ñendo
ógicamente
órbita
óxido
úes
úne@@
‘
₂
-fi
-speaking
..
0.000
0.@@
15th
1933
21st
3,000
6-@@
97
AIDS
Abandonó
Aceptamos
Acer@@
Actúa
Adelante
Adivin@@
Adri@@
Agar@@
Agarra
Ah@@
Airport
Alej@@
Amazonas
Ando
Anteayer
Antártida
Apunta
Aquello
Aquél
Arab
Arthur
Asegúrese
Asians
Attention
Augusto
Austrian
Averigu@@
Avoid
BM@@
Bats
Benjamin
Best
Breakfast
Cali@@
Caminando
Catalonia
Cheer
Chick@@
Clap
Coke
Comen
Comeré
Comió
Communi@@
Comple@@
Consiguió
Contact
Contest@@
Control
Conver@@
Convers@@
Cosas
Costa
Cumpli@@
Currently
Cál@@
Dadme
Decidieron
Decidme
Decile
Def@@
Dejamos
Dig@@
Diga
Diviértete
Drinking
Driving
Díselo
EU
Ele@@
Emp@@
Empi@@
Empty
Encontró
Enough
Entendí
Entramos
Escuchamos
Escuchaste
Escúchame
Esperanti@@
Estudió
Exper@@
Faltan
Far
Federal
Feeling
Ferdinand
Filipino
Foreign
Fra@@
Friendship
Fuego
Ganó
Genial
Grammar
Hak@@
Helena
Hol@@
Hombre
Honestly
Idi@@
Imposible
Increíble
Indeed
Indi@@
Industrial
Invité
Ismael
Ivan
Jerusalem
Jew
Joan
Jordan
Jud@@
Jugué
Kill
Kur@@
Lamentamos
Lava@@
Leaving
Lego
Lem@@
Len@@
Lend
Leonid
Leyó
Lightning
Llamaron
Llegaremos
Llo@@
Lloré
Llámalo
Luxem@@
Límpi@@
López
MA@@
MS
Maj@@
Mam@@
Marcos
Markku
Marriage
Marti@@
Mediterráneo
Memori@@
Menudo
Mes@@
Millions
Milán
Mini@@
Moisés
Mostrame
Muéstreme
NO@@
Nacional
Neg@@
Nomás
Non@@
Observa
Ojo
Olví@@
Olympics
Olímpi@@
Ox@@
PM
Palace
Partido
Pasemos
Paz
Pensar
Persian
Perten@@
Peru
Perú
Philosophy
Pl@@
Potatoes
Practice
Praga
Prague
Prefer@@
Preferirías
Pretendo
Prometió
Promise
Prove
Prué@@
Pruébate
Pí@@
Póngase
Quechua
Quer@@
Querían
Quisi@@
Quit@@
Rabbits
Relax
Repite
Resol@@
Respect
Respira
Rest
Revisa
Rock
Royal
Rápido
Saldr@@
Santiago
Sem@@
Senti@@
Shanghai
Shin@@
Shoot
Shouldn
Sigan
Silencio
Slo@@
Slova@@
Small
Smo@@
Sosten@@
Sto@@
Sube
Subimos
Suele
Suje@@
Supongamos
Supuse
Taking
Taste
Tea
Tele@@
Tenían
Terminó
Tomar@@
Tomaste
Traffic
Tranquilo
Twenty
U.@@
USSR
Unlike
Upper
Usamos
Vais
Varias
Vemos
Visitamos
Vivió
Ví@@
Was@@
Workers
Working
XV@@
abad
abandonaste
abot@@
abrace
abrasive
abre@@
abreviatura
absorción
absorption
abstracta
abundantes
aburriendo
aby
aby@@
acabamos
acadé@@
académico
aceptan
acompaña
acordaste
acostumbrarás
acredi@@
actured
actúan
acumu@@
acus@@
addi@@
adelgazar
adla
adly
admirar
adore
adul@@
aduras
adv@@
advances
adversidad
adversity
advertencia
advertencias
aero@@
aes@@
afecto
afectó
afeita
afilada
afin@@
afirmó
afli@@
afortunados
afri@@
africano
afrontar
agarré
agradan
agrade@@
ahorrado
alegrará
alergia
algas
aliado
alim@@
alimentación
alistic
alizing
allig@@
almacen@@
almuerza
alousy
alphabe@@
amarga
amen@@
ament
amistosa
amplia
anci@@
andu@@
angered
aniquil@@
anj@@
announce
annoy
anor@@
anual
apague
aparecen
aparecerá
apasionado
aped
apologies
appearances
applying
apprehended
aprovec@@
apt
apto
apuesta
apuestas
argent@@
ariamente
arma@@
arose
arpa
arregle
arrestada
arriesga
arrog@@
aseo
asesinatos
asesinó
asfixi@@
asociación
aspiradora
assu@@
astero@@
astic
astr@@
astronomy
asustan
asy@@
atacados
aterr@@
ato@@
atrajo
atraído
atrevas
atropella
attle
attraction
aul
aus@@
ausent@@
ausentes
australi@@
autograph
auxili@@
avanzar
avaricia
awareness
ayuntamiento
añade
banderas
bands
bankruptcy
barn
bathe
batt@@
battles
bayas
bañando
bañarse
bby
behaving
believable
bellos
bendi@@
bi
bibliotec@@
bida
bidos
billar
binarie
biografía
blackma@@
bladder
boast
bocado
bolas
boundaries
boxe@@
bran@@
browser
bursting
businessman
buttons
bárbar@@
básicos
búhos
cabi@@
cacahuetes
cachorrito
cagar
calam@@
calienta
callados
calzado
camarones
cambiaste
camellos
caminamos
camiones
campanas
canas
cancelada
candado
canela
cani@@
cantidades
canvas
capitalism
capturing
caracol
cariñ@@
carlo
carrot
cartel
carved
catarro
categ@@
caterpillar
catálogo
cayera
cease
ceased
cedes
cedieron
cello
celulares
cemento
centígrados
cere@@
cerezo
cers
certificate
chaba
challenges
cheer
chemist
chewed
chilly
chofer
chorus
chronic
cicli@@
ciosos
circum@@
cit
cket
ckets
clarinete
clasi@@
classic
clean@@
clearing
cobertizo
cobre
cocinado
coco
coco@@
cojo
colador
colapsó
colmo
colony
colorblind
comandante
combatir
combinan
comenzará
cometo
cometí
comics
comience
comis@@
commander
companion
comparación
comparison
compañ@@
compañera
compensa
competente
complaint
comprendió
comunidades
conceal
conced@@
concluded
concluyó
condenaron
conducción
condujera
conf@@
conform
confron@@
confundí
confusa
congelada
congreso
conmoción
connections
conocieras
conocías
conqu@@
conquista
conquistar
consci@@
consumado
contaba
contarme
continuamente
continúan
contribuyó
controla
controlarse
convencí
conveni@@
conversando
convin@@
convirtieron
copas
copiar
copied
corporal
correctos
corres
corresponden
corrigió
cortarme
cortes
cose@@
cosechas
costado
costume
cotidiana
coño
cracia
crat
crawl
crawled
creepy
creerla
creído
crimin@@
critica
crows
crun@@
cruz
cuarta
cubrió
cuidadosa
cuidarte
culparte
culturales
cuneta
curó
cut@@
cuter
cycles
cycling
cáis
célula
céntrico
cían
dal@@
dañar
debili@@
decades
decep@@
decepciones
decida
declarado
declarar
decorating
defined
definición
definition
dejarle
dejarías
dejase
delegates
deliberately
delight
delightful
demon
dencial
dencias
dent
dential
dentífrico
dependable
dependen
dependiente
depression
derrotó
desacti@@
desaparece
desaparecer
desastres
desayunó
descansa
descompuesto
deseó
desgar@@
desi@@
designs
desocupada
desorden
despiad@@
despised
despistado
despla@@
despo@@
destrucción
det@@
detectar
deterior@@
detesta
devils
devolveré
devorado
devuelto
deó
dging
diab@@
diagno@@
diecinueve
diferenci@@
difi@@
dimensiones
dimisión
disappe@@
disciplina
discreet
discutimos
disgust@@
disobe@@
dispone
dispute
distor@@
dive
divorciaron
dles
dobló
doctr@@
doomed
doras
dormirme
dormían
dotes
double-@@
dove
dramaturgo
dren@@
drinkable
drums
ducharme
ducho
duración
dure
dá@@
dándole
eaba
eado
earliest
earth@@
eater
echamos
económicas
económicos
edición
edition
educados
educar
ees
effec@@
egan
egipcios
egoí@@
elbows
elect
eled
elegir@@
eling
eman@@
embarrassment
emer@@
emite
emocionados
empa@@
empanadas
empapado
empeñ@@
empleada
enabled
encargaré
enchufe
encienda
enclosed
encogió
encontraban
encountered
endowed
endure
energetic
enfades
enfríe
engañando
engañoso
enig@@
enjoyable
enmar@@
ensuci@@
entan
entenderle
entendéis
enteras
enteró
enthusiasm
entrando
entrenando
enviaron
epidem@@
episo@@
epí@@
equivalent
erected
erradicar
escalado
escapa
escaping
escombros
escondas
escondieron
escorpi@@
escribirlo
escucharme
escucharte
esforzó
esia
espan@@
españolas
específico
espejos
esperabas
esperaron
espinacas
espléndido
essly
estafa
estatura
estias
estrategia
estudiara
eter@@
eternamente
ethi@@
ethnic
eties
europeo
evange@@
eve
eventu@@
evita
evitando
ex-boyfriend
excep@@
excessive
exci@@
existido
exp@@
expansión
expen@@
explorar
explored
explotar
extension
extermin@@
extraordinaria
extre@@
extrema
fallado
faltar
fancy
fart
fascist
fascista
fashioned
fasten
fastidia
feli@@
feri@@
ffed
ffer@@
fi
fiancée
fili@@
fills
finlandés
firmado
fisher@@
flags
flesh
fling
flipped
flowing
foggy
folks
fono
forks
formada
formó
founder
fracasar
frankly
frecuentes
free@@
freeze
fregar
fres@@
frost
frustrado
fted
fugi@@
full-time
fume
func@@
fundamentales
funds
fíes
gale
galletitas
garantiza
gasté
gaviotas
gel@@
gemela
generales
generar
generate
generosa
genre
gent
geo@@
gger
ghten
ghtened
gifted
gladly
gluten
golpeando
gordos
gorro
gover@@
govern
graduarse
gramatical
grammatically
grant
graph
grip
guaranteed
guerrero
guided
guil@@
gul@@
gullible
gura
gustara
habiendo
hablará
hablás
habrán
habrás
habrías
habértelo
hacha
hacéis
hai@@
han@@
handful
hanged
hangs
harmed
harmon@@
hat@@
helicópteros
heno
hide-and-@@
hipopó@@
hipótesis
histórico
honestos
hopeless
horn
host@@
hostia
housewife
hubieses
hubiéramos
huella
huelo
humanas
huérf@@
hydr@@
hypo@@
hía
ial
ians
ición
identi@@
ight
ign
im
imag@@
importación
importado
impresion@@
inaceptable
inate
incapacidad
ince
inces@@
inch
inches
inclined
inde@@
indeci@@
indeciso
indigenous
inero
infiltr@@
inflation
informes
ingenu@@
ingos
ingredient
ingual
inherited
iniciativa
inoc@@
insatisfecho
inseguro
inser@@
instalar
instaló
insultos
intelec@@
intentos
interrumpir
intervened
intest@@
intu@@
inténtalo
invas@@
invest
invested
invol@@
irresponsible
irrita
irían
islandés
islá@@
israel@@
istic
ite
ití
iving
jaros
jelly
jiste
jió
jor@@
journal
jubiló
judgment
judía
juegue
jugábamos
junior
juntar
ken@@
ker@@
key@@
kg
kilo@@
kilogram
kindergarten
kitty
kiwi
kn@@
knights
knit
labor@@
lacking
lagos
lamentar
largely
lasting
lates
lating
lavabo
lavan
layer
lazo
lead@@
leaders
leaks
lealtad
lecho
leerla
leo@@
lesbiana
levantaron
levántate
ley@@
leyera
liars
licking
lider@@
like@@
limita
limpieza
lion@@
llado
llamarlo
lloro
lloviera
lluvi@@
locks
lodo
logrará
lograste
lones
lor
lorry
lón
m-@@
madly
magnets
magnífico
mama
manada
mandarín
mandíbula
manguera
manifestantes
mansion
mantenerme
mantenimiento
mantis
mapas
maps
marathon
maravillosas
marcharte
marchit@@
margar@@
margen
marine
marion@@
marvelous
mascar@@
mascarilla
mastered
matarla
matarlo
materias
mbres
mechanics
mecánica
medioambiente
meditation
mejorará
melancholy
melocotones
memorizado
menstru@@
mensual
mentally
mentos
merced
meri@@
mexi@@
mezclar
midad
mili@@
militar@@
milk@@
minus
miraban
mirado
mirrors
misteriosa
mm
modelos
molestarte
molesten
molestó
monitor
monje
morimos
movido
mple
mudarme
mudaron
muela
muestras
mueven
multilingual
multilingüe
municipal
murmu@@
muros
nac@@
nar
nata
natur@@
navegador
necesarias
neerlandés
neos
net@@
never@@
nical
nicely
nidos
nio
niñ@@
nomás
non-binary
non-native
normalidad
nou@@
novatos
nurses
objected
obligaciones
obligatoria
obr@@
obs
observation
obstacle
obstinate
occupation
oci@@
ocular
ocupación
ocupar@@
ocuparé
ocurriría
océanos
ofre@@
ofrecer
oje@@
ole@@
oled
oligar@@
oliva
olo
olvidarme
olvidas
olímpi@@
oming
onic
onio
onna
opener
oppose
organ@@
orient@@
orientación
originally
oruga
osis
oslo
outward
overtime
paces
pagamos
palillos
panels
pantalón
panties
paquetes
paraca@@
paragraph
pararon
parecida
parli@@
partly
pará@@
pasados
pasaré
pases
patadas
pause
pañal
peacefully
pecas
peda@@
pegaj@@
pelean
pelliz@@
peluquero
peluquería
penas
percibido
percibir
perdemos
perderse
perdonarme
pere@@
perez@@
perfu@@
perla
permitirse
perpe@@
pertur@@
perturb@@
pesadas
pescadores
pessimistic
pest@@
phobic
picado
picas
piden
piedad
pintada
pion@@
piro@@
pistolas
pit
pitch
plancha
plantando
plati@@
pleaded
plum
poderosos
podri@@
pointing
polen
policemen
policies
polyglot
políglota
pon
pony@@
popularity
porcel@@
porno
portrait
portó
poseen
poses
positiva
positivos
possessed
postcard
pow@@
pox
pp@@
ppers
practices
preced@@
precipicio
preferible
prenda
prendido
preocupas
preocupen
preocupéis
preparatoria
prescription
presentaron
presentation
prestigi@@
preva@@
previously
prin@@
privados
privi@@
proble@@
procedimiento
procedure
profesoras
profeta
profits
programador
prohí@@
projects
prometí
promo@@
promover
pronombres
proportion
proposición
prostitu@@
protegerte
proteins
protested
prácticas
pt
pudding
pudieran
puestamente
pulmon@@
pulpo
punch
puntuación
puppies
puñ@@
párrafo
pérdidas
pésima
pón@@
qua@@
quantum
quedaremos
quemado
quep@@
ques@@
quisición
quisiste
quitando
races
rack
racy
railway
raises
ral@@
ramos
rapi@@
raptado
rasgu@@
reaching
reas@@
rebaño
recession
recoge
recognise
recognition
reconsider
recording
recurso
redondo
redund@@
refer
reform
reforms
refriger@@
refugees
regarding
regresado
regó
relajante
reli@@
relied
remaining
remar@@
rene@@
renew
repararlo
repos@@
rese
residents
resistente
respal@@
respetado
respir@@
respira
responda
respondiste
responsabilidades
resuel@@
retirado
retirarse
retr@@
reuni@@
reveal
revela
revelado
reven@@
revisó
rez
rezó
reí
ribs
rida
rinocerontes
rios
ronron@@
rot
royal
rubble
rubias
rudo
rum
rung
sabrosa
sacado
safer
saladas
salado
sales@@
salon
salva
salvarla
salve
sanos
santa
saul@@
scal@@
scales
scalo
scars
scholar
scol@@
scraps
scratching
screams
sea@@
seal
secar
secundario
seduce
seed
seguidores
selas
semejanza
senci@@
senger
sentencia
separación
separates
separó
sepul@@
seri@@
servants
sett@@
settlement
severa
sexi@@
sexually
señ@@
señas
shack
shalt
shattered
shel@@
ship@@
shortcut
shre@@
shri@@
sical
sier
sierra
sigamos
sigan
sigh
significante
simil@@
simios
simp@@
simpáticos
simultaneously
simultáneamente
sinceramente
sinceras
sinónimo
ski@@
skull
slip
smartest
snapped
sob@@
sobrio
socialismo
sofo@@
solely
solitary
somno@@
sonata
sorts
sounding
speeding
splashed
spotted
spra@@
spray
spying
ssy
stag@@
stand@@
standards
starved
stat@@
statues
stepping
sticado
stical
stingy
strangely
strategy
stration
strikes
stripes
stur@@
sture
subieron
subí
sucking
sudo@@
sue@@
sufren
sugerencias
suggestions
suicid@@
suited
suponer
supplied
surfing
surroundings
suspicions
suspiciously
sust@@
sustantivo
suyas
swag@@
swore
syllable
syllables
symbols
sé@@
sólido
tably
tacti@@
tained
tals
tanque
tarlos
tarro
teased
techno@@
tecno@@
ted@@
telef@@
temporalmente
temporarily
tenedores
tenor
terrestre
terrifying
than@@
thee
theless
theme
thers
thes@@
threats
throwing
tictac
til@@
tiremos
tirnos
tissue
tiñó
tocarlo
toilets
tomaba
toneladas
tornado
tortas
torturado
tos@@
toso
tosos
tracks
tradi@@
tragar
transgender
transport
transportar
transportation
tranvía
tratados
trauma
tray
tre
trico
trin@@
tripa
triángulo
trol@@
troubled
truenos
tuales
tulipanes
twi@@
udas
ultras@@
uncia
underestimated
underwater
unexpectedly
unicor@@
uninsured
unirme
universitaria
uplo@@
uras
urban
ury
usados
usarla
usaste
ute
vales
valía
vani@@
varones
varón
velo@@
vencer@@
venida
veno
venían
veranos
verga
verlas
versos
vese
vian
vict@@
violación
viru@@
visibles
visitaba
visitante
visitar@@
visitaron
visitaré
viv@@
void
volaba
volverán
válida
váter
vér@@
waf@@
wage
warrior
was@@
wash@@
watch@@
watering
websites
wee@@
weed
wheelchair
whining
whiskey
wis@@
wisely
with@@
wreck
xenopho@@
xes
yace
yan
yawn
yegua
you@@
yp@@
za@@
zaban
zebras
º
Échale
Ú@@
áb@@
ábaco
áctica
ái
ámica
ámoslo
ánea
ánica
ésos
ístico
ólico
úe
-M@@
-in-law
-looking
-year-old
....
.5
0,@@
03
1.000
1.5
10th
123@@
180
1865
189@@
1921
1957
1963
1970
1975
1983
2.5
2.@@
2001
2002
2015
256
3.5
3000
456
5,000
53
54@@
776
85
86
AC
AT@@
Abrió
Abró@@
Acepta
Actions
Acércate
Adol@@
Afterwards
Again
Ages
Ahorita
Al-@@
Aliment@@
Allah
AlphaZero
Alquilamos
Alzheimer
Aléjate
Amamos
Android
Andromeda
Andrómeda
Angola
Antoine
Ao@@
Apar@@
Aparte
Apples
Aprenda
Aproximadamente
Apár@@
Aquellas
Arm@@
Army
Aside
Atlanta
Atraves@@
Aviv
Ay@@
Bajé
Basi@@
Batman
Beautiful
Beber
Belarusian
Bernie
Bieber
Bin
Bon@@
Bonaparte
Borges
Boris
Bou@@
Bre@@
Bread
Bridge
Budapest
Bulgarian
Butterflies
Bá@@
CIA
CO@@
Cantemos
Cariño
Carla
Carmen
Carry
Cerrá
Channel
Charlotte
Chemi@@
Chilean
Cir@@
Click
Coma
Commun@@
Compraré
Comprueba
Conocemos
Conocen
Conseguimos
Contemp@@
Copy
Coun@@
Cover
Cristiano
Cristo
Cuelga
Cuidaré
Cómprame
Cú@@
DE@@
Damiano
Dana
Dear
Debéis
Declaración
Degas
Dejar
Dejaré
Dejaste
Delhi
Deli@@
Demasiado
Dep@@
Department
Der@@
Desayuno
Descartes
Deseas
Desgraciadamente
Despi@@
Despiértame
Detrás
Dibuja
Dig
Digas
Digo
Dil@@
Dino@@
Discutimos
Disfruta
Disfruté
Done
Dosto@@
Dubai
Duermo
Duolingo
Dámelo
Elec@@
Eleg@@
Elegimos
Elisa
Ellen
Emet
Emmet
Empezaremos
Empezaron
Empú@@
Enci@@
Encuentro
Enero
Enfr@@
Eng@@
Enseñar
Enseño
Enter
Envíame
Escal@@
Escribid
Escribir
Escríbeme
Ethi@@
Eurovision
Examine
F
Felipe
Fer@@
Ferris
Fight
Firefox
Flavio
Flor@@
Francis
Fred@@
Frenchman
Fro@@
Fría
Fíjate
Física
GPS
Ganar
Ganaron
Garry
Geor@@
Goodnight
Got
Gran@@
Grand
Guadal@@
Guam
HIV
Hablaba
Hacia
Had@@
Hal@@
Hamilton
Haremos
Harrison
Hawking
Hin@@
Hiro@@
Hiroshi
Hit
Homo
Honey
Hunting
Huyó
Ichi@@
Ignorance
Ikeda
Imperial
Inst@@
Intentaba
Inténtalo
Invite
Ir
Irás
J
JavaScript
Jen@@
Jenny
Jerusalén
Jon
Judaism
Juegan
Justin
Kabu@@
Kaoru
Kasparov
Kazu@@
Kelly
Kemal
Kevin
Kis@@
Kit@@
Klingon
Knowledge
Kumi
L.
LGBT
Larry
Lavé
Law
Lay
Lean
León
Lili@@
Lily
Liszt
Lloro
Lon@@
Loosen
Louis
Lucas
Luci@@
Luk@@
Lunch
Ly@@
Lyn@@
Mancha
Manila
Mantu@@
Manténgase
Manuel
Martín
Masao
Masaru
Medellín
Mejor@@
Met@@
Mich@@
Might
Millones
Milton
Minecraft
Miroslav
Mont@@
Moses
Mostr@@
Mumbai
Murphy
Nagano
Nahuatl
Necesitaré
Necesitáis
Ner@@
Net@@
Nig@@
Nikko
Nina
Norteamérica
Nuclear
OE@@
Ocu@@
Ocul@@
Ocur@@
Océano
On@@
Opino
Or
Oranges
Ordena
Orle@@
Oscar
Owls
PC
Pal@@
Palestina
Palestine
Pará
Peli@@
Perder
Peters@@
Petunia
Pigs
Pisa
Piz@@
Pizza
Plant
Plant@@
Plants
Plat@@
Poca
Pod@@
Pongo
Power
Pray
Premio
Preparé
Preten@@
Pretty
Primera
Probé
Proust
Pré@@
Pull
Pusi@@
Pyth@@
Pásen@@
Quantum
Quedan
Querrías
RA@@
Rather
Ray
Recién
Rein@@
Renaissance
Repe@@
Respeto
Respondió
Reyes
Rob
Saber
Sahara
Saluda
Salú@@
Samsung
Samuel
Saqué
Sas@@
Sasayama
Satanás
Schopenhauer
Schubert
Scottish
Sec@@
Shh
Shit
Short
Siberia
Sir@@
Sleeping
Sloven@@
Snow
Sobrevivi@@
Soldiers
Some@@
Spread
Stan@@
Statue
Stir
Stupi@@
Sud@@
Suelta
Sul@@
Summarize
Suppose
Switch
Taiwán
Talking
Tamori
Tardé
Technology
Tel@@
Tes@@
Tha@@
Tho@@
Thou
Through
Tig@@
Tirana
Tit@@
Tomen
Trabajan
Trabajó
Trans
Translating
Truman
Turks
Twi@@
U
UK
URSS
Unidas
Using
Valencia
Vasilissa
Victoria
Victory
Vie@@
Vienen
Vig@@
Vinci
Vinimos
Visitors
Vuel@@
Váyase
W
Walking
Watching
Watson
Weren
Whit@@
Wik@@
Wild
Windows
Within
Woe
Wolves
Won@@
Wri@@
Writing
Yard
Years
Yiddish
Youth
Zel@@
Zhuangzi
Zuckerberg
aa@@
aardvark
abacus
abandonaré
abecedario
abiding
abolido
absent-minded
absorb
abstinencia
abstuvo
aburres
abuses
abusive
acabes
acampar
acatar
accidentalmente
accommodated
accord
accordance
accoun@@
accuse
acepté
acercaba
aclarar
acles
aconsejé
acontecimiento
acquaintance
acri@@
acróbatas
actors
actualización
acuarelas
acuerdes
acumulado
acurru@@
acusaciones
acusación
addic@@
adds
adel@@
adelanta
adelga@@
adhes@@
adicta
adizo
adjetivos
adjunto
adle
adol@@
adon@@
adventures
ady
affir@@
aficiones
afirma
afterward
agawa
agency
agers
ago@@
agra@@
agradecemos
agricultura
airmail
ajedrecistas
alcanzarlo
alcohólica
aleat@@
alimentando
alimenti@@
alists
almac@@
alman@@
almo@@
almorzó
alon@@
aloud
alter
amarte
ambigu@@
amigable
amp
amue@@
analizar
ancha
ancho@@
ancies
ancés
andro
angles
ango@@
angusti@@
anillos
animados
antas
antelación
antepasados
anun@@
anunciado
aparatos
apareciera
apartó
apertura
aplaudió
apodo
aposta
appeti@@
applauded
applause
aprenderás
apresuró
aprovech@@
aproxima
apruebo
aps
apurado
arduamente
ari
ark
armar
armpits
arrange
arrebat@@
arreglár@@
arrepentir
arrepintió
arresto
arro
arter@@
asado
asal@@
ascendido
asegu@@
asegurarse
asegúrate
asent@@
asesin@@
asesinaron
asesinos
asing
aso@@
asol@@
aspect
assembly
associated
association
asteroid
asteroide
astonishing
astronautas
asylum
atari
aterrorizado
athe@@
ational
ativas
ativos
atreve
atropel@@
attempts
attending
attentive
attentively
atus
audio@@
aur@@
auth@@
authori@@
auto-@@
autodidacta
autoridades
autorizado
aventón
avoids
ayudaba
ayudaste
azgo
bailaba
bailó
bait
bajado
balo
barbacoa
bargain
bastantes
bathrooms
beasts
bebieron
beggar@@
belly
berenjena
beverage
bie
biscuits
bishops
bita
blando
bloqueado
blossom
boasted
bode@@
bol
bombar@@
boobs
bookshop
boot
boredom
bota
botched
bras@@
brick
broad
broadcast
broccoli
bronca
brujas
brujería
bruscamente
brusco
buce@@
buddies
buen@@
buf@@
bugging
bunk
buque
buscamos
busqué
butcher
básicamente
básicas
básico
cabal@@
caben
cabina
cabre@@
cadu@@
caerse
caes
cafés
cala
calefactor
calentar
calmar@@
calo
calorías
caluro@@
camar@@
camarera
cambiamos
caminas
campeona
campera
canoa
cansadas
cansé
cantaban
cantara
características
carav@@
cardboard
carded
cardin@@
cargado
carpeta
cashier
categoría
cates
caña
ceb@@
cebras
celebramos
celebrando
celebration
celebró
ceno
centavo
centavos
centen@@
certeza
cesto
chados
champán
channels
chapo@@
characterized
charcos
charging
chatted
cheese@@
chense
chester
chirri@@
chita
chivo
chooses
churches
cidades
cigar@@
cinnamon
circun@@
citado
ciudadana
civilizaciones
ckered
clarify
clarinet
clim@@
cling
clogged
cm
coast@@
cobar@@
cober@@
cobi@@
cocinas
coconut
codifi@@
coinciden
colaboración
colec@@
colinas
colocado
colocar
colocó
comba@@
combined
combustión
comedy
comería
comiera
commitment
compartió
competed
compi@@
complejas
completas
compon@@
comprarte
compul@@
compulsivo
comunican
comunicarse
concentrarse
concentrated
concluir
conducido
conduzca
conexiones
confec@@
confu@@
confunden
confían
coni
conmovido
conne@@
cons
conseguimos
conseguía
considerados
considerando
consist
constelación
constellation
constituye
construye
construyen
consumption
contabilidad
contenía
conti@@
contradecir@@
contrataron
contri@@
controlled
conversión
coon
copper
coral
corpulento
corrido
corridor
corrompe
cortando
costas
costillas
cotille@@
cott
council
cow@@
cowar@@
cracked
crane
craz@@
creador
crean
creando
creativity
crecieron
creep
crezcas
critic
cross@@
crow
crudos
crystals
ctivo
ctora
cuadrados
cubeta
cud@@
cuervo
culos
culpabilidad
culpando
cultor
cun@@
cup@@
curre
cursed
cuyos
célebre
d4
dactilares
dadores
dai@@
daje
dalos
danés
daremos
darker
dations
daughter-in-law
daytime
debated
debieron
decirse
deció
deck
decline
decorar
dedicar
dedora
dedores
defenderse
defiende
definido
dejarla
dele
deletre@@
demandó
demócrata
deo
departam@@
deposited
depre@@
deprimida
depósito
derribó
derritiendo
derritió
derrotar
desafortunadamente
desaparición
desarrolla
desbor@@
descansando
descarga
descendencia
descompuso
desconcer@@
descubren
deseamos
deseas
desemboca
desesperación
deshacerse
despacho
despedi@@
despedidos
desplu@@
destrozado
destruction
destruye
detected
determination
devi@@
dex@@
diabético
diagonal
dialectos
dialects
diameter
diarrea
dicó
difunto
dijeras
dilla
dillo
dilo
dimension
dimensión
dimiento
dimin@@
dine
dirt
disadvantages
disasters
discover@@
discreto
disculparte
discusiones
discutieron
discutió
disda@@
diseñado
disgusts
dishwasher
dispuesta
distante
distributed
district
ditos
divertiste
divertí
diviertas
divina
divirtieron
diámetro
dob@@
doblando
documentary
doli@@
dom
domésticas
donate
doorknob
dorada
dormi@@
dormitorios
doro
doubted
doubting
downs
dragon@@
dresser
dromes
dump
duraz@@
déjalo
dóneme
eable
earnest
earning
earphones
earring
earse
eastern
eaves@@
eba.@@
ebr@@
ecas
echan
eci@@
eciendo
ecuaciones
eder
eder@@
edonia
educativo
egue
eira
ejecutado
electo
electrons
element
elfos
elite
elu@@
elá@@
embarazo
embotellamiento
embraced
embre
embro@@
emerged
emis@@
emocional
empan@@
empeora
empieces
emplo@@
empujar
enamorarme
enamorarse
encontremos
ener@@
enfermeras
enfr@@
enfri@@
engineering
enjuag@@
enlisted
enlo
enorgulle@@
enrique@@
enseñaste
enseñe
enterraron
enton@@
entregué
entreprene@@
entretenimiento
entristece
entume@@
entusiasmados
enviados
enviando
enviarle
envuelto
envía
enza
enérgi@@
eo@@
eos
equator
equivalente
erci@@
erizos
erry
esar
escand@@
escarabajos
escogió
escritas
escrí@@
escuchamos
escupió
esfera
esforzado
espagueti
espectadores
esperanti@@
espiritual
espos@@
espé@@
esquiando
esta@@
estal@@
estamente
estancia
estatuas
esterol
estly
estofado
estornudó
estrangu@@
estre
estribos
estudiamos
estudies
estímulos
etes
etheless
eton
ety
evacuate
evito
evitó
exagerar
exaggerating
excesivo
excitement
exclamó
exhau@@
existente
existiera
exoplanetas
expires
explanations
exponer
exports
extradi@@
extraer
extraterrestre
extrañamos
eyebrows
ezas
eño
fabricado
factores
factors
faded
faking
fallos
falsedad
falsos
faltaba
fanático
farms
farr@@
fasci@@
favor@@
favors
feast
femenina
fero@@
ferry
fic@@
fications
ficiente
ficios
ficti@@
figh@@
fijo
filipino
filthy
finance
fireman
firemen
first-@@
fit@@
flav@@
flechas
flee
fleet
floods
florecen
flori@@
flotar
flou@@
fold
follo@@
footsteps
forbid
forcing
formaron
fortress
fortunes
forzada
forzar
foxes
franque@@
frecuente
frenar
frequ@@
frey
frigo
frotó
frowned
frutillas
fty
fugaz
fulfilled
fumes
funcionaba
fundador
fundió
furiosa
furiously
furni@@
fursona
fusión
fuss
fá@@
físicas
físicos
gag
gaining
ganamos
ganancia
ganaría
ganlo
garant@@
garantizo
gebra
genas
gene
generations
genetic
genetically
genios
gently
geología
gest@@
ggle
ghtful
gias
giste
gly@@
gold@@
golon@@
golosinas
golpeado
golpes
good-for-nothing
gossi@@
governor
grabada
grand
graste
gratuita
gratuito
grave@@
greasy
grind
gritos
grocery
grosera
grotes@@
grown@@
grudge
grum@@
gráficas
guacamole
guardaespaldas
guieron
guis@@
guiso
gusano
gusanos
gustar@@
gustarle
gustaron
gí
haberos
hacker
hado
hairdresser
hairy
handled
hap@@
hartos
hay@@
healing
hechizo
heel
helicopters
hembras
hemis@@
heroína
hesit@@
high@@
himno
hint
hir@@
historial
homosexu@@
homosexuales
honestas
honor@@
honrado
hoo@@
hormiga
horny
horribles
horror@@
hose
hostile
hottest
household
huecos
hum@@
hut
hydro@@
hypocrite
húmeda
icono
idéntico
ier
ifi@@
ified
iglesias
igns
ili@@
illing
illiterate
illumin@@
imagina
imaginado
imaginario
imaginarme
immune
impe@@
imperio
imple@@
impredecible
impro@@
inability
incapaces
incau@@
incl@@
incompetente
incomplete
increases
incremento
independi@@
indescripti@@
indican
indicates
indios
indivisible
industrias
industries
inesperadamente
infinita
infinitamente
inflación
infli@@
informal
informar
informática
informáticos
infrin@@
ing-@@
ingada
ingeniera
ingeniería
ingrediente
inherit
inheritance
injustice
inmenso
inmune
inquie@@
inseparable
inspire
institute
instrucción
instruction
insulting
integr@@
intelectual
interesó
intern@@
interrumpirme
intersección
interviewed
intoxi@@
introvertido
intru@@
invad@@
invaluable
inven@@
invencible
inventada
inversiones
invertebr@@
invertir
invincible
involve
inyec@@
iris
irrelevant
irresponsable
irrit@@
ishes
ismos
ital
itario
itful
itores
ité
ives
iza
izing
izo
jaleo
jame
jarabe
jardinería
jarnos
jected
jimos
jodiendo
joining
jueces
jugada
jump@@
juntan
juntarse
kangaroo
kelp
kettle
kidnapping
kit
kit@@
kittens
klingon
l-@@
laboratory
lacrimó@@
ladi@@
ladró
lakes
lamb
lami@@
lane
lash
latina
latir
lavaba
lavarropa
lavé
lazi@@
leap
left-handed
legado
legitimate
len
lending
leness
leopar@@
lesionó
lest
lev@@
levantando
lib@@
libra
licence
ligente
limitaciones
limitations
limpiara
limpie
lined
lingüístico
lip@@
lish@@
listen@@
litera
litos
litros
liza
lizard
llamaban
llamaría
llegaré
lló
loaf
logan
logically
logists
losa
lous
lowered
lumbr@@
maciones
madas
maestras
mafia
mahjong
mailman
maintenance
maleducado
malinterpre@@
malvaviscos
mamente
manuf@@
mapache
maquin@@
marble
marcharse
marcial
margarina
margarine
maris@@
marke@@
markers
markets
marries
masacre
massage
masturbate
mat
matas
materialista
materialistic
mathematician
maths
mayo@@
mayonnaise
mayúsculas
mecano@@
mediados
medicinal
meditate
meditating
melanc@@
melo@@
melocotón
memorizing
mendi@@
mentación
mentirte
meow
merchant
merecido
merry
mería
mesero
metes
mexicano
midst
mienta
mighty
migr@@
migración
mill
mimado
miner
minero
minim@@
minori@@
minorías
misfortune
misterioso
mits
mobiliario
mock
molecu@@
molestan
molestas
monk
monotonous
moonlight
morirme
morirás
mortality
mostaza
mostrador
motel
motivation
motive
motor@@
motorbike
mous
mov@@
muda
mudar
mudé
muelle
mule
mulo
murder@@
murders
musi@@
mustard
mute
mán@@
médula
món
nacen
nami@@
naran@@
nau@@
naufra@@
navideños
necesitado
necesitarás
negarlo
negle@@
negociar
nership
newborn
nicamente
nitrogen
nitrógeno
nments
noble@@
nobles
nocturnal
non
nostálgico
notablemente
notion
numer@@
nutritious
náhuatl
oasis
obedece
obsequi@@
obsolete
obstinado
obtuve
occu@@
octavo
octo@@
oculista
oculto
odiaban
officially
offshore
oficialmente
ofrecen
og@@
ok@@
ological
ombligo
ond
oport@@
opti@@
optimismo
orate
organismos
organisms
organizó
ories
orig@@
orto@@
oscureci@@
oscureció
ost@@
otr@@
outer
outr@@
overlook
oyen
oyendo
oyeron
pague
paints
paja
pajarito
palabrotas
palm
paneles
panicked
pantry
panza
parara
pararse
pardon
parecería
parta
participantes
particular@@
pasatiempos
pass@@
passionately
patata
patinaje
patines
patron
pattern
pañuelos
pears
peas
peeing
pegadi@@
pegué
peli
pelot@@
pensab@@
pensaban
peoples
peppers
perfectas
persa
perseguido
perseverance
pertenecer
pesas
phenomena
photogenic
picnics
pidiera
piens
pig@@
pijamas
pilchas
pile
pill
pillo
pin
pint
pioneros
pisar
planeamos
planeo
planificación
plata@@
pleasures
pledged
pochoclo
podrida
pole
polish
polle@@
pollen
pony
poop
pope
popo@@
porch
porridge
portazo
portuguesa
portón
porvenir
posed
posesión
pospuesto
possession
post-@@
postman
potente
pour
powerless
prado
pre
precautions
precise
predicciones
prediction
prefec@@
preju@@
prejuicio
preocupaba
prepa
preparación
prescin@@
presentarme
preser@@
presid@@
presidencia
prestados
presume
prettiest
preven@@
primitive
priority
priv@@
profundos
progre@@
prometer
prophet
prosperidad
prosperity
prosperous
proverbs
province
próspero
psi@@
psíqui@@
pti@@
pub
publicada
pudiese
pulgadas
punctuation
puri@@
pushing
pér@@
píl@@
públicas
púrpura
queer
questi@@
quete
queue
quez
quia
quial
quisquilloso
quitaron
quitarte
quites
quité
quédate
quía
racism
racistas
raisins
rapidez
rates
reaccionar
reasoning
recado
recer
rechaza
recibiste
recic@@
recientes
recogerme
recogiendo
recomienda
reconocer@@
record@@
recorder
recorrer
recuerde
recuerdes
recuperarás
recy@@
recycled
red-handed
reference
refers
reformas
refuge
refund
regalado
regando
registered
regreses
rehear@@
rehenes
reign
rel@@
relevante
remodel@@
remol@@
rendirme
renov@@
rent@@
replac@@
reportes
representante
represented
reprobó
rescat@@
rescatar
resig@@
respirat@@
resuelve
retrete
reunido
reunimos
review
revisando
rigged
rindo
rinse
rip
ritual
roar
roast
roasted
roba
robados
robber
rolling
roncar
roomba
ropas
rui@@
ruleta
rumorea
rural
sacando
sacas
sack
sacri@@
sacrificed
sacudirse
sagr@@
saldría
salmón
salpicó
saltamontes
saluda
samurai
santos
saron
sati@@
sations
satisfactor@@
savage
scares
scaring
schem@@
sciences
sco
screwed
sculo
seagu@@
seasick
secretario
select
sendero
sends
sensibilidad
sentenciado
sentirás
seren@@
servar
seáis
sharpener
shell
shells
shire
shivering
short-@@
shredded
sibling
side@@
siembra
sigilosamente
significar
silbando
silvest@@
simili@@
simpatía
simplest
sinago@@
singular@@
sip
sirena
situado
six-@@
sió
skill@@
skipped
skyscraper
slam
smartphone
smen
snatched
sneak
snitch
snow-@@
snowfall
sobornar
sobr@@
sobren@@
sobrinos
sofi@@
solicitar
soluble
sombr@@
sonaba
sonreía
sonrojó
sonríes
soplaba
sory
sostienen
sostuvo
sought
soñador
spades
spher@@
spiritual
spreads
squeaking
stati@@
stations
steals
steam@@
sterdam
stered
sticky
stifled
stitches
stopping
stración
strangled
strated
streng@@
stressful
stret@@
stripped
stros
strugg@@
subas
subida
succe@@
sucesor
sud@@
suegro
sueltes
sueñ@@
sugerir
sugiero
summit
suntan
surf
surge
suspects
suspendieron
susurr@@
symphon@@
sá@@
sílaba
súbitamente
t-shirt
tacto
tailor
tally
taló
tamaños
tank
tantes
tated
teca
temblaba
temperamento
tempor@@
teness
tension
tentes
teras
terminando
terri@@
territorios
terse
textbooks
texts
teñido
th-@@
theart
therapist
thes
thic
thirty-one
thorns
thre@@
threaten
ticamente
tick
ticking
tiem@@
tientes
tighten
timid
timing
tirada
tirano
tirle
titudes
tiv@@
tments
tocan
todo@@
tolero
tomara
tomb
tongues
tonic
topó
torció
tore@@
toris
tornillo
tortura
torturaron
tory
tosas
traerá
traes
tragedi@@
tragic
traición
tranquiliz@@
transfer
transferred
transforma
transmitir
transparent
transporta
transported
traten
travelers
tray@@
treach@@
tremenda
tremendamente
trimestre
tris
trit@@
trivi@@
triz
trucks
tsunami
ttle
tubería
turnips
twenty-four
twist
twisting
tyrant
típica
tóxico
ual
ubicación
ubicado
ucraniano
ueba
ukelele
ukulele
uma@@
unaware
unbelievable
uncanny
und
undergo
undle
undoubtedly
unicornio
universitarios
update
urgencia
uri
urin@@
ushi@@
usto
utilizada
uza
vaccine
vaciones
vació
vagabun@@
vague
valdr@@
vampi@@
vampiros
vanidad
vasto
veins
veli@@
veme
venas
vendemos
vendrías
venenoso
veness
venís
verage
veres
verso
veíamos
viable
viajan
vicios
vide@@
vietnamita
villages
villancicos
villano
virtues
visions
visitarle
visor
volvamos
votación
votado
vías
wandering
warded
warming
wart
washer
weak@@
weasel
web@@
wei@@
wel@@
wh@@
whomever
widely
widespread
wines
wit
workshop
wrist
writers
yera
yidis
yielded
yle
yon@@
yor
yotes
zbe@@
zcamos
zer
zhou
zodi@@
zugzwang
zumbido
Ábre@@
Ángela
Éstas
álido
ándo@@
ándola
ángulos
ánico
éc@@
émosle
ésima
íd@@
íe
ír
ísticos
ñones
ógicas
ógrafa
ólogos
órtate
ö@@
úas
úl
ます
&apos;an
*
-all
-in-@@
-to-@@
.00
00,000
00.000
000,000
1988
20,000
29
3.000
4-@@
43
66
7.5
700
72
AC@@
ATM
Aardvarks
Aaron
Abo@@
Aborrezco
Acid
Acuérdate
Adver@@
Afganistán
Afghanistan
Aga@@
Agu@@
Agua
Agárrate
Ahorra
Alab@@
Alcohol
Alex@@
Alister
Alpha
Alquil@@
Amigo
Amor
Andrew
Anota
Antarctica
Apareció
Apart
Arabian
Aristotle
Aristóteles
Arri@@
Arriving
Art
Asistí
Atención
Atl@@
Atoms
Atrapé
Aví@@
Ayu@@
Babies
Bacteria
Bajen
Bast@@
Bat@@
Bay
Bear
Beat@@
Bebemos
Beer
Beg@@
Behold
Belarus
Belgi@@
Bienvenidas
Black@@
Bless
Brothers
Buscamos
Bébete
Camarero
Cantamos
Captur@@
Cat
Cenicienta
Champi@@
Chuck
Cinderella
Civil
Clas@@
Cogió
Colec@@
Cometiste
Compara
Compartimos
Comprendí
Coméis
Conduce
Conducir
Congress
Conocía
Considera
Consult
Continúe
Contra
Contribu@@
Conté@@
Cooking
Costó
Crecí
Crossing
Cuar@@
Cuéntanos
Cyrillic
Cógelo
Cóm@@
D.C.
Dal@@
Damas
Danish
Daré
Decidimos
Decime
Definitivamente
Dejadme
Dejo
Desayunamos
Despiér@@
Detén
Dol@@
Dondequiera
Dormimos
Dormiste
Drugs
Dry
Duck
Duer@@
Dulces
Dun@@
Durmió
Dy@@
Dígale
Eastern
Econo@@
Edi@@
Edu@@
Eduardo
Edward
Egyptians
Electric
Empu@@
Encuentra
Enseguida
Erdogan
Esca@@
Espa@@
Esperar
Esqui@@
Esteban
Esther
Estudiad
Eura@@
Evita
Exactly
Except
FIFA
Fant@@
Fast@@
Feel
Fern@@
Fi
Fili@@
Firme
Fle@@
Fol@@
Fold
Franco
Fres@@
Fridays
Fru@@
Fucking
G
Games
Ganamos
Gente
Gire
Giving
Glass
Goethe
Grace
Grita
Guide
Gustavo
Hablaron
Hablaste
Hacé
Hard
Hercules
Hill
Him
Himalayas
Hispanic
Histor@@
Hombres
Home
Hot
Hágame
Hércules
Imagination
Imagínate
Impossible
Improvi@@
Indonesia
Inhale
Introduce
Investig@@
Israeli
Itali@@
Jaco@@
Joder
Joseph
Joy
Julie
Kabylia
Kiev
Kin@@
Kings
LO@@
Lack
Later
Latinoamérica
Lava
Lei@@
Lejos
Lennon
Leon
Lev@@
Lib@@
Liter@@
Lithuania
Lituania
Llamaste
Llamen
Llamá
Llevaré
Llorar
Llovía
Logic
Lor@@
Lost
Luck
Lástima
Léelo
Mach@@
Maestro
Magellan
Magos
Mai@@
Master
Matar
Mateo
Matsu@@
Maté
Meanwhile
Meat
Meet
Micro@@
Miramos
Mississippi
Monkeys
Muerte
Mánd@@
Native
Natural
News@@
Nicar@@
Nieva
Niños
Noche
Nochevieja
Note
OVNI
Ottoman
Ou@@
PC@@
PDF
Paki@@
Palacio
Palestinians
Panama
Panamá
Pancracio
Parte
Pasado
Pasará
Patien@@
Pedimos
Pensó
Perdieron
Perdóname
Personalmente
Phar@@
Pho@@
Photo@@
Piedra
Pien@@
Piense
Place
Pleasure
Podía
Point
Ponle
Poné
Pos@@
Prefi@@
Pregunté
Prepare
Presi@@
Probably
Project
Prot@@
Publi@@
Pudiste
Quedarse
Quiet
Quite
Qur
Ramad@@
Raramente
Recibimos
Recibió
Reco@@
Reconocí
Recu@@
Reg@@
Regar@@
Renunci@@
Repent@@
Resist@@
Resu@@
Retro@@
Rodri@@
Rojo
Roman@@
Row
Rumania
Rín@@
Rómp@@
Saint
Saldré
Salta
Sancho
Scar@@
Screw
Sebasti@@
Segui@@
Sentate
Sep@@
Serías
Shinano
Shou@@
Sig@@
Signifi@@
Siria
Sk@@
Sla@@
Slavery
Sli@@
Slow
Smell
Sofía
Sostén
Spaniard
Spen@@
Squirrels
Star
Star@@
Stars
Strictly
Subí
Sudamérica
Sufro
Suger@@
Sujé@@
Superman
Supre@@
Supón
Susana
Syria
System
Sál@@
Tax@@
Tay@@
Teaching
Tech@@
Terrible
Testament
Testamento
Tocas
Toss
Traeme
Traiga
Tranquilízate
Translation
Trató
Treas@@
Tá@@
USB
Veis
Viajo
Viajé
Vikings
Vio
Vivís
Volamos
Vuelva
Wars
Web
WhatsApp
Wisdom
Wit@@
Zu@@
aba@@
abades
abandonados
abdi@@
abil@@
abilidad
abilidades
abofe@@
abogada
abrevi@@
abrirse
abru@@
abs
abueli@@
abuso
acabando
acabaste
academia
acampada
accumu@@
accurately
accusation
acel@@
acelet
aceptara
aceptará
acercando
acker
acompañarme
acompañará
acompañe
acordé
acostar@@
acostumbra
acostumbras
acquit@@
acreditación
acro@@
actitudes
activated
acumuló
acusada
adecuados
adillas
adivina
adjec@@
adjectives
adjusted
administration
admiraba
admirable
admiran
adopta
adoptaron
adorables
adulta
advertisement
advo@@
aeropuertos
afe@@
affor@@
afirmación
agarrar
agencia
agony
agradar
agradecida
agriculture
agujas
ahorcó
ai
airports
aislado
aisle
ajedrecista
ajetreado
ajusta
alac@@
albañiles
alcantarilla
alcanzaron
alco@@
alcoholi@@
alcohólico
alegró
algorithm
algoritmo
alities
alivia
alizando
allas
alled
allergies
alous
alternatives
alty
alum@@
aluminum
aly@@
alza
ambiguous
ambulan@@
amenazas
amentary
ami
amon@@
amongst
amuleto
analyzed
anca
ancestor
ancla
andes
andi
andra
andruff
anecdote
anilla
aning
anks
annihil@@
anotar
ansiosa
anted
anthem
antial
anticoncep@@
antine
antisemita
anyways
anzu@@
anécdota
aní
apago
aparcado
aparcó
aparezca
aparición
apio
aplausos
aplazado
apologizing
aprecia
apreciar
aprenderá
aprendieron
apres@@
aprieta
aprobada
apropi@@
aprovechó
apu@@
apuntar
apy
apó@@
ar-@@
arca
archaeo@@
arist@@
aritmética
armados
arquitec@@
arrangement
arrendar
arrepentido
arriesgar
arriesgó
arrows
arruina
arsonist
articu@@
artística
arándanos
asegurado
asesinar
asin@@
asistiré
asombro@@
asquer@@
assassin@@
assassinated
asser@@
assess
assist
assist@@
astrology
astrología
astronauts
asustar
atac@@
aterri@@
aterrizaje
ather
atist
atl@@
atraviesa
atrevi@@
attend@@
attracts
attributed
aturdido
atures
atí
audita
aunts
ausentó
austr@@
authentic
authorities
authorize
automovilí@@
automática
autén@@
autó@@
auxiliar
auxilio
auxilios
avanza
avanzó
averiguarlo
avisp@@
avispa
awaited
ax
ayudaras
ayudarás
ayudase
az
bachelor
baches
backing
bacteria
badminton
bage
bailar@@
bakes
bamboo
bambú
band-@@
bandas
bandido
bang@@
baptism
baraja
barbaridad
barbe@@
barriga
bas
basically
bastard
batall@@
batallas
bati@@
bation
batió
bañaba
bearing
bedridden
beetle
bells
belo
belonged
belén
beneath
beneficia
besarme
biased
bichos
bien@@
biendo
biera
bikes
bikini
binary
binocu@@
biography
bipolar
birth@@
bisabuelo
biste
bistec
bito
bitos
blade
blames
blan
blankets
bler
blinds
blink
blocking
bloque
blossoms
blow@@
bocadi@@
bocadillo
body@@
bodyguard
bolu@@
bombarde@@
booze
bot
bounds
bows
bragas
brasilero
brasileños
breath@@
brighter
brightest
brim@@
brindis
brisa
bromear
bronce@@
bronceado
brun@@
brócoli
bucks
bulli@@
bullying
bum@@
burla
buscarlo
bushes
buttoned
búlgaro
cacahuete
cagando
caigas
calami@@
calentamiento
callaron
calló
calmar
calzones
caló
camale@@
camelo
camines
campesinos
campfire
cance
cancer@@
cancha
cangre@@
cansando
cantaron
capit@@
carca@@
carcajada
carcin@@
carden@@
cargada
cargó
carnos
carp@@
casaré
caspa
castellano
castigados
catal@@
catalán
categorías
causada
cauti@@
cav@@
cañón
cederá
cel
celebri@@
celebrity
celery
celess
cell@@
celosos
cendental
ceniza
centu@@
cerebros
cerem@@
cerezas
ceros
cerraste
cest
chamele@@
characteri@@
chavo
cheap@@
chee@@
cheer@@
cheers
chera
cherries
chill
choked
chopsticks
chorizo
chubasquero
cid
ciempiés
ciente
científi@@
cierres
ciles
cionaron
cionista
cioné
circulación
circular
ciríli@@
cis
cisne
cister@@
citizenship
civilians
civilizations
ckwise
clas@@
clay
clear@@
clearer
cled
clings
clini@@
clones
cock
cocodrilos
cogi@@
coincid@@
coke
coleccionaba
colegios
collo@@
colonización
comadreja
comamos
combustion
comeré
comiences
committing
comod@@
comparar
compartirlo
comparto
compati@@
competen@@
competiciones
complicados
comportó
compran
comprarla
comprará
compreh@@
comprehensible
compulsive
computa@@
comunistas
concealing
concede
concerning
concur@@
condado
condena
condenada
conectadas
conectados
confer@@
confundida
cong@@
conoc@@
conoci@@
consejero
consent
considerably
consiga
consoli@@
constantes
consuelo
contaminada
contaría
contestado
continua
continuo
contracted
contrast
contribución
contuvo
contártelo
conveniencia
convers@@
conversion
convert
convertir
conviene
coron@@
corp@@
corrección
correcting
corregir@@
corruptos
cortarte
corteza
cose
cosita
costly
county
coura@@
covi@@
coños
cram@@
creados
creator
creciente
crecía
creencias
creyente
cricket
criticizes
croissant
cruasán
crío
ctos
ctu@@
cuadernos
cualidades
cuan
cubos
cuelga
cuen@@
cuentan
cuesti@@
cuestiones
cuidan
cuide
cuido
culparme
culparía
cultivar
curado
curva
custard
custody
cutest
cálculo
cár@@
cé@@
círculos
cómics
cómodamente
dangers
danos
dante
dat@@
dation
dañinos
ddy
deba
debiera
dece
decepcionada
decidas
deciden
deciding
decisive
decora@@
decír@@
dedicado
deed
defending
defy
dejarlos
dejéis
delantera
deleg@@
delincuencia
delincuente
delinqu@@
delirio
delitos
delo
delusion
deman@@
democrático
demolished
demonstrate
demonstration
dentadura
denying
dependencia
depending
depil@@
deplo@@
depositó
depresión
derness
derramada
derri@@
derrumb@@
desacuerdo
desafin@@
desafortunado
desarrolló
desató
desayunas
desayuné
descarri@@
descended
descendientes
descubierta
descuidada
descuido
dese
desee
deses
deshacerme
deshacernos
deshonesto
desiertas
design@@
desilusionado
desmantel@@
despiertas
despiér@@
desple@@
despre@@
destroys
detached
detained
detect
deter@@
determinado
determinar
detest@@
detesto
detiene
developing
develops
devices
devised
devolv@@
devolviera
devolvieron
deza
dged
diag@@
diaper
dibuja
diced
dicha
digáis
dile@@
dillas
diplomat
diplomática
directory
diremos
disabled
disappears
discapacitados
disclosed
discoteca
disfrutarlo
disgusta
dishon@@
dismant@@
disminuye
disminuyendo
disputed
distas
distinct
distur@@
diverse
dividing
dividió
diving
divino
divir@@
divorciar
divorciarse
diá@@
dless
dobl@@
doblaje
documental
dolido
donó
dormilón
dormiste
dosos
doub@@
dra
dramatic
dres@@
duck@@
dudoso
dudé
duel
duer@@
dum@@
dump@@
duramente
durmieron
dwells
dárselo
décimo
déj@@
eamos
ebere
eciera
ecos
educate
een
efectiva
eficaces
efici@@
egipcio
eigh@@
ejemp@@
ejemplares
eldest
electrónica
elegiste
elig@@
elija
elogios
emas
embarazadas
embarras@@
embo@@
emboscada
embri@@
embu@@
emin@@
emperor
empezara
emphasized
empinada
empire
emplea
employ
enamorarte
encantaban
encantada
encial
enciclopedia
encontrados
encontrarán
encontraré
encuentros
encuesta
encyclopedia
endor@@
endos@@
enfadarse
enfermas
enfrenta
enfrentar
enfriado
engendra
ength
enseñaron
enséñame
entales
entendías
enteramente
enterar
enterrada
enters
entertain@@
entrara
entregado
entrevi@@
entry
entu@@
enviarlo
enviarme
envidio
eous
eping
equations
equilibr@@
equipped
equivocó
eral
eridos
eries
erismo
erous
erra
erróneo
escabulló
escamp@@
escarcha
escaso
esclava
escocés
escondernos
esconderte
escritora
escritores
escéptico
escú@@
esenci@@
espacios
especializ@@
especta@@
espeluznante
esperantistas
esperaremos
espon@@
esponja
establecido
estacionó
estampilla
esteroides
estirar
esto@@
estornudando
estrelló
estren@@
estricta
estro@@
estros
estupefac@@
estándar
evacuar
even@@
everyday
exagerando
exceeded
excel@@
exces@@
excesivamente
executed
executive
exha@@
exhibición
exigencias
exitosos
exoplanets
expand@@
experim@@
experta
expired
explode
explotación
expresan
expresarme
expresarse
exqui@@
extendido
extinguido
extinguieron
extinguished
exu@@
eyeli@@
facul@@
failing
falto
fam@@
famished
famosas
farsa
fas
fastened
father-in-law
feas
ferre@@
fes
ffy
ficada
ficiency
figur@@
figuras
fing@@
finishes
finite
fins
fir
firefighters
firmaron
firmly
fish@@
fitting
flakes
flexi@@
flirting
floats
flujo
flun@@
fogata
folder
folding
foo@@
fooling
fort
fotográfica
fotogénico
four@@
frambu@@
franti@@
frasco
fre
freak
freel@@
funcionamiento
fusible
fér@@
fóbico
gabinete
gae
galería
ganaré
gander
garantizar
garemos
gazed
geance
geme
generaciones
genialidad
geniuses
geology
gered
gestión
gestu@@
ggy
gia
gigantes@@
gilipollas
gira@@
girando
giras@@
gire
giré
[...]
