<unk>
<pad>
<s>
</s>
.
I
the
to
a
you
is
?
&apos;t
,
Tom
of
in
&apos;s
that
The
was
He
it
me
and
have
for
You
are
my
on
with
not
do
be
It
&apos;m
your
this
She
We
can
he
don
like
his
Mary
want
at
know
&quot;
!
her
has
him
What
&apos;re
as
what
will
This
go
an
They
Do
&apos;ll
time
very
all
from
about
had
up
My
one
we
think
by
&apos;ve
but
out
didn
here
going
were
there
There
get
so
did
she
than
That
How
Don
good
more
no
doesn
see
would
us
been
need
am
when
much
never
just
they
if
too
come
people
who
Why
should
got
now
day
or
work
help
If
them
love
said
how
only
A
&apos;d
take
always
our
last
Is
car
Are
something
tell
back
isn
some
money
two
house
book
really
lot
many
say
man
home
any
make
could
speak
eat
must
Can
right
told
When
Where
anything
Let
went
made
new
still
French
long
Please
room
well
today
their
life
into
better
off
Who
old
live
school
before
three
way
won
father
first
years
little
English
thought
does
left
other
night
over
every
Did
tomorrow
talk
down
dog
because
In
saw
again
No
came
where
world
read
wanted
asked
without
buy
understand
nothing
find
give
Have
everything
look
friend
play
His
put
name
after
mother
already
friends
yesterday
ever
job
used
children
doing
water
leave
took
happy
able
believe
lost
wants
next
feel
language
away
things
please
bought
beautiful
same
Your
morning
sure
best
door
year
gave
Boston
call
found
problem
why
bad
use
thing
let
learn
most
late
teacher
brother
stay
hard
wasn
being
girl
knows
:
boy
soon
done
couldn
likes
person
bed
hope
wrong
alone
ask
All
enough
seen
country
own
even
looking
hear
may
often
true
yet
stop
happened
these
around
cold
big
days
cat
cannot
week
drink
married
remember
books
sleep
;
John
place
study
tired
such
another
heard
great
while
train
food
city
doctor
young
knew
sister
coffee
its
ate
called
woman
looks
parents
afraid
party
idea
keep
truth
letter
died
family
haven
lives
open
wife
each
wish
which
care
try
mind
Japan
answer
kind
busy
those
bus
child
getting
pay
son
few
important
started
Would
tried
easy
yourself
talking
Her
once
almost
un@@
five
difficult
word
music
ten
someone
wait
ago
watch
says
seems
Our
red
Japanese
aren
rain
write
then
met
together
change
ing
early
else
looked
eyes
reading
end
anyone
table
playing
myself
through
eating
hate
God
phone
Does
coming
These
might
plan
since
words
mine
accident
-@@
himself
question
turn
small
until
walk
game
hair
hours
matter
dinner
anymore
far
hand
makes
forget
needs
Yanni
both
times
re@@
everyone
men
One
working
Everyone
between
ready
Tell
wouldn
s
sentence
As
under
Could
happen
also
Some
favorite
fire
face
fell
sick
pretty
languages
having
light
goes
class
Come
Nobody
start
hot
trying
meeting
TV
against
free
milk
computer
death
felt
angry
white
station
die
month
born
bit
Sami
shoes
story
decided
fish
Monday
lunch
May
meet
minutes
number
others
fun
waiting
age
usually
living
Spanish
nice
rich
&apos;
hurt
arrived
police
run
show
fast
Take
less
office
students
Give
tree
gone
es
heart
sorry
tonight
in@@
swim
t
window
Which
speaks
broke
To
comes
movie
sing
At
turned
full
hands
Will
shouldn
baby
longer
killed
ran
different
drive
summer
finished
S@@
visit
Many
dead
part
quite
become
town
making
ed
dream
loves
kill
high
lie
park
daughter
interesting
mean
four
saying
breakfast
o
news
mistake
Australia
afternoon
became
tea
whole
works
close
began
lived
song
company
hour
homework
large
possible
street
Christmas
student
German
Go
Stop
black
weather
And
later
near
s@@
wrote
studying
stupid
taking
sun
trust
watching
Get
reason
older
trouble
war
box
picture
set
spent
dictionary
forgot
head
learning
spend
thinking
wearing
America
clothes
six
expensive
’
Now
order
river
wonder
wine
along
listen
er
store
flowers
short
hungry
women
moment
caught
stopped
king
poor
cake
snow
chance
animals
stand
Tatoeba
least
miss
rest
People
seem
tennis
lose
human
rather
win
advice
behind
bring
Just
Today
hasn
dangerous
ice
hotel
dark
during
30
cut
present
real
thinks
Look
dress
building
garden
prefer
blue
husband
birthday
questions
But
loved
surprised
Thank
known
outside
changed
problems
side
takes
kept
After
dogs
hospital
quickly
For
famous
floor
crazy
finish
Every
girlfriend
played
bicycle
interested
clean
point
smoking
written
Not
Yes
health
sat
sentences
speaking
strong
Spain
means
mistakes
Chinese
hit
worry
Be
careful
gets
front
tall
yours
brought
cry
Maybe
ated
glad
half
secret
meat
business
o@@
ts
team
case
drinking
ted
herself
months
Sunday
seven
sound
y
bread
sad
sea
dollars
key
needed
paper
several
Those
air
liked
cost
touch
camera
road
writing
agree
eaten
move
...
fine
strange
helped
sky
whether
A@@
New
United
bird
proud
glasses
second
trip
2
American
Everybody
asleep
kids
Everything
break
cook
sit
wear
Even
feeling
scared
&apos;clock
France
Tokyo
closed
crying
eggs
pain
Put
girls
restaurant
ship
talked
fall
library
noise
opinion
paid
past
sometimes
Try
Someone
voice
beer
completely
sleeping
uncle
future
guys
hundred
C@@
Keep
abroad
apple
dis@@
glass
blood
cats
ly
plane
return
teach
running
smoke
catch
horse
seemed
chess
worked
exam
probably
stayed
China
States
accept
broken
cup
explain
thirty
beach
Esperanto
capital
g@@
test
attention
law
li@@
passed
sense
worth
clear
e
hat
piano
Nothing
alive
anybody
Here
Paris
dance
foreign
movies
raining
sell
weren
drunk
guitar
impossible
sitting
situation
OK
de@@
learned
opened
sent
bank
exactly
either
inside
rules
shirt
green
shall
though
Thanks
travel
walked
leaving
swimming
arrive
kitchen
mad
mouth
wall
weight
Life
enjoy
cream
fruit
lying
plays
mountain
evening
tion
F@@
follow
spoke
taken
winter
course
ers
fly
B@@
ation
bag
boyfriend
safe
singing
church
k@@
y@@
body
finally
worse
b@@
choice
desk
m
So
On
difference
Good
boss
invited
kiss
serious
slowly
umbrella
common
fear
gift
hurry
minute
showed
t@@
danger
eye
guy
lawyer
medicine
send
abandoned
d@@
listening
lucky
necessary
visited
An
across
p@@
soccer
drank
patient
sounds
ability
art
missed
native
piece
solve
traffic
younger
Mr
P@@
di@@
earth
information
pass
vacation
wash
Ziri
perfect
television
Europe
London
boys
everybody
experience
knife
radio
sugar
expect
fact
history
couple
decision
i@@
nobody
ti@@
twice
G@@
birds
color
happens
smile
success
translate
walking
worried
de
promise
seeing
thank
a@@
ating
cars
doubt
en@@
failed
hold
player
popular
waited
H@@
Mr.
Since
blame
guess
save
government
hide
pen
quit
shop
single
telephone
eats
expected
st
beginning
fight
line
trees
ill
received
teeth
Algeria
arm
eight
honest
led
machine
newspaper
shopping
village
d
e@@
nor
public
seat
smell
themselves
w@@
Canadian
count
driving
exist
foot
heavy
slept
certain
chair
concert
grow
peace
Earth
easily
leaves
ous
president
price
terrible
airport
baseball
p
pictures
smart
ting
Both
countries
fat
kid
lo@@
soup
ticket
Sometimes
correct
driver
given
lake
list
ri@@
ring
taxi
warm
address
enemy
funny
grandfather
keys
lies
spoken
telling
brothers
deal
fault
forward
mo@@
ons
th@@
E@@
begin
moon
Germany
Ken
animal
chocolate
ine
marry
novel
offer
quiet
shut
apples
film
po@@
studied
tie
co@@
message
power
system
taught
M@@
built
empty
ideas
over@@
r@@
ro@@
supposed
Stay
York
actually
advised
al
drinks
i
ones
st@@
taller
wind
Yesterday
account
grandmother
sight
Wait
bath
legs
wake
Last
ball
coat
cooking
island
laugh
moved
Maria
Russian
as@@
fishing
nine
project
rice
weeks
England
Never
absolutely
ant
date
dreams
joke
useful
With
beat
dirty
ds
promised
shower
sign
th
yellow
Italy
be@@
c
dad
held
land
whose
)
Only
R@@
bear
hates
immediately
letters
regret
speech
O@@
weekend
(
gun
le
rains
thousand
to@@
Children
Love
Make
bike
n@@
pick
position
somebody
storm
te
top
type
Layla
allowed
ally
ch@@
ent
hiding
mom
prison
tears
universe
wet
D@@
covered
juice
k
se
shot
Call
Jane
Leave
Most
act
gas
salt
ses
stolen
wallet
Sorry
happening
tions
waste
10
Italian
Oh
carry
deep
leg
purpose
an@@
ar@@
college
fix
l@@
among
cheese
clock
respect
sold
le@@
plans
share
stood
tive
Turn
W@@
choose
natural
nervous
sed
stone
wonderful
Because
Excuse
See
add
am@@
delicious
ended
forest
luck
realized
returned
simple
somewhere
space
Two
card
check
feelings
kissed
standing
using
worst
K@@
est
flower
forever
forgive
match
stars
L@@
boring
bridge
hardly
sports
stole
taste
Bring
ates
bathroom
control
do@@
low
n
neither
sweet
twenty
Ask
Write
asking
blind
bored
club
due
feels
group
laughed
oil
report
ride
talks
wedding
T@@
above
ans
apologize
boat
faster
feed
lied
named
se@@
staying
Bill
charge
crime
dishes
entered
except
explained
favor
les
meaning
satisfied
till
understood
watched
Tomorrow
board
cause
dressed
earlier
feet
hadn
happiness
painting
pro@@
reached
recently
refused
special
surprise
Brazil
ab@@
bottle
carefully
cute
games
gold
grew
huge
lend
ought
singer
I@@
Well
apartment
heat
ity
pencil
sisters
example
fit
middle
ties
whatever
Greek
Hey
N@@
Were
admit
answered
aware
discovered
healthy
innocent
intelligent
result
tongue
u@@
wise
Latin
Whose
beauty
field
form
h@@
noticed
owe
pizza
suddenly
-
accustomed
bigger
gives
laughing
lots
museum
orange
paint
science
suit
Has
Something
considered
entire
figure
view
wears
From
ce
con@@
hurts
lady
m@@
rent
ve
Somebody
Was
consider
ears
goal
im@@
nose
pe@@
planet
si@@
university
Of
decide
easier
join
upon
woke
Aren
anywhere
caused
comfortable
enjoyed
golf
keeps
policeman
realize
saved
soul
speaker
threw
within
Am
accepted
al@@
ded
f@@
missing
spring
button
enter
fed
forgotten
ni@@
post
reach
smiled
step
By
Their
ding
giving
lack
map
translated
translation
ugly
video
5
believes
cousin
el@@
fresh
houses
mis@@
pieces
planning
roof
rule
stories
succeed
theory
uses
—
Jim
Saturday
barely
belongs
borrow
cards
ch
costs
der
guilty
ho@@
idiot
instead
itself
memory
size
solution
subject
attend
believed
bother
century
finger
injured
ling
ordered
shy
skin
sts
theater
washed
According
Kyoto
bu@@
buying
fired
pregnant
prepared
ra@@
starting
windows
Canada
Greece
War
accent
ahead
aunt
calling
cancer
chicken
dry
g
ground
habit
ourselves
round
smells
straight
stuck
x
7
Portuguese
Time
Without
absent
cookies
education
explanation
nature
star
truck
8
Bob
Show
Unfortunately
area
arms
filled
it@@
mu@@
or@@
ty
vegetables
washing
3
Dan
Hold
center
courage
disappointed
ha@@
market
million
picked
protect
thief
toilet
Friday
Welcome
avoid
behavior
bill
build
corner
fighting
football
hell
ks
listened
notice
pool
results
social
agreed
als
cheap
continue
dying
el
escape
flying
hi@@
race
silent
support
yen
accused
attack
breath
brown
cool
er@@
evil
knowledge
likely
normal
similar
state
Father
World
arrested
ashamed
calm
ends
fool
forced
harder
liar
lights
ness
painted
re
risk
shed
so@@
twelve
Hello
Jack
Read
advantage
calls
cash
distance
extremely
go@@
jealous
largest
lu@@
pleasure
practice
pu@@
runs
seriously
teachers
teaching
usual
yes
Columbus
Help
Open
ck
convinced
cried
cross
fe@@
naked
opportunity
passport
slow
vote
Day
Didn
In@@
admitted
alarm
cal
com@@
created
cu@@
exercise
fair
helping
ked
locked
out@@
raise
reality
sang
tastes
action
bedroom
crowd
es@@
followed
h
lazy
mirror
modern
murder
nearly
neighbor
welcome
wing
wore
writer
Rome
ary
carried
headache
hid
la@@
loud
per@@
prize
rock
rose
skirt
sons
text
treat
ves
willing
6
Americans
Mexico
Skura
Then
ants
bl@@
complaining
energy
excellent
flight
involved
judge
math
meant
pleased
sa@@
sh@@
studies
I.
Mother
artist
b
belong
brain
butter
fingers
lonely
matters
ment
mood
page
pair
responsible
tr@@
ance
appreciate
classroom
dropped
em@@
fifteen
flag
fond
for@@
patience
poem
ps
supermarket
third
1
100
4
Russia
absence
ces
ck@@
deserve
duty
fixed
ful
gotten
grass
hearing
hole
main
mountains
moving
par@@
songs
stuff
ter
whenever
ze
20
Each
October
Say
article
ca@@
changes
ents
fever
imagine
interest
jumped
keyboard
pi@@
professor
weird
whom
Internet
Mom
allow
convince
cover
drop
ins
magazine
ms
on@@
paying
plants
potatoes
pre@@
sooner
stomach
throw
ver@@
vi@@
First
Polish
Shut
ad@@
ations
birth
bite
elevator
ex@@
helps
invite
managed
meal
no@@
ou@@
pretended
rang
society
soldiers
teaches
w
Con@@
appeared
at@@
begins
clouds
culture
dare
draw
ear
freedom
friendship
greatest
jacket
jokes
ker
kinds
lay
mi@@
midnight
nurse
pocket
relationship
sleepy
suitcase
%
Eat
Isn
Watch
afford
attacked
beyond
bi@@
bo@@
certainly
ci@@
classes
cs
dancing
depends
everywhere
fifty
flat
friendly
hill
names
pants
rained
starts
temperature
thanks
workers
00
Berber
answers
available
awake
condition
earthquake
employees
failure
following
gi@@
il@@
jail
mouse
population
quality
raised
sion
sp@@
um
z@@
ap@@
c@@
capable
complete
conversation
deeply
difficulty
equal
handsome
ies
lead
me@@
neighborhood
neighbors
proposal
rights
seldom
spends
thirsty
wondered
woods
Africa
Listen
Re@@
Should
Water
bright
clearly
diet
disease
intend
master
ning
solved
stairs
value
Once
burned
cally
childhood
committed
contact
crossed
denied
egg
ence
gonna
members
nation
neck
none
photo
politics
pri@@
remain
rid
socks
ster
stronger
treated
Although
Man
Speak
Tony
achieved
biggest
cities
effort
enemies
goodbye
license
lion
ma@@
ously
pa@@
path
places
political
private
reasons
rude
season
stranger
tic
ways
wood
zoo
Hi
Mike
Three
clever
holiday
noon
offered
scene
sweater
Al@@
Di@@
Neither
None
U@@
White
alcohol
castle
curious
doll
dumb
e-@@
expecting
furniture
op@@
personal
ph@@
queen
sport
su@@
tes
violence
yourselves
ac@@
army
badly
bet
complicated
credit
discuss
efforts
escaped
excited
fence
flute
fortune
hobby
intelligence
joy
losing
man@@
poet
request
ru@@
sheep
stick
toy
under@@
writes
ying
Dad
Kate
Peter
Think
according
allergic
ator
bottom
complain
fo@@
invented
ls
marriage
pity
prepare
shit
sings
spread
Alice
However
Osaka
Smith
anger
appears
author
brush
des
examination
facts
fi@@
fully
ge
handed
illness
ings
international
lesson
lock
loss
manager
ments
permission
salary
silence
smiling
strength
suicide
sur@@
tallest
unless
zed
Facebook
George
India
While
Women
bar
colors
desert
factory
fail
humans
ic
ig@@
ke
mathematics
mess
per
players
program
rate
receive
sand
sharp
subway
wound
Being
Jesus
abandon
agreement
assume
ched
computers
confused
election
farm
gay
gu@@
hung
member
miles
nuts
ors
plant
reads
religion
remained
simply
square
survive
ta@@
toward
understanding
useless
various
Arabic
Before
Brazilian
Perhaps
Sundays
access
buried
character
copy
deaf
drugs
eleven
fallen
hated
hero
l
lines
obey
original
perfectly
punished
quick
screen
speed
tells
tight
wild
June
amount
ats
car@@
cell
chose
closer
consists
cruel
dentist
destroyed
du@@
falling
gs
hang
harm
introduce
kindness
located
mail
newspapers
ocean
oranges
polite
putting
rarely
refrigerator
relax
sale
sions
thin
towel
traveling
u
upset
9
Bo@@
British
Cats
Hurry
Ma@@
Music
ag@@
apart
appear
au@@
candy
claimed
cooked
details
disappeared
drives
emergency
faith
final
foolish
force
fu@@
further
gentleman
il
improve
mission
na@@
opening
ours
plenty
pulled
recognize
roses
service
sive
task
warned
Christopher
Close
Jackson
Money
Turkish
Whatever
acting
ages
average
awful
bar@@
based
citizen
climbed
colour
email
excuse
false
fill
flew
goat
grateful
hers
horses
ism
issue
mer@@
obvious
passengers
prove
responsibility
rope
snowing
succeeded
suffer
suspect
understands
Berlin
J@@
Smoking
active
amazing
annoying
appointment
continued
ction
electric
fuck
highly
inter@@
laid
menu
okay
opposite
owner
photos
refuse
remains
repeat
self-@@
shoulder
tend
totally
traveled
weak
An@@
Dima
Shall
absurd
attractive
audience
brave
degrees
drove
economy
en
engine
et
fridge
gate
general
jo@@
larger
lately
literature
novels
orders
powerful
sex
shelf
stands
4@@
Co@@
Mar@@
Use
beard
bell
bilingual
ble
climate
climb
express
fluently
hy@@
instructions
j@@
kilometers
mayor
med
meters
ne@@
search
shows
style
thick
tu@@
wide
Dogs
Li@@
Nancy
Next
Send
Tuesday
Whoever
ad
ar
argument
becoming
captain
ches
cr@@
create
flies
ged
genius
guests
he@@
horrible
illegal
iron
level
mar@@
motorcycle
national
online
password
physics
qu@@
raw
shoot
smaller
sub@@
sudden
tickets
tional
towards
turns
urgent
website
winning
Any
Choose
Hungarian
More
Paul
Remember
South
acted
actor
added
advance
airplane
attitude
ban@@
ber@@
betrayed
blew
bucket
changing
direction
environment
evidence
fa@@
familiar
har@@
ia
insects
laws
min@@
ned
occurred
parts
ped
pet
press
product
repair
reply
ruined
sells
smarter
sort
suggest
survived
swear
thoughts
trusted
wings
ws
x@@
50
De@@
Things
Y@@
abilities
accompanied
acts
band
cha@@
cks
concerned
devil
ed@@
elected
flu@@
gray
hoping
ir@@
jump
lips
ll
local
naive
progress
salad
sen@@
someday
suggested
sun@@
te@@
touched
trap
tri@@
ving
April
Christian
Korean
Rima
To@@
V@@
aboard
anyway
basketball
battle
bears
breathe
contract
drawing
elephant
file
increase
lation
mon@@
nearest
pped
pressure
row
shame
shape
soft
species
stones
the@@
walks
wolf
Be@@
During
aliens
ancient
cinema
cleaning
couch
cow
doors
dreamed
drug
dust
electricity
exhausted
fought
ghost
gloves
growing
importance
invitation
is@@
jobs
knowing
ot@@
period
prices
prohibited
promises
pull
recommend
removed
repaired
ridiculous
sandwich
speakers
streets
terms
vain
Black
Islam
Madrid
Thomas
assumed
battery
beings
bomb
cigarette
community
complex
divided
drew
end@@
error
female
fore@@
forty
ge@@
gri@@
holidays
hopes
imagination
joking
lamp
lower
mention
metal
method
poems
recognized
rooms
stealing
suffering
supper
sword
tail
talent
ths
tough
unable
unlikely
wealth
yard
3@@
Buy
Mi@@
Ro@@
Suddenly
Switzerland
actions
ality
angel
aside
basket
cap@@
cares
cure
current
definitely
den@@
deserves
desire
dish
dly
effective
ess
exchange
forms
fox
granted
hello
her@@
holding
honey
jam
kicked
kidding
lasted
leader
lent
lit
percent
pie
puppy
signed
snakes
sofa
stri@@
successful
surrounded
tation
temptation
term
ur@@
ver
war@@
wherever
youth
$
European
Le@@
Men
North
alphabet
bleeding
bri@@
burning
cheaper
complained
contains
criminal
depressed
exists
gained
ghosts
hidden
higher
hire
internet
lemon
lift
medical
musician
pleasant
record
rely
res
role
sake
saving
skiing
technology
unique
6@@
Happy
Mo@@
President
Un@@
argue
arguing
behave
ceiling
cleaned
consciousness
data
democracy
ease
embarrassed
experiment
favourite
hug
impressed
independent
ing@@
ingly
insult
knocked
mate
ming
pen@@
prevent
pure
push
remembered
silly
sleeps
speci@@
spirit
stage
suppose
suspicious
tied
translator
v@@
visiting
wa@@
wins
worker
worn
y-@@
”
Almost
Betty
Mt
Se@@
accidents
apply
challenge
classical
classmates
coin
crossing
document
earn
els
eventually
hired
hu@@
ink
lovely
mistaken
noisy
nonsense
nowhere
opponent
pot
priest
rare
robbed
selling
snake
source
ty@@
uncomfortable
unhappy
zing
–
“
.@@
Bible
Car@@
Drink
Ex@@
Few
Learn
Portugal
Sit
Such
accomplished
achieve
arrest
ba@@
becomes
brings
chi@@
closet
col@@
connected
court
da@@
daily
divorced
ely
finding
generally
ler
louder
model
mp@@
mystery
nap
notes
pink
politician
politicians
pond
princess
proof
properly
rabbit
sees
sti@@
sunglasses
ters
trapped
watches
west
wi@@
2@@
January
Pona
accompany
ace
autumn
boots
burst
causes
cheated
clo@@
confessed
confidence
dating
deny
distinguish
divorce
don@@
event
existence
fake
fan
flashlight
frozen
hall
handle
intention
moves
notebook
numbers
official
ory
otherwise
religious
remind
reputation
rumor
serve
sore
steal
stu@@
talented
tra@@
trans@@
wishes
Brown
Check
Fuji
Linda
Pro@@
Toki
Z@@
adopt
bench
charming
chest
chosen
cre@@
danced
debt
ec@@
ery
fr@@
fy
heaven
hor@@
iled
knee
liberty
logical
om
pale
papers
pe
possibility
presence
prevented
provide
safety
shake
soap
stops
throat
tire
tooth
walls
wisdom
1@@
500
5@@
Ann
Egypt
School
abducted
actress
alike
alism
appearance
arriving
artificial
ass
bald
banana
begun
borrowed
boxes
bra@@
breaks
cla@@
cloud
collect
comment
conditions
crisis
der@@
describe
dessert
dri@@
entrance
especially
expert
falls
fashion
fied
gifts
gr@@
highest
improved
insane
justice
mor@@
options
p.m.
pig
plastic
prince
production
products
region
regularly
rise
romantic
sal@@
scientist
secretary
secrets
shorter
sink
soci@@
soldier
south
spite
sto@@
sunny
sy
taxes
ther@@
tor@@
truly
victory
violin
18@@
8@@
Death
Dutch
Learning
Lo@@
admire
attended
beans
bottles
breaking
burn
can@@
candle
cate
cave
checked
cheek
correctly
coward
cur@@
demanded
effect
ending
experienced
firm
gain
god
grabbed
grandparents
grown
head@@
hoped
ignored
image
incident
journey
kers
killing
loose
magic
mp
oldest
opinions
picnic
plate
points
pr@@
pray
presents
pur@@
reasonable
ringing
seek
sensitive
site
spell
sweets
ter@@
toys
translating
treasure
weapons
yo@@
z
7@@
Anyone
En@@
Fuck
ache
adult
ant@@
ati@@
ators
attempt
characters
chemical
ching
cho@@
coins
constantly
contest
cousins
daughters
defend
deserted
discussed
errors
extra
frame
ger
guard
hand@@
ka
pages
pillow
poetry
pronounce
pushed
remove
seats
served
sets
sk@@
spe@@
stamps
staring
tip
translations
twins
ve@@
voted
wheat
Add
Bu@@
Having
Hebrew
Nature
Ri@@
Sun
Th@@
ang@@
anxious
aries
below
belt
cap
circumstances
cking
collection
damage
decisions
deer
defeat
dies
doctors
drowned
ear@@
fascinating
fog
foods
founded
giant
graduated
grapes
ined
influence
ining
jazz
kes
kitten
logist
maybe
note
persuade
philosophy
ping
placed
pointed
prisoner
process
published
r
resign
resources
scare
squirrel
stic
strangers
sum
thirteen
title
up@@
weapon
12
Despite
Follow
Nice
Swedish
Wake
accomplish
af@@
air@@
ances
bound
br@@
canceled
charged
chat
cheating
claims
committee
compared
composed
concern
conference
department
dra@@
dy
families
formed
funeral
ga@@
goals
grade
hanging
hatred
honor
ignorance
magazines
monkey
ners
parked
pes
positive
poverty
pping
pretend
produce
rainy
register
schedule
scolded
sentenced
shoe
spot
strike
symbol
ton
trains
twenty-@@
unfair
unusual
volume
Ar@@
Believe
Birds
CD
City
Juan
Mon@@
Start
Su@@
Taro
Wash
aim
aring
asks
bs
cakes
carrots
cases
chairs
cigarettes
cli@@
clothing
cough
cows
cra@@
cul@@
dancer
ders
detail
diary
discussion
dreaming
employee
expression
fluent
frightened
fruits
garage
gged
ging
guide
helicopter
humanity
ian
leftovers
lottery
manage
material
meals
messages
mice
mil@@
miracle
nails
nerves
origin
package
particular
parties
personality
phrase
planted
preparing
pride
research
reservation
response
ry
sandwiches
scary
shadow
shared
showing
sides
solar
spo@@
stepped
surgery
tch
ten@@
tense
turning
vase
wasting
well-@@
wounded
Chicago
Com@@
February
Gu@@
July
Korea
Mars
Me@@
Mrs.
Muslim
November
Save
Susan
Translate
Union
adopted
ay@@
basic
begged
brains
cage
cancel
ced
char@@
cing
cle
cy@@
dawn
desperate
despite
diamond
difficulties
drawer
ement
engaged
entering
exciting
fate
foreigners
garbage
gods
goods
grandma
harsh
ignore
income
ish
journalist
junk
ke@@
ki@@
lasts
latest
majority
mask
memories
mentioned
musical
pairs
passes
pilot
planned
port
purse
related
reminds
require
requires
ruin
scream
security
separated
shi@@
shirts
sho@@
shook
silver
sters
strict
super@@
sweat
tiny
tion@@
tomato
upstairs
19@@
25
Argentina
Find
Instead
Muslims
Ne@@
Thursday
Twitter
Vi@@
Whenever
activity
adults
ana
apologized
approve
approved
barking
blow
brief
buildings
bush
comfort
comments
construction
creative
cups
da
director
engineer
entirely
envelope
envy
explosion
faces
gh@@
hesitate
hundreds
hunger
indifferent
ines
insurance
ist
lacks
ladder
laptop
lecture
lessons
link
moments
nations
nearby
operation
our@@
physical
plu@@
professional
quarter
resembles
rising
roads
scientific
scissors
sha@@
sli@@
stove
struck
suffered
surface
valuable
version
weigh
wished
-up
Cor@@
Fadil
Fortunately
Google
Hawaii
Jo@@
Lord
Red
Speaking
Turkey
aches
advanced
arrival
balls
bees
bitch
blanket
bones
bro@@
butterfly
carrying
ce@@
destroy
diseases
ditch
double
doubts
economic
eds
ent@@
essay
forbidden
forces
former
fucking
function
gathered
grammar
hammer
however
id
imagined
incredible
interrupt
interview
kissing
listens
major
male
mark
mum
murdered
mustn
north
ol@@
onto
outfit
painful
passion
pianist
planets
policy
respond
seconds
selfish
shining
sixty
spending
spider
squ@@
stra@@
sum@@
threatened
topic
tourists
trash
trick
tries
ven@@
weighs
wheel
whoever
wooden
ya
Asia
December
Enjoy
Eve
Four
Like
Mario
Nowadays
Old
Si@@
Spring
Sweden
Won
Year
aid
album
ali@@
ars
border
bunch
career
confuse
conscience
consequences
cor@@
cottage
cru@@
cultural
d-@@
damaged
darkness
documents
down@@
enjoying
ently
essential
fork
grades
gro@@
gym
hunting
ignorant
intended
invention
landed
leads
lean
luggage
mat@@
mes
necessarily
noble
nu@@
nuclear
object
organized
oxygen
pepper
personally
pockets
poison
prime
punishment
que
revealed
revenge
sauce
scarf
schools
ships
shock
slave
slight
solid
spilled
str@@
sw@@
thanked
thousands
toast
tourist
twin
uni@@
victim
wanna
weekends
witch
California
Dr.
Finnish
Kabyle
March
Par@@
Per@@
Right
Run
Scotland
Stand
Ti@@
afterwards
ambulance
ari@@
authority
baked
beside
bitter
branch
cab
cal@@
cast
cated
celebrate
che@@
code
counts
cted
customs
defeated
demand
dislike
dizzy
dozen
earns
east
fewer
fil@@
films
fits
flour
foreigner
goose
greeted
habits
hugged
impression
including
informed
laughs
limited
longest
mass
ner
ns
ob@@
os
parking
part-time
pens
pets
pipe
plates
plus
principles
released
rented
res@@
ser@@
snowed
structure
therefore
throughout
tiger
typical
wor@@
24
Big
Ch@@
Cut
DNA
Draw
Either
Great
Nemesio
No@@
Pick
Po@@
Sa@@
September
T-shirt
Ten
ack
alist
ani@@
apology
appetite
baffled
beg
bishop
cellphone
circle
collecting
communicate
compli@@
confess
cont@@
content
context
convenient
crash
crashed
cy
depend
drowning
ens
exact
exams
frequently
ha
ham@@
harvest
heads
height
ily
iness
issues
keeping
ko
la
logy
lon@@
machines
measure
measures
mer
mobile
non@@
ny
objects
odd
oven
owns
pack
packed
painter
pencils
phones
proved
puts
ration
regard
regular
retired
riding
seeds
stared
suitable
suits
tower
treatment
tter
ture
unexpected
witness
work@@
worrying
16@@
About
Ad@@
Emily
Gre@@
Ha@@
Hang
Harvard
King
Long
Na@@
We@@
Wednesday
Work
Yeah
ably
abundant
accordion
ach
acid
acknowledged
adventure
affected
allows
ard
bers
billion
bing
ca
captured
celebrated
champion
cked
closest
clu@@
composition
conclusion
conscious
critical
currently
development
disguised
distracted
dolls
drunken
edge
effects
ered
euros
fairly
fer@@
fifth
fre@@
ft
furious
greater
gue
handwriting
headed
hood
hurried
impatient
ina
individual
introduced
leaned
load
makeup
matches
media
mental
minister
nights
overcome
pan
pat@@
potato
poured
practical
precious
predicted
protection
quietly
recipe
rode
searched
sewing
sh
shave
shouted
sin@@
sir
sour
spoon
sta@@
ste@@
stubborn
tap
tasted
tax
temper
temple
tends
toothpaste
track
universal
unknown
violent
virus
visa
wealthy
whale
wondering
worries
wounds
ys
/
40
Basque
Carlos
Dis@@
Finally
For@@
Halloween
Humans
Mal@@
Modern
So@@
Though
U.S.
Yu@@
abide
activities
ading
advise
anti@@
atmosphere
bags
bananas
blackboard
bling
cation
citizens
claim
cloudy
command
commit
communication
competition
contain
criticism
debate
despise
disgusting
eg@@
encouraged
explo@@
ey@@
fairy
figured
finds
flat@@
fled
flu
focus
folded
fried
gra@@
growth
happily
helpful
holds
hon@@
incredibly
innocence
interests
joined
legal
loudly
lover
loving
ma
marks
materials
meter
mile
narrow
negative
neighbour
night@@
obviously
of@@
oni@@
owes
passing
pil@@
planes
ple@@
por@@
pounds
pra@@
prefers
pretending
provided
purple
replied
rough
ruins
rush
scale
screamed
separate
shine
sincere
spiders
statue
sted
sunset
swims
threat
thrown
tool
total
traditional
training
vo@@
waiter
wal@@
warn
wer
wn
zero
,@@
11
300
9@@
Actually
Ah
Beethoven
Better
Britain
Catholic
Chess
Doctor
Forget
Generally
Gi@@
Israel
Jews
Little
Mark
Mayuko
Mennad
Miss
Ni@@
Pa@@
Queen
Really
Rio
Santa
Sea
Shakespeare
Yumi
abolished
ai@@
armed
avoided
backs
basement
bitten
bled
boiling
bookstore
bowl
breathing
bru@@
burnt
buses
carpet
cells
ceremony
cloth
concentrate
concept
constant
counting
cting
damn
deleted
delivered
developed
device
disappoint
disaster
downstairs
dresses
edi@@
enormous
ero@@
established
eternal
examples
financial
follows
generous
ger@@
ght@@
greatly
half-@@
hearts
heavily
horizon
hurting
illusion
included
ja@@
ju@@
laughter
lets
ley
lip
medi@@
meetings
men@@
millions
minds
nail
offended
option
ordinary
outstanding
paintings
pers
plain
produced
property
puzzle
rapidly
recent
reduce
regards
roll
scratch
searching
sexual
sheet
shocked
shown
silk
specific
ster@@
stomachache
strawberries
surely
swam
swee@@
terribly
thir@@
tor
tortured
tures
types
washes
waves
14
15
18
20th
Austria
Correct
Du@@
Go@@
Guess
Health
Ho@@
ID
Language
Lincoln
Pass
Pay
Picasso
Reading
Robert
Until
a.m.
aces
and@@
areas
bes
black@@
ble@@
blo@@
blonde
bow
bug
coach
coincidence
compare
confident
corrected
coughing
cri@@
crowded
crown
customers
dear
delay
dollar
domin@@
eighteen
elephants
embassy
enjoys
enti@@
ese
festival
fields
fourth
framed
frog
generation
ghts
grave
haircut
ham
handkerchief
ils
jumping
ki
kilo
ko@@
ky
lar@@
lin@@
lls
loses
maid
monster
multi@@
murderer
nightmare
nowadays
ology
pajamas
pan@@
persuaded
picking
pla@@
regardless
rejected
relatives
relaxed
rescue
sacrifice
savings
screaming
series
severe
she@@
skirts
slipped
software
somewhat
spare
split
stays
sue
suggestion
switch
target
textbook
tile
tively
tools
trade
travelling
travels
typhoon
und@@
ures
verb
virtue
volleyball
windy
yield
Al-Sayib
Answer
August
Barcelona
C
Calm
Canadians
Dinner
Explain
Goodbye
Happiness
Haven
Judy
Man@@
Mat@@
Meg
Poland
San
Several
Sleep
Soon
Taninna
Tomasa
US
University
Whether
Wow
Young
agrees
aimed
although
answering
apparently
arrow
assistant
ast
attempted
attracted
babies
back@@
bark
bio@@
blin@@
bothering
bullet
cheerful
collected
ct
customer
defense
deli@@
described
detective
discovery
distant
dreamt
duck
educated
elderly
embarrassing
ep@@
ests
ex-@@
expenses
f
fame
farmer
fellow
forehead
forgetful
guest
iling
insisted
interpreter
jungle
laundry
leg@@
len@@
letting
limits
lions
ll@@
loan
mankind
manners
mas@@
mers
methods
misses
obsessed
occupied
od@@
officer
ol
opens
oper@@
ot
peanuts
performance
phi@@
ples
pollution
prayed
previous
print
prisoners
rat
regarded
rescued
resist
rotten
scientists
section
shing
shout
siblings
sixteen
slapped
slo@@
smoked
spi@@
stamp
star@@
sting
tasty
thieves
thy
tt@@
ud@@
unemployed
ved
vegetarian
victims
visitors
web
wed
wolves
13
Alex
Anything
Clean
Cookie
D
Fish
Hu@@
Jones
Kobe
Mathematics
Mondays
Netherlands
Romans
Washington
Zealand
abstract
accommodate
ach@@
acked
addicted
ah
ane
announced
applied
appropriate
ash
ashed
atheist
ative
bat
berries
bil@@
biology
bon@@
bore
careless
cas@@
chemistry
cherry
climbing
contrary
creature
curtains
dar@@
debts
delicate
destiny
determined
dic@@
differently
donkey
era
events
exit
far@@
fastest
fiction
fights
flood
foot@@
forecast
gen@@
gentle
glo@@
gradually
grandson
grows
happier
harmful
hi
holes
horror
idiots
industry
inevitable
jury
kick
knight
las@@
lawn
limit
liquid
lity
mini@@
misunderstanding
modest
novelist
numerous
occasion
occur
pas@@
pawn
pays
penalty
pl@@
poorly
popcorn
praying
predict
pressed
quarrel
random
recovered
reflection
remembers
revolution
risks
rivers
salty
seated
shade
sheets
shes
sin
smiles
sor
sor@@
stress
stupidity
suffers
t-@@
tape
thi@@
three-@@
toes
tomatoes
twisted
two-@@
views
whistle
youngest
&apos;@@
17@@
AI
Apparently
Claus
Computers
Czech
Forgive
Hi@@
II
Jewish
Lucy
Mor@@
Mu@@
O
Parents
Pi@@
Playing
Roman
Science
Soviet
Ste@@
Study
Summer
Ta@@
Too
True
Western
acknowledge
annoyed
argued
aspirin
automobile
bakery
balance
bee
beef
besides
blamed
bone
book@@
broom
bull
burden
candidate
centre
chief
colder
companies
completed
console
coun@@
countryside
creatures
dated
deceived
degree
design
dictionaries
discover
distract
dle
downtown
earned
elements
emotions
equally
excuses
fainted
fantastic
fl@@
flo@@
fuel
gging
grand@@
groups
happiest
humor
increased
increasing
indeed
independence
insulted
intentions
jeans
keen
knives
lea@@
leather
length
logic
manner
mixture
mosque
motion
mud
necessity
normally
objective
organization
owl
perform
principal
pronunciation
proposed
pupils
repeated
restaurants
restless
ries
rocks
sail
scandal
shaking
shor@@
shortly
smokes
sou@@
sow
stadium
stake
stinks
syn@@
talkative
teenager
theirs
ther
thread
tism
tolerate
troubles
tus
ty-@@
unhealthy
uniform
ur
ure
va
visible
visits
whi@@
xi@@
Ab@@
Ali
Athens
B
Bi@@
Colombia
Cu@@
Fill
Five
Germans
Grab
Hokkaido
Human
Kids
Moscow
Okay
Push
R
Raise
Sal@@
Second
Te@@
Walk
Wherever
acks
acrobat
affect
aged
approached
ath
attract
awkward
backpack
baggage
ball@@
batteries
beating
beats
beginners
behaviour
ber
boasts
boil
boiled
break@@
brilliant
bringing
bur@@
buys
cau@@
cen@@
chased
cheat
chew
cious
collapsed
complaints
conceited
conduct
contribute
cries
cro@@
cuts
cycle
dealing
declared
din@@
dining
direct
directly
disa@@
dy@@
eager
earthquakes
emotional
est@@
evolution
faithful
favour
flows
gender
ges
golden
gui@@
hats
ids
impact
infinite
ino
interrupted
ises
ished
jewelry
knock
learns
lightning
mag@@
mal@@
mere
minor
mps
necklace
neighbours
opera
ori@@
pal@@
passage
peeling
philosopher
pho@@
post@@
proper
protected
remarks
reminded
replaced
root
sa
salesman
sank
sation
scenery
screw
settled
shar@@
shu@@
signs
sits
sm@@
solving
southern
spade
spy
squares
stabbed
stable
steps
stock
strictly
struggle
supplies
supported
swe@@
tests
thankful
tho@@
thri@@
tick@@
trips
tune
unreliable
users
voices
warning
wiped
wives
ye
0@@
2013
Algerian
Between
Break
Christ
Due
Food
Free
Hell
Holy
Jupiter
Lisa
Marika
Moon
Over
Pacific
Pri@@
Ru@@
Sir
Someday
Swiss
Tanaka
Throw
USA
Vladimir
Way
Yours
absolute
accidentally
accumulated
adapt
addition
ads
aled
ales
alize
all@@
ams
angle
arguments
arrives
asi@@
assure
awesome
backyard
bathtub
betray
bodies
brand
bre@@
burns
cable
cameras
chalk
cheeks
cher
cin@@
cliff
closely
clue
coast
conce@@
continu@@
ctive
decent
description
designed
directions
disagree
e-mail
ency
ental
ering
esses
ev@@
examined
exercises
experiences
exploded
expres@@
extreme
faults
fer
ff@@
files
forgiven
freezing
gar@@
gation
gener@@
glory
gre@@
gum
hardest
heater
honesty
include
ingredients
ini@@
insect
instruments
intense
investigation
iz@@
knees
lands
le-@@
mammals
matic
mic
military
misleading
misled
mon
movement
nephew
nest
nodded
non-@@
onions
ony
outdoors
passionate
patients
pear
pharmacy
photograph
poisonous
poker
postponed
practicing
praise
promoted
pulse
qui@@
radi@@
rats
receiving
regretted
reliable
relieved
remarkable
remote
resemblance
resort
respected
ruled
services
shooting
sickness
signal
ski
skill
skills
slower
smallest
smo@@
snows
sorrow
spirits
splendid
sweating
swimmer
tam@@
teams
thirty-@@
thunder
tionary
tives
troops
tw@@
un
underestimate
uniforms
us@@
variety
vegetable
wakes
ward
wasted
well-known
whichever
wil@@
wo@@
zone
22
Air
Always
Anne
Ca@@
Christians
Doing
Finland
Frankly
Had
Hand
Hope
Irish
Mas@@
Mexican
Minister
Nobel
Nor@@
Obviously
Pre@@
Prices
Sh@@
Stick
Street
Students
Talk
Very
Warsaw
Words
abo@@
abused
abyss
acceptable
aced
ades
affairs
aggressive
amazed
ankle
antly
application
architecture
bel@@
benefits
bless
boards
bowed
bride
calculate
cared
cations
chances
civilization
cleared
closes
coal
comic
communi@@
connection
contagious
contributed
cooks
copies
counter@@
crimes
criticize
crops
crush
curiosity
curtain
delayed
delete
delighted
des@@
develop
disturb
dried
driven
eli@@
ences
et@@
fatal
fortunate
fri@@
fundamental
furry
guarantee
guards
haunted
heating
identify
idi@@
imitate
immigrants
instantly
jewels
knocking
legend
loaded
lob@@
mainly
medication
mid@@
mutual
ne
nightmares
opposed
optimistic
os@@
outcome
ow@@
particularly
partner
peaceful
perfume
permit
pies
pills
pineapple
pirate
pop
ports
privacy
produces
promotion
pronounced
punctual
purchase
rain@@
raincoat
reci@@
referee
relative
reports
reserve
reserved
respects
richer
rises
rook
safely
sam@@
school@@
scre@@
seasons
setting
shark
sil@@
skating
slaves
snack
speechless
spicy
spl@@
steak
stics
stro@@
suitcases
sunlight
suspected
sweep
symptoms
tain
tar@@
tations
tear
tele@@
temp@@
terrified
territory
tical
tin@@
tore
treats
treaty
tricks
trunk
ttering
tting
tunnel
unfortunately
vation
vers
vision
vy
worm
10,000
17
200
Above
African
Ana
Au@@
Bar@@
Belgium
Ber@@
Central
Che@@
Coffee
David
Do@@
E
Easter
Far@@
He@@
Heaven
Iran
James
José
Me
Pas@@
Paulo
Prime
Saturdays
Sign
Silence
T
Tra@@
adequate
adorable
alcoholic
alibi
alright
alternative
ancestors
ands
anti-@@
approach
approaching
architect
ately
atoms
attic
ay
ays
ba
balcony
banged
barefoot
belief
benefit
bites
blouse
blowing
borders
brakes
camel
camp
cans
cant@@
capacity
capture
catches
cents
chain
chores
cism
clients
closing
cockroaches
collar
colored
commonly
composer
confirm
conflict
consult
controversial
cour@@
crushed
day@@
decorated
dedicate
demands
dence
desired
devoted
diagnosed
digging
discount
dwarf
eagle
ented
equipment
examine
expressed
feeding
fin@@
flames
fol@@
functions
galaxy
gli@@
grammatical
grandpa
grief
guns
heart@@
heels
ide@@
identical
identity
impressive
improving
incapable
includes
instrument
interrupting
investigating
ise
jar
jerk
ken
kidnapped
kingdom
kne@@
lan@@
lighter
loser
ly@@
lyrics
marked
mates
medal
millionaire
minimum
mix
molecule
mosquitoes
mysterious
na
nationality
new@@
noti@@
ok
orphan
ots
pains
parrot
pee
perhaps
persons
pli@@
poisoned
praised
pres@@
prey
printed
profit
pulling
racist
replace
rer
rested
reward
richest
rows
saxophone
sco@@
seventeen
seventy
shoulders
sinking
sins
skinny
spoiled
statement
stew
stink
strongest
strongly
sushi
sy@@
tan
teenth
terrific
tics
tidy
tin
tly
touching
tournament
trousers
ttered
turkey
vari@@
vering
vet
vocabulary
volunteer
warmer
water@@
we@@
winner
yed
yell
zes
,000
196@@
20@@
23
Beijing
CDs
Cam@@
Charles
Greeks
Green
Helen
Horses
Intelligence
Joe
Ko@@
Live
Lu@@
Michael
Milky
Nara
Ocean
Paper
Pedro
Pol@@
Qu@@
Quit
Scientists
Soccer
State
Str@@
Sy@@
Tears
Trump
Truth
UFO
War@@
YouTube
ac
accountant
acti@@
addict
ade
affair
agent
ak
ak@@
aked
alized
alling
amusing
anniversary
ans@@
approximately
ards
ased
astronaut
ata
atomic
atory
att@@
attorney
baking
barks
bathing
blocked
bloom
blown
bothers
branches
brushing
budge
bum
calculator
candles
carbon
catching
cating
cattle
causing
cent
centimeters
checking
chy
cir@@
cles
clown
colle@@
contemp@@
cookie
cotton
crack
ctions
cts
cuisine
cular
cutting
dece@@
dem@@
den
deserved
desig@@
dest
detailed
dev@@
disap@@
disappear
dity
dor@@
dragon
dull
dyed
earrings
economi@@
efficient
eighty
ements
encourage
enthusiastic
erase
exception
faced
facing
faint
fascinated
fears
finishing
fle@@
forests
fries
fucked
glance
goats
good-looking
grace
graduate
grey
gross
guilt
heavier
hel@@
hollow
honeymoon
host
humble
hunter
inge
inqui@@
int
invisible
ishing
jogging
kilograms
ladies
land@@
las
lat@@
learnt
levels
lid
liking
lling
lun@@
luxury
mature
mel@@
memorize
merely
mes@@
mi
mild
mischievous
monkeys
mou@@
needn
net
nickname
nine@@
ninety
ong
operate
opposition
orbit
orchestra
owed
pace
palace
paranoid
pel@@
permanent
permitted
phoned
phrases
pin@@
possibly
pound
promising
pus
rage
rainbow
recommended
recorded
resigned
resting
rings
rolled
rumors
sailors
scar@@
sci@@
seas@@
sel@@
serves
shares
shelter
sia
significant
sion@@
skip
sl@@
slavery
sleeve
slightly
sneeze
snow@@
sque@@
stored
surrender
swollen
systems
ta
tails
teapot
telephoned
temporary
theft
thesis
thro@@
tires
tons
tors
trusts
upside
va@@
vacant
vel
verbs
via
vice
voyage
wer@@
whispered
worthy
wrap
yelling
yers
Anna
Anyway
Blood
Cap@@
Carlsen
Chile
Cows
Damn
Dick
Everest
Fire
Francisco
Gra@@
Islands
Ju@@
Justice
Living
Milk
Mine
Or@@
Park
Poor
Pope
Sam
Sho@@
Surely
Thir@@
Tonight
Under
abnormal
abounds
abrupt
absorbed
ace@@
ached
acne
acquainted
admired
aks
ambitious
ami@@
antici@@
appli@@
appointed
arrogant
auto@@
bake
beginner
bills
biting
block
boo@@
bra
breed
budget
butterflies
cab@@
calendar
cals
camping
cane
celebrating
central
chef
chewing
cky
cof@@
colleagues
comfor@@
comman@@
compass
complains
confusing
conservative
consideration
cops
corn
crew
cry@@
cupboard
dam@@
deals
deci@@
declined
departure
dependent
dering
dice
differences
dim
dishonest
disturbing
drivers
duties
eding
ef@@
engagement
enter@@
ep
err@@
evi@@
exclu@@
expelled
explaining
extraordinary
feeds
ff
fist
flea
forgetting
fra@@
fresh@@
gam@@
giraffe
gloomy
glu@@
great-@@
gun@@
hardworking
heal@@
helmet
highway
hin@@
hobbies
holy
homeless
hospitals
hotter
immediate
imported
inging
invent
invest@@
ironed
ising
islands
ited
jection
kin@@
lam@@
lau@@
leak
lessly
lia
literally
mammal
melts
ment@@
mercy
mistook
mixed
moons
museums
nor@@
oned
oning
parent
participate
pay@@
peel
photographer
poli@@
pork
positions
presented
profile
punish
quarre@@
quot@@
rabbits
receipt
recover
refu@@
regrets
relaxing
remark
reported
represent
required
ripe
robbery
robot
ron@@
roommate
sacred
scar
score
scra@@
seafood
semester
sending
settle
shaped
signifi@@
sity
slice
slu@@
sometime
sources
spouse
stal@@
stores
stream
string
subjects
superior
supply
swallowed
tal
tale
tales
theatre
thorough
tious
tis
tolerant
ton@@
toss
tragedy
traitor
trial
trigger
tru@@
unconscious
underwear
unlucky
valid
valley
vel@@
vely
vin@@
vity
wave
worship
xed
ye@@
zation
zz@@
+
0
0s
1,000
12@@
90
99
Ac@@
Act
Animals
Another
Bach
Boys
Christianity
Col@@
Congratulations
Doctors
Doesn
Drive
East
Fo@@
Hungary
Im@@
Indian
Je@@
Johnson
Laura
Laurie
Lots
Luckily
Making
Min@@
Mind
Out
Pablo
Pardon
Peace
Pu@@
Qui@@
Romanian
S
Sha@@
Sil@@
Squeeze
Sta@@
Step
Thai
Thousands
Tr@@
Tur@@
abortion
abuse
accomplice
achievements
aching
ack@@
affects
aim@@
aking
ale
allo@@
ambassador
analy@@
ank
ano
app
articles
ase
assistance
ast@@
aters
avoiding
ax@@
az@@
babbling
balloon
bang
behaved
bli@@
blunt
blushed
bribe
briefcase
bugs
bullshit
burglar
cabin
carries
cement
cess
chatting
che
check@@
checkers
cheered
chi
chickens
childish
cl@@
colli@@
comb
commercial
competent
continues
convenience
conver@@
cord
correspon@@
creates
creating
credi@@
criminals
crocodile
cured
custom
dances
dates
deb@@
decre@@
deepest
deliver
dep@@
dered
dge
differ
dig@@
dislikes
dist@@
dough
dug
edly
ei@@
electrical
ema@@
ench
ender
eng@@
ening
entitled
essence
eternity
ets
ette
evident
experts
explains
exten@@
extinct
eyesight
fal@@
fans
farting
fined
flights
flir@@
flow
fooled
forth
frogs
frying
fting
gall@@
gan@@
gang
gentlemen
ght
grams
guar@@
guessed
handy
hangover
heal
hero@@
hing
historical
hitting
homes
hotels
hou@@
hun@@
hunt
ideal
indi@@
inhabitants
inviting
judged
killer
kills
lab@@
lations
lawyers
leading
les@@
location
loo@@
lovers
lung
mailbox
melted
metro
milking
moral
mostly
nasty
natives
needle
nerve
nut
oak
obtain
om@@
one-@@
overcoat
overnight
owned
pa
person@@
pit@@
platform
plo@@
politely
powers
pper
printer
probe
processor
programs
provides
quantity
rac@@
racket
ras@@
react
reaction
reap
rec@@
recall
relations
requested
rest@@
restri@@
resulted
rocket
rooster
rubbed
sailing
sales
saves
scarcely
scheme
secure
sem@@
sew
shallow
shouting
skate
sla@@
sle@@
smooth
sni@@
sno@@
snowman
soaked
soil
son@@
sounded
spr@@
squirrels
st-@@
stain
stle
stroke
stunning
surgeon
swallow
tan@@
tary
technique
temperatures
thoroughly
thumb
tigers
tip@@
tivity
toe
tone
tour
trained
ue
volcano
waist
waking
wers
whales
wig
wire
woken
14@@
16
2010
54
Am@@
Ancient
Angeles
Ap@@
Atlantic
Australian
Beauty
Bro@@
Bruno
Change
Chris
Church
Compared
Cross
Cup
Drop
Eating
Education
El@@
Fear
Fif@@
Freedom
Gr@@
Henry
Hong
Hotel
International
Ireland
Iron
Istanbul
Jiro
Julia
Kar@@
Knock
Liberty
Los
Mac
Marie
Millie
Mount
Napoleon
Norway
P
Pen@@
Pla@@
Ra@@
Ricardo
Seen
Ser@@
Singapore
Space
Spe@@
São
Tim
Tower
Ukraine
Ukrainian
Vir@@
Winter
Wo@@
abundance
accounts
acy
ada
addiction
adding
advi@@
alert
and-@@
ank@@
announ@@
ano@@
appe@@
appreciated
ara
archi@@
ared
arise
arranged
ases
associate
aster
attached
bats
beers
begging
bend
bian
bicycles
bility
biological
blaming
bles
bly
brake
brushed
cancelled
cand@@
cathedral
cer
charity
checks
circus
cleaner
clocks
cockroach
competi@@
confi@@
connect
considers
continent
contribu@@
controls
cooper@@
cop
core
coughed
creation
deadly
defec@@
defendant
democratic
desires
despises
destination
destroying
dialect
dinosaur
discussing
divine
dolphin
domestic
doubtful
draws
dro@@
drought
dru@@
elbow
elders
eless
emo@@
ential
exhibition
extent
factories
farewell
farther
feminist
fir@@
firefighter
fires
floating
floors
flush
formal
fountain
fourteen
freely
garlic
gen
genuine
ginger
good-@@
gossip
graphy
heartless
hoax
hockey
hol@@
housework
hunch
iPad
igh
ill@@
indulge
inf@@
influenced
inform
initi@@
insist
install
instant
int@@
intentionally
interpre@@
investigate
investment
ironing
irs
jac@@
kin
kindly
kno@@
lac@@
landing
lar
law@@
leaning
lec@@
libr@@
life@@
lifetime
magnet
maintain
masculine
mated
mb@@
mean@@
meas@@
med@@
mem@@
mistress
mosquito
mothers
mow
multiple
niece
obser@@
observed
obtained
off@@
oneself
organ
pad@@
parallel
peach
penny
perspective
pick@@
pigeons
pirates
ple
plugged
pos@@
poten@@
practically
proces@@
pronouns
protein
ram@@
ran@@
recovery
referring
refuses
relation
remedy
resemble
restroom
retire
revi@@
rin@@
rob@@
rs
rushed
sadness
sanc@@
satellite
scor@@
scri@@
scru@@
seeking
self
ser
session
seventh
severely
shaved
sighed
simpler
singers
sixth
snoring
sowed
spon@@
staff
states
steam
steel
straw
strings
struggled
sty
substance
sued
supports
surprises
suspended
switched
sympathy
synony@@
teenagers
telescope
tent
tered
thou
thrilled
thus
tless
trace
tradition
tribute
tricked
trivial
tro@@
unattended
unbearable
unemployment
unlocked
unpleasant
urge
ut
vacuum
values
vanished
ven
volunteered
wardrobe
wed@@
welcomed
willingly
win@@
witnesses
wns
wr@@
zy
10@@
19
195@@
60
Among
Antonio
Anybody
Ba@@
Bad
Bears
Ben
Besides
Beware
Brian
Buddhism
Bur@@
Business
Caesar
Celsius
Chopin
Cre@@
Donald
Einstein
Elephants
Fi@@
Fin@@
Fred
Fu@@
Galician
Gen@@
Girls
Half
Han@@
History
Imagine
Is@@
Italians
Its
Janeiro
Kong
María
Mercury
Move
Much
Nu@@
Op@@
Party
Philippines
Play
Reality
Republic
Sam@@
Seeing
Sen@@
Seven
Socrates
Sorbian
Steve
Sure
Swimming
Ten@@
Texas
Thailand
Therefore
Tobias
Upon
Valentine
Venice
Wa@@
Yokohama
abolish
abruptly
accu@@
accurate
acknowled@@
acquired
adores
ain
altogether
ambi@@
ander
aned
angels
annoys
antibiotics
anytime
apo@@
artists
ash@@
ashes
ate@@
athlete
atic
automatically
aven@@
background
bad@@
bal
belts
ben@@
bent
bits
blond
bloody
blu@@
boils
bombs
bon
brea@@
breast
buil@@
bun@@
campaign
cellar
cent@@
centuries
championship
charges
charm
chil@@
choir
chopped
chu@@
cle@@
click
client
clumsy
columns
communist
compromise
con
conditioner
confusion
congratulated
considerate
consistent
conspi@@
constitu@@
contributions
conven@@
corrupt
cou@@
counter
couples
courses
crystal
cunning
curse
deceased
deceive
dedicated
demonstrated
depar@@
determine
devastated
dignity
dismissed
ditched
dolphins
doms
dr@@
dripping
dropping
drops
economics
elder
elections
emp@@
equals
fathers
feared
fel@@
finger@@
fireworks
five-@@
fixing
flas@@
fli@@
four-@@
freezes
frequent
froze
fun@@
fur
gains
ggled
gh
gin@@
girlfriends
gotta
grab
graceful
grain
gram
grandchildren
guitarist
hal@@
hamburger
hamburgers
hasty
hearted
heavens
hen
hometown
hydrogen
illu@@
images
imaginary
imp@@
import
impress
ind
individuals
infected
infection
intellectual
interfere
interpret
intersection
invaded
item
itting
ive
ja
kilos
latter
leaking
li
lic
lin
linguistics
lish
literary
log@@
long-@@
loyal
mali@@
mall
manages
mathematical
mber
meaningless
meets
melody
mineral
miserable
mmy
monsters
mortal
mother-in-law
motto
mustache
my@@
nate
naturally
need@@
ner@@
neuro@@
nicer
nostalgic
oath
observe
od
offensive
olives
organism
ority
orph@@
overseas
overslept
overweight
pesos
pic@@
pistol
plucked
pose
postpone
pouring
preferred
productive
profession
publi@@
puked
pul@@
py@@
questionnaire
ra
raz@@
read@@
reali@@
reck@@
reflect
relationships
release
relief
remembering
repairing
ribbon
routine
saint
sand@@
satisfactory
saurs
sca@@
scored
seize
sely
separately
shone
sincerity
sites
sively
sleeves
slightest
sm
so-called
souls
spaghetti
spelling
spit
spots
ss@@
stained
stains
steep
sticks
stool
storms
stre@@
stretch
sufficient
sul@@
sunrise
survivors
tag
tattoo
tendency
tested
thou@@
tightly
tioned
to-@@
toothbrush
trumpet
tters
tuna
turtle
twentieth
ultimate
um@@
unded
ung
ups
vary
vast
verge
vie@@
vio@@
visitor
voting
wars
waved
wea@@
weakness
weeds
western
whistling
wind@@
wit@@
yelled
yogurt
zi@@
15@@
65
Achilles
Allow
Amazon
Argent@@
Armenian
As@@
Breathe
Cer@@
Clearly
Consider
Cro@@
Cuba
Cy@@
Dar@@
Darwin
Dem@@
Denmark
Edison
Egyptian
Embassy
Englishman
Er@@
Eventually
Exercise
FBI
Fine
Finish
Football
Harry
Hy@@
Inter@@
Ir@@
Kingdom
L.A.
La@@
Ladies
Lake
Languages
Lojban
Luis
Miller
Nagoya
Oliver
Olympic
Pe@@
Pluto
Pokémon
Repeat
Republi@@
Res@@
Return
River
Satan
Son
Spaniards
Spiders
St@@
Strange
Success
Suzuki
Tagalog
Taiwan
Teach
Trans@@
Tri@@
Tro@@
Trust
Under@@
Wall
West
Wood
Yamada
Yoko
Zamenhof
abreast
accelerated
accessible
accountable
accusing
acking
adapted
aded
admits
aging
agu@@
aj@@
all-@@
alo@@
ambition
amed
analysis
ang
anime
antique
appeal
approaches
arti@@
arts
assemble
atom
atu@@
authors
av@@
avi@@
awoke
bab@@
backwards
banging
banks
bedrooms
beds
behalf
blank
bleed
boats
bot@@
bothered
box@@
breeds
broad@@
bullets
bumped
butt
capitalist
cast@@
cemetery
chairman
channel
chocolates
choices
chop@@
circu@@
collapse
colleague
colon@@
coloni@@
compelled
compete
confirmed
constru@@
consu@@
container
convincing
cooperation
cope
copying
corrup@@
counted
cowards
criticized
crop
cti@@
ctor
cultures
currency
dal
deca@@
deeper
defended
dentists
despair
dick
dictator
dig
digital
dinosaurs
disappointment
disguise
disgust
diver@@
divide
doorbell
drain
drawn
echo
ek
elegant
elimin@@
ende@@
ened
engines
envious
esome
establish
exaggerate
exchanged
expectations
feather
fication
fierce
fies
fif@@
figures
firewood
flock
flooded
forgiveness
foul
foundation
fying
gal@@
gasoline
gathering
genes
geography
gers
global
god@@
goddess
gorgeous
gratitude
gy@@
handbag
harmony
harp
heated
hec@@
hesitated
homeland
hook
horns
humili@@
humiliated
humour
identified
immortal
impolite
incorrect
ine@@
infec@@
injury
insecure
installed
instincts
inters
investig@@
ised
isolated
ketchup
kid@@
ku
lars
launched
lettuce
licked
lifted
ligh@@
lightly
log
lou@@
mach@@
mal
management
manual
masterpiece
mbled
measured
microscope
ming@@
minority
mo
monument
mysteries
ney
noises
northern
obligation
offend
old-fashioned
opportunities
ote
oted
oured
ousness
ow
panda
panic
paradise
pastry
pathetic
pawns
payment
peak
peanut
pearls
peasant
perfec@@
perfor@@
pher@@
photo@@
photographs
physically
pigs
plot
plug
port@@
potential
practi@@
prescribed
pression
prise
provo@@
psy@@
pun@@
punched
pupil
qualified
quar@@
ranch
rap
rational
rays
re-@@
rela@@
religions
ren@@
reporter
responded
returns
risky
ro
roots
rug
runner
sad@@
sample
sardines
scheduled
seatbelt
secretly
semi@@
sequ@@
server
shines
shopkeeper
shortage
shrimp
sian
sidewalk
sis
slippery
solitude
somehow
sors
spoil
squeezed
squid
stor@@
stranded
strawberry
stretched
stru@@
stunned
suck
sunshine
sup@@
supersti@@
suppor@@
surprising
survival
tain@@
tains
tate
taxis
temper@@
ten-@@
tery
there@@
thirst
tionally
tionist
tobacco
translates
treating
tripped
tted
tty
ty-five
unds
unfortunate
unite
unnecessary
user
username
utterly
v
val@@
van
vegetarians
vehicles
vest@@
vodka
watered
watermelon
waters
whereas
whistled
who@@
widow
wiser
wonders
wool
workaholic
worthwhile
yer
ze@@
&amp;
000
1.@@
150
1st
35
5th
Accept
Age
Asian
Books
Br@@
Brush
C.
Catalonian
Cool
Count
Dance
Describe
Elizabeth
Emperor
Europeans
Ever
Ever@@
Fa@@
Fe@@
Fr@@
Fre@@
Gabriel
Ger@@
Gover@@
Hatred
Holmes
Hor@@
Ido
Judging
Ke@@
Light
Mad@@
Mag@@
Magdalena
Mandarin
Marco
Mari@@
Math
Mediterranean
Middle
Mozart
Mur@@
Narita
National
Nations
Newton
Night
Nuja
Obama
Physics
Pole
Pres@@
Professor
Quran
Rain
Religion
Remain
Revolution
Rol@@
Saturn
Sel@@
Society
Sooner
Sur@@
Sweet
Tie
Tou@@
Tre@@
Tu@@
Unless
Usually
Venus
Vietnam
Wal@@
Want
Whi@@
Wikipedia
Wilson
Wor@@
X
aback
abstain
acceler@@
accepting
accommodation
accomplishment
accuracy
aci@@
acquire
adi@@
adjust
affection
alien
alls
aming
amused
amusement
anas
anged
annual
app@@
appro@@
approval
arian
aristo@@
asshole
assured
astonished
atch
attacks
atten@@
ature
award
babysitter
balloons
ban
banned
barbar@@
bare
bars
basis
bass
bassoon
beaches
beaten
behaves
bisexual
bor@@
boun@@
bridges
brother-in-law
bulb
burg@@
but@@
bye
cabinet
camp@@
carelessness
carpenter
carto@@
castles
ce-@@
centi@@
centric
cep@@
cer@@
ces@@
cha
chapter
characteristic
chase
chin
cia
cians
ck-@@
colours
comple@@
conclusions
congratulate
consist@@
constructed
consulted
conta@@
contr@@
contradict
coo@@
correspond
cos@@
covers
cruelty
curb
dable
deaths
decorate
defini@@
delivery
demanding
deprived
determin@@
dew
dialed
dian
dictatorship
differs
diligent
disliked
disturbed
dness
donated
dreadful
dressing
dryer
dumped
edible
ego@@
eighty-@@
ela
electronic
elementary
emphasis
encounter
entr@@
eraser
eri@@
ern@@
essness
esti@@
estimated
eth
eved
ever@@
evolved
ex
exce@@
execu@@
exerci@@
exposed
extended
ey
famine
fantasy
fashi@@
faucet
feathers
figs
filling
fingernails
fingerprints
flame
float
focused
fools
fraud
freed
frightening
frustrated
fts
fur@@
fuse
ga
gar
gardener
gations
gran@@
gravity
great-grandfather
grin@@
hair@@
heading
hed
heights
helpless
hil@@
hoarse
human@@
igned
imit@@
immature
imports
ination
incompetent
indispensable
industrial
inged
inspiration
inspired
interpreted
intolerant
ir
ites
ith
ized
je@@
judging
justi@@
justify
kets
kings
kite
labor
landscape
lemonade
liver
locker
lows
lungs
magical
magician
martial
mation
meadow
memori@@
messed
meta@@
mid-@@
miracles
mit
motivated
mour@@
movements
mushrooms
musicians
nal
near@@
neat
neglected
nin@@
noted
obeyed
obstacles
occasionally
offers
officers
ols
organize
overwhel@@
ox@@
pandemic
parks
parti@@
pated
peaches
peacock
peculiar
penguin
penis
perce@@
persistent
petals
phem@@
physi@@
planting
plat@@
pled
plunged
pon@@
porting
posing
prayer
precisely
pressing
prettier
primary
professors
protec@@
protest
proven
proverb
pup@@
questioned
range
reaches
recogni@@
referred
refle@@
reflects
relevant
reluctantly
ren
resor@@
revolves
robots
romance
route
rowing
ruining
rusty
scenario
scratched
sec@@
sen
senses
sensible
servant
sharing
sharpen@@
shelves
shepherd
short@@
shots
shovel
shud@@
situated
sizes
slammed
slices
smelled
sne@@
socialist
softly
solutions
spar@@
spill
spinach
spreading
squeeze
starving
steady
stry
stuffed
stupi@@
succes@@
sucks
sung
suspicion
swim@@
sym@@
symphony
tables
tame
technical
tender
tenth
terrorists
testi@@
theories
thetic
thinner
tide
titude
torn
towels
towns
tram@@
tre@@
tude
turtles
twenty-five
typewriter
undone
undressing
unforgettable
unit
unpredictable
unt
unwilling
urs
vaccinated
vanilla
vehicle
verse
vey
violet
virgin
vitamin
vitamins
vor@@
vulnerable
wandered
wanting
weary
wheels
wl
worthless
wrapped
year-old
yields
&apos;all
19th
2,000
21
400
70
80
8th
Abor@@
Absolutely
Apple
Arabia
Arctic
Artificial
B.
Bang
Bil@@
Bri@@
Buddhist
Bush
Bye
Char@@
Classes
Cold
Compare
Crime
Daddy
Dra@@
Dre@@
English@@
Florida
Fore@@
Gar@@
Getting
Going
Gold
Got@@
Grand@@
Grandfather
Grandma
Heat
Hon@@
Honesty
Hopefully
Hun@@
Ice
Juli@@
Keiko
Kennedy
Ki@@
Kiss
Lift
Lin@@
Looks
Lower
Mac@@
Marina
Ms.
Must
N
Nile
Norwegian
Ob@@
Ori@@
Other
Out@@
Paula
Peel
Pr@@
Prize
Real
Rh@@
Russians
Scott
Seriously
Shi@@
Sing
Social
Sou@@
St.
Studying
Sup@@
Tam@@
Television
Thus
Ty@@
Uyghur
Ver@@
Whales
Win@@
Wipe
Wouldn
X-@@
Y
a-@@
abhor
abhor@@
abor@@
abound
absorbs
addressed
admir@@
admiration
ala
alleg@@
altar
ama
ambu@@
ame
ame@@
amounts
ancy
anxiety
any@@
arm@@
artistic
asthma
astronomers
atta@@
aty
aves
aw@@
awfully
backup
bal@@
bap@@
barber
barked
barri@@
bas@@
bed@@
beggar
beli@@
beloved
bic
bir@@
bitter@@
blessing
blocks
braces
bribed
bubble
bul@@
burg
bury
busin@@
calculated
calmed
calmly
cano@@
cardio@@
cart
cat@@
cel@@
chasing
choosing
cigar
civil
ckers
ckle
classi@@
classmate
clever@@
colorful
comma
communities
compos@@
concrete
condemned
conquered
considering
conso@@
constitution
consum@@
contradic@@
coordin@@
coronavirus
corruption
cros@@
cum@@
cus
dam
database
define
dense
differ@@
dings
dioxide
discipl@@
discouraged
discrimination
disgusted
display
distingu@@
dium
divides
dling
dragged
dude
dye
earing
ech
eclipse
eco@@
eight-@@
elsewhere
embr@@
emotion
employed
employment
emptied
ena
enders
endless
eness
engineers
equality
er-@@
eradi@@
ergy
err
escapes
estimate
etings
evol@@
exceptionally
exhilarating
existed
expects
expedition
expense
experiments
explore
expose
fabulous
fan@@
farmers
farted
fear@@
fees
fiddle
fle
fon@@
forgets
formula
fulfill
galaxies
gardening
gather
gaze
gement
gg@@
ght-@@
ghter
glanced
globe
governed
grape@@
graphic
gree@@
greed
greet
gums
gunshot
gutter
hail
hare
healthier
heartfelt
heir
heroes
high-@@
hiking
honored
howling
hunted
id@@
identifi@@
iler
impartial
imposed
improvi@@
inappropriate
indicate
indu@@
inferior
inos
insensitive
inten@@
intends
internal
intrigued
iny
ists
ita
itable
itch
iti
iting
jack@@
jet
ji
kanji
keeper
lab
label
lad@@
lary
lated
leaf
lear@@
leftover
lers
lesbian
liter
liz@@
lle@@
llo@@
lolli@@
lus
ly-@@
mad@@
madman
magnificent
maintained
marrying
marshmallows
masks
massive
medicines
meo@@
meth@@
micro@@
minerals
mism
misunderstood
moder@@
motor
moun@@
mped
muscles
nam@@
negoti@@
negotiations
neutr@@
noodles
nouns
numb
obliged
occa@@
olive
open@@
operating
organic
organs
originated
otic
oysters
pac@@
pain@@
parade
participated
pasta
patiently
patriot
pearl
penguins
performed
physician
physicist
pigeon
piss
play@@
ply
posses@@
posted
prefer@@
present@@
preserve
presidential
prints
privilege
progres@@
promote
protest@@
proves
psychiatrist
purchased
quarters
quitting
rank
rapid
ray
realizes
rebel@@
reduced
refre@@
reno@@
representative
represents
republic
resignation
respon@@
returning
rhe@@
ripped
robbers
round@@
rubbish
rugby
run@@
rust
rying
s-@@
sage
sau@@
scen@@
scent
screwdriver
seized
selection
sened
sers
shadows
shampoo
shoelaces
shore
sible
sign@@
sister-in-law
sized
skeptical
sleep@@
slippers
sloppy
sn@@
snail
snails
sneezed
sneezing
sober
sock
soda
ss
stan
standard
stare
starve
step@@
stepmother
stiff
stroll
stung
sty@@
submit
subscribe
surname
swine
syllab@@
tage
tal@@
teen
temples
tering
test@@
thunder@@
tiles
toothache
torture
transmitted
triangle
tribe
trimmed
tube
tur@@
ul@@
uncertainty
uneasy
united
unsure
upper
utter
val
vals
van@@
varies
vegan
videos
viewed
vil
villain
volunteers
w-@@
wages
wards
weeping
welfare
wicked
winds
withdraw
worlds
wri@@
yel@@
ywhere
za
-out
0,000
1,@@
199@@
26@@
3.@@
95
Accidents
Alexander
Algerians
Algiers
Anti@@
Argentinian
Back
Beat
Ben@@
Beth
Blessed
Bra@@
Burn
Butter
Careful
Carol
Catalan
Championship
Charlie
Chi@@
Constitution
Cri@@
Democracy
Disneyland
Ear@@
Empire
Est@@
Eu@@
Experience
Flowers
Focus
Ford
Friends
Galileo
Gam@@
Ge@@
Giraffes
Her@@
Hunger
Ian
Iceland
Icelandic
Isaac
Islamic
Jessie
Jill
Jump
Ka@@
Kaby@@
Ku@@
L
La
Lad@@
Lat@@
Lau@@
Les@@
Lie
Magnus
Milan
Morocco
Muiriel
Mum
Nepo
Neptune
Northern
Oil
Olga
Phi@@
Poetry
Police
Politicians
Poverty
Press
Prin@@
Recently
Roger
Romania
Rosa
Sally
Sandra
Saudi
Seize
Sent@@
Set
Seville
Shar@@
Six
Smile
Soci@@
Solar
Spirit
Sugar
Tan@@
The@@
Times
Titanic
Travel@@
Twelve
Universe
Uruguay
Vienna
Vietnamese
Vo@@
Waiter
Wang
Wel@@
Whom
Yo@@
abbreviation
ables
academic
accessories
accounting
accredited
acher
achievement
admission
adop@@
advantages
adverbs
adverti@@
aling
alization
alle@@
alley
altered
amaz@@
anchor
ancing
anthro@@
antiques
applies
assem@@
assignment
asting
athle@@
automatic
ava@@
avo@@
awak@@
bacon
balanced
bankrupt
bath@@
bble
bean
beautifully
bedtime
beliefs
believing
belongings
berry
bia
bin
blessed
bloo@@
blows
blue@@
boarded
bold
bom@@
bots
bouquet
boy@@
brass
breasts
breathed
breeze
brightly
brushes
buddy
buzz@@
cado
cafe
cafeteria
calories
cam@@
candidates
capitali@@
carri@@
catastrophe
catchy
challenged
chamber
chaos
chapters
chimney
chips
chir@@
chor@@
civilized
cker
clapped
clar@@
clerk
co-@@
cock@@
colds
collabor@@
combination
comedi@@
communism
compassion
competitions
concentration
concep@@
concerns
concerts
conditioning
conquer
consequence
consume
consumed
converted
convicted
correc@@
couscous
cracy
cradle
crap
crawling
crow@@
cultiv@@
curfew
curly
dage
damages
damned
dan@@
dared
deadline
dealt
decade
def@@
defenseless
dele@@
depart
deposit
derived
describes
deser@@
dest@@
diabetic
diamonds
diarrhea
dimensions
diplomatic
directed
disk
disorder
disposal
dissatisfied
diversity
door@@
dou@@
download
drained
dreamer
drowsy
drum
drun@@
eches
edu@@
educational
ef
egg@@
eighth
eing
ele@@
electrician
eleventh
elling
em
encoura@@
ene
envied
environmental
epi@@
equ@@
ested
ester@@
eu@@
exagger@@
exceptions
existing
explor@@
extracted
f-@@
fails
fare
fatter
feminine
fic
fig
fin
finals
fire@@
fireplace
fla@@
flavor
flaws
fleas
fles
flowed
flown
forgave
formation
fragile
freckles
freezer
fu
fulness
gambling
gases
geometry
ggling
ghten@@
gic
gin
good-bye
greenhouse
grounds
guts
halfway
haste
hawk
hay
headphones
heals
hears
hens
hesitation
hip@@
historic
homes@@
hospitality
humi@@
humid
hur@@
hurricane
ical
ice-@@
ideals
igh@@
ignoring
illnesses
imitating
improv@@
indoors
iner
inju@@
insists
insults
interro@@
interrog@@
ints
irregular
irritated
items
ium
jec@@
kar@@
kisses
knot
ku@@
lame
leisure
lenses
lim@@
lings
lipstick
lled
logi@@
lor@@
lord
lotion
madness
magnetic
mandatory
manipu@@
mare
mas
mashed
medium
melt
melting
metres
microwave
migra@@
mites
models
modified
mouths
mug
mus@@
nap@@
narro@@
naughty
negotiate
nephews
network
neys
nineteen
nis
no-@@
nod
noticing
noun
nuisance
numbing
objection
oceans
oks
onable
ope
operated
oun@@
ouse
owners
parcel
parsley
peeled
petrol
pharmacist
phenomenon
picky
pierced
plague
plumber
pointless
polluted
porn
ported
predic@@
prejudice
premature
prevents
principle
producing
prof@@
programmer
programming
pronoun@@
propose
protecting
pts
punk
quick@@
railroad
rash
readers
realistic
recep@@
reco@@
reinfor@@
reject
relatively
relieve
reluctant
repeating
resi@@
respectful
responsibilities
retirement
revol@@
revolu@@
rewrite
rhythm
riddle
rily
risen
risked
rubber
ruler
sages
sailor
saucer
scattered
schol@@
scoundrel
script
sculp@@
sealed
second-@@
seeks
seg@@
self-esteem
sels
senior
seven@@
sever@@
sexy
shameful
shameless
sharpen
shaves
shaving
shift
shit@@
shops
show@@
signature
silently
simpli@@
situations
slim
smooth@@
snore
sophisticated
sorcer@@
sparrow
spelled
sphere
spil@@
spin
statistics
stically
stimulation
stirred
stormy
stressed
structures
subscri@@
subscription
substitu@@
subtitles
suburbs
suf@@
suggesting
sunbathing
surprisingly
swept
swi@@
tablecloth
taining
tang@@
tango
teasing
tempted
terrorist
tha@@
thermometer
thin@@
thorn
threatening
throne
topics
translators
travelled
trembling
tres@@
trou@@
tub
tured
typically
typing
unacceptable
unding
union
unity
unmarried
urged
vations
vessel
veterinarian
villagers
vital
vulgar
ware
warnings
weighed
wept
whore
wink
winked
witnessed
wned
worldwide
wra@@
wrink@@
yawning
é
-speaking
000@@
00@@
15th
190@@
198@@
1990
21st
26
27
3,@@
30@@
36
AIDS
Airport
Albert
Alberto
Ali@@
Angela
Arab
Asians
Astron@@
Attention
Austrian
Avoid
Ban@@
Bats
Bell
Best
Blue
Breakfast
Catalonia
Cel@@
Chec@@
Cheer
Clap
Communi@@
Contact
Cop@@
Curi@@
Currently
D.
Den@@
Disney
Dragons
Drinking
Driving
Dude
Eiffel
Emi
Empty
Enough
Far
Feeling
Filipino
Foreign
Friendship
Grammar
Hamlet
Hanako
Hilton
Hiroshima
Honestly
Hur@@
Indeed
Interlingua
Iraq
Jerry
Jerusalem
Jew
Jimmy
Jorge
Kan@@
Kazak@@
Kill
Kim
Leaving
Lech
Lend
Lightning
Linux
Lock
M
Marilyn
Marriage
Marti@@
Martin
McDonald
Medi@@
Merry
Millions
Mis@@
Mona
Naoko
Non@@
Of@@
Ohio
Olympics
Persian
Person@@
Peru
Philosophy
Poli@@
Potatoes
Practice
Prague
Promise
Prove
Rabbits
Ram@@
Relax
Respect
Rest
Roberto
Sachiko
Sato
Sch@@
Shoot
Shouldn
Sim@@
Slova@@
Small
Smo@@
Square
Sub@@
Susie
Taking
Taste
Tea
Teresa
Tim@@
Toyota
Traffic
Twenty
USSR
Unlike
Upper
Ur@@
Venezuela
Vote
Was@@
Wi@@
Workers
Working
X@@
Yemen
abdomen
aboli@@
abrasive
absorption
aby
actual
actured
adly
admi@@
adore
adv@@
advances
adversity
agre@@
alistic
alizing
allig@@
alousy
alphabe@@
ament
ange@@
angered
anim@@
announce
annoy
anu@@
aped
apologies
appearances
applying
apprehended
apt
aqu@@
arose
astic
astronomy
asy@@
ater
attraction
autograph
awareness
bands
bankruptcy
barn
basi@@
bathe
batt@@
battles
behaving
believable
berg
bias
blackma@@
bladder
blog
bo
boast
bores
boundaries
browser
bursting
businessman
buttons
by@@
café
calcul@@
canvas
capitalism
capturing
carrot
carved
casts
casual
caterpillar
cease
ceased
cem@@
cers
certificate
challenges
champagne
cheer
chemist
chewed
chilly
chorus
chronic
cid@@
cies
circum@@
cit
ckets
classic
clean@@
clearing
clubs
co
colony
colorblind
coma
commander
companion
comparison
complaint
conceal
concluded
condu@@
conform
connections
conqu@@
considerable
copied
costume
craft
crat
crawl
crawled
creepy
crows
crun@@
cta@@
cut@@
cuter
cycles
cycling
decades
declare
decorating
defined
definition
del
del@@
delegates
deliberately
delight
delightful
demon
dent
dential
dependable
depression
designs
despised
detec@@
devils
dging
di
diabetes
diagon@@
die@@
disappe@@
discreet
disobe@@
dispute
dive
dles
doomed
double-@@
dove
drag
drama
drinkable
drome
drums
earliest
earth@@
eater
edition
effec@@
elbows
elect
electr@@
eled
ell
elle
emails
embarrassment
enabled
enclosed
encountered
endowed
endure
energetic
enjoyable
enthusiasm
equivalent
erected
erup@@
escaping
eses
essly
ethi@@
ethnic
eties
ex-boyfriend
excessive
exhi@@
exp@@
explored
extension
extr@@
ez
fac@@
fancy
fart
fascist
fashioned
fasten
favorable
ffed
ffer@@
fiancée
fici@@
fills
fisher@@
flags
flesh
fling
flipped
flowing
foggy
folks
forks
founder
frankly
free@@
freeze
frost
fru@@
fted
full-time
func@@
funds
gang@@
generate
genre
gent
ghten
ghtened
gifted
gladly
gle
gor@@
gover@@
govern
grammatically
grant
graph
grip
guaranteed
guided
gullible
hable
hac@@
handful
hanged
hangs
harmed
haz@@
here@@
hide-and-@@
homosexual
hopeless
horn
horri@@
hot@@
housewife
hus@@
hydr@@
hypo@@
ians
icon
ight
ign
imagin@@
impli@@
inch
inclined
ind@@
indigenous
inflation
influ@@
ingredient
inherited
inst@@
insu@@
interven@@
intervened
intimid@@
invest
invested
irresponsible
ish@@
istic
iving
j
jelly
journal
judgment
judo
junior
ka@@
key@@
kie
kilogram
kindergarten
kn@@
knights
knit
lacking
lad
largely
lasting
lates
lating
layer
lead@@
leaders
leaks
liars
liber@@
licking
like@@
lion@@
locks
m-@@
madly
magnets
mango
mansion
maps
marathon
marine
marvelous
mastered
mechanics
meditation
melancholy
mentally
milk@@
minus
mirrors
mix@@
monar@@
mot@@
multilingual
muni@@
nes@@
never@@
nical
nicely
non-binary
non-native
noob
nou@@
nurses
o-@@
objected
oboe
obs
observation
obstacle
obstinate
occupation
ods
oled
onic
opener
opi@@
oppose
organiz@@
orian
origin@@
originally
ous@@
outward
overtime
paci@@
panels
panties
paragraph
parli@@
partici@@
partly
patr@@
patron@@
pause
peacefully
pend@@
percep@@
persecu@@
pessimistic
phobic
pis@@
pit
pitch
pleaded
plum
pm
pointing
policemen
policies
polyglot
pony@@
popularity
portrait
pos
poses
possessed
postcard
pow@@
pox
ppers
practices
prescription
presentation
preten@@
preva@@
previously
procedure
profes@@
profits
projects
proportion
proteins
protested
proto@@
pt
pudding
punch
puppies
qua@@
quantum
que@@
ques
rack
racy
radical
railway
raises
reaching
reas@@
recession
recognise
recognition
reconsider
recording
red@@
redu@@
refer
reform
reforms
refugees
regarding
regu@@
rel
relied
remaining
rene@@
renew
reptiles
reser@@
residents
resume
reveal
rian
ribs
rifle
rob
robe
royal
rubble
rum@@
rung
safer
sales@@
salon
satis@@
saul@@
scales
scars
scholar
scol@@
scraps
scratching
screams
se-@@
sea@@
seal
seduce
seed
senger
sensa@@
separ@@
separates
servants
ses@@
sett@@
settlement
sexi@@
sexually
shack
shalt
shattered
shel@@
ship@@
shortcut
shre@@
shri@@
sical
sigh
simil@@
simultaneously
sional
ski@@
skull
slip
smartest
snapped
solely
solitary
sorts
sounding
speeding
splashed
spotted
spra@@
spying
ssy
stam@@
stand@@
standards
starved
stat@@
statues
stepping
stical
stingy
strangely
strategy
stration
strikes
stripes
sture
suc@@
sucking
suggestions
suited
super
supplied
surfing
surroundings
suspicions
suspiciously
swore
syllable
syllables
symbols
tablet
tably
tacti@@
tained
tals
tat@@
teased
techno@@
temporarily
tequila
terrifying
tha
thee
theless
theme
thers
thes@@
threats
throwing
tible
tissue
toilets
tom@@
tou@@
tracks
transgender
transport
transportation
tray
trop@@
troubled
tun@@
twi@@
ues
underestimated
underwater
unexpectedly
uninsured
unto
uplo@@
urban
uri@@
ury
uts
vable
vali@@
vate
verses
verti@@
vian
vine
viol@@
visi@@
vivi@@
void
volun@@
vom@@
votes
wage
warrior
wash@@
watch@@
watering
websites
weed
wheelchair
whining
wisely
with@@
wreck
xenopho@@
xes
yawn
yp@@
zebras
é@@
-fi
-in-law
-looking
-year-old
..
0.@@
100@@
10th
1939
1974
197@@
2023
25@@
3,000
33
45
AC
Actions
Adam
Afterwards
Again
Ages
Air@@
All@@
Andalu@@
Andromeda
Apples
Ari@@
Armenia
Army
Aside
BC
Beautiful
Belarusian
Bir@@
Bol@@
Bread
Bridge
Bulgarian
Bun@@
Butterflies
CNN
Cairo
Cal@@
Carry
Channel
Chemi@@
Chick@@
Chilean
Cho@@
Click
Cock@@
Commun@@
Complete
Control
Cook
Copy
Coun@@
Cover
Dear
Del@@
Department
Diego
Dig
Divide
Dor@@
Dum@@
EU
Elec@@
Em@@
Enter
Estonia
Ethi@@
Express
Feli@@
Fight
Fran@@
Frenchman
Fro@@
Gal@@
Goodnight
Got
Grand
Gri@@
Har@@
Hip@@
Hit
Honey
Hunting
Ignorance
Indi@@
Invite
Ishmael
Judaism
Karen
Ken@@
Klingon
Knowledge
Lady
Law
Lay
Lon@@
Loosen
Lunch
Marcus
May@@
Mel@@
Melanie
Might
Mongo@@
Monroe
Moses
Nahuatl
Nat@@
Nepomniachtchi
Nixon
Or
Oranges
Owls
Oxford
PM
Palace
Palestine
Pat
Patri@@
Pigs
Plan@@
Plant
Plants
Por@@
Power
Pray
Pretty
Pua
Pull
Q
Q@@
Quantum
Quechua
Rather
Rec@@
Renaissance
Rev@@
Roosevelt
Sarah
Scottish
Shanghai
She@@
Shit
Short
Sleeping
Sloven@@
Snow
Soldiers
Som@@
Some@@
Sophi@@
Spread
Statue
Stephen
Stir
Sto@@
Stupi@@
Sue
Summarize
Suppose
Tak@@
Talking
Technology
Ted
Thou
Through
Trans
Translating
Turks
UK
Uganda
Using
Victory
Viol@@
Visitors
Walking
Watching
Weren
Wil@@
Wild
Within
Woe
Wolves
Writing
Years
Yiddish
Youth
_
aardvark
abacus
abdominal
abdu@@
abiding
absent-minded
absorb
abusive
accommodated
accord
accordance
accoun@@
accuse
acquaintance
actors
addi@@
addic@@
adds
admini@@
adventures
aes@@
affir@@
afterward
agency
agers
ah@@
airmail
ais@@
aki
alists
aloud
alter
amateur
ames
amp
ancies
angles
appeti@@
applauded
applause
aps
armpits
arrange
arro@@
ase@@
asing
aspect
assembly
associated
association
assu@@
asteroid
astonishing
asylum
atar
athe@@
ational
atro@@
attempts
attending
attentive
attentively
au
auth@@
authori@@
avoi@@
avoids
awa
bait
banjo
bargain
bat@@
bathrooms
bby
beasts
beggar@@
bel
belly
bes@@
beverage
biscuits
bishops
bla@@
blossom
boasted
bol@@
boobs
bookshop
boot
boredom
bos@@
botched
bour@@
brate
brick
broad
broadcast
broccoli
buddies
bugging
bull@@
bunk
butcher
cables
calcu@@
campus
caram@@
cardboard
carded
cashier
catalo@@
categ@@
celebration
ceps
channels
characterized
charging
chatted
cheese@@
chol@@
chooses
churches
cinnamon
ckered
cket
clarify
clarinet
cling
clogged
coast@@
coconut
cogni@@
combine
combined
comedy
comics
commitment
compen@@
competed
concentrated
confis@@
conne@@
cons
consist
constellation
consumes
consumption
contempor@@
contri@@
control@@
controlled
convi@@
coon
copper
corpo@@
corridor
cott
council
cow@@
cowar@@
cracked
crane
craz@@
creativity
creep
criti@@
critic
cross@@
crow
crystals
cud@@
cursed
darker
dations
daughter-in-law
daytime
debated
deck
decl@@
declar@@
deposited
destruction
detected
determination
devi@@
dialects
diameter
digesti@@
dimension
dimin@@
dine
dirt
disadvantages
disasters
discover@@
disda@@
disgusts
dishwasher
distribu@@
distributed
district
documentary
dom
donate
doorknob
doubted
doubting
downs
dresser
dul@@
dump
e-mails
ea
earnest
earning
earphones
earring
eastern
eaves@@
electrons
element
eling
embraced
emerged
emplo@@
engineering
enlisted
eno@@
enta@@
entreprene@@
equator
ert
estly
etc
etheless
ety
evacuate
exaggerating
excitement
expires
explanations
exports
extingu@@
extrover@@
eyebrows
factors
faded
faking
farms
fascin@@
favors
feast
fec@@
federal
fications
figh@@
filthy
finance
fireman
firemen
first-@@
flav@@
flee
fleet
flexible
floods
flou@@
fold
follo@@
footsteps
forbid
forcing
fortress
fortunes
foxes
frowned
fty
ful@@
fulfilled
furiously
furni@@
fuss
g-@@
gag
gaining
gas@@
gaz@@
generations
genetic
genetically
geni@@
gently
gger
ghtful
gible
gl@@
gly@@
gn@@
gno@@
gol@@
gold@@
good-for-nothing
gossi@@
governor
grand
gras@@
grave@@
greasy
grind
grocery
grown@@
gru@@
grudge
grum@@
gul@@
habit@@
haiku
hairdresser
hairy
han
handled
harmon@@
healing
heel
helicopters
hemis@@
hesit@@
high@@
hint
homo@@
hoo@@
horny
hose
hostile
hottest
household
hut
hydro@@
hypocrite
iceberg
ier
ified
igns
igu@@
illa
illing
illiterate
illumin@@
im
immune
inability
inches
incomplete
increases
indicates
indiscre@@
individu@@
industries
inexcusable
inexplicable
ingual
inherit
inheritance
injustice
inspire
institute
instruction
instructor
insulting
interviewed
intoler@@
intui@@
invad@@
invent@@
invi@@
invincible
invol@@
involve
io
ire
irrelevant
ishes
itful
itu@@
ives
izing
jected
joining
jui@@
jump@@
jun@@
kangaroo
ken@@
kettle
kidnapping
kins
kit
kittens
kitty
laboratory
lakes
lamb
lane
lazi@@
leap
left-handed
legitimate
lending
leness
lest
licence
limitations
lined
ling@@
lish@@
listen@@
lizard
lo
loaf
logically
logists
lorry
lous
lowered
lunar
mage
mailman
maintenance
manuf@@
marble
margarine
markers
markets
marries
massage
masturbate
mat
materialistic
mathematician
maths
mayonnaise
meditate
meditating
memorizing
meow
merchant
merry
midst
mighty
mill
miner
misfortune
mit@@
mits
mock
monk
monotonous
moonlight
moron
mortality
motivation
motive
motorbike
mous
mule
murder@@
murders
mustard
mute
nami@@
nar@@
negle@@
nership
net@@
newborn
nitrogen
nments
nocturnal
notion
nutritious
obli@@
obsolete
occu@@
octo@@
odor@@
officially
oh
ological
oming
omni@@
onal
opti@@
ora
ores
organisms
ori
ories
oth
outer
outr@@
overlook
oy
paints
palm
panicked
pantry
parado@@
pardon
pass@@
passionately
pate
patron
pattern
pears
peas
pec@@
ped@@
pedest@@
peeing
peoples
peppers
perseverance
persist@@
persuasi@@
phenomena
photogenic
pig@@
pile
pill
pint
pir@@
pizzas
pleasures
pledged
pol@@
pole
polish
pollen
poop
pope
popu@@
porch
porridge
posed
possession
postman
pour
powerless
pp@@
precautions
precise
prediction
preju@@
prepar@@
prettiest
primitive
priority
procrastin@@
propaganda
prophet
prosperity
prosperous
protagon@@
proverbs
province
punctuation
pushing
questi@@
queue
racial
racism
raisins
rates
reasoning
recorder
recy@@
recycled
red-handed
reference
refers
refuge
refund
reg@@
registered
rehear@@
reign
remor@@
rep@@
repe@@
replac@@
represent@@
represented
rever@@
review
rigged
rinse
rip
roar
roast
roasted
robber
rolling
sack
sacrificed
sal
san@@
sati@@
sations
savage
scares
scaring
schem@@
sciences
screwed
seagu@@
seasick
select
sends
sent@@
sharpener
shell
shells
shivering
short-@@
shredded
sibling
side@@
sig@@
simplest
sip
six-@@
skill@@
skipped
skyscraper
slam
smen
snatched
sneak
snitch
snow-@@
snowfall
sory
sought
spades
spher@@
spiritual
spreads
squeaking
stag@@
stati@@
stations
steals
stered
steri@@
sticky
stifled
stin@@
stir
stitches
stopping
strangled
strated
streng@@
stressful
stret@@
stripped
stron@@
strugg@@
stur@@
succe@@
summit
suntan
suspects
symphon@@
t-shirt
tailor
tally
tank
tas@@
tated
ted@@
teness
tension
territor@@
terror
tes@@
textbooks
texts
th-@@
than@@
theart
therapist
thes
thic
thirty-one
thorns
thre@@
threaten
tick
ticking
tighten
tili@@
timid
timing
tis@@
tments
toler@@
tomb
tongues
tory
tragic
tran@@
transfer
transferred
transi@@
transparent
transported
travelers
treach@@
tril@@
trucks
ttle
turnips
twenty-four
twist
twisting
tyrant
ukulele
um-@@
unaware
unbelievable
uncanny
und
undergo
undle
undoubtedly
update
ute
vaccine
vague
valu@@
veins
veness
vent@@
verage
villages
vir@@
virtu@@
virtues
visions
visu@@
visual
volu@@
wandering
warded
warming
washer
weak@@
weasel
wee@@
wel@@
wh@@
whiskey
whomever
widely
widespread
wines
wis@@
wit
workshop
wrist
writers
yielded
you@@
°
ão
ç@@
‘
&apos;an
-all
-in-@@
-to-@@
00,000
000,000
1950
1980
1989
2011
2012
201@@
39
48
8.@@
88
A.
ATM
Aardvarks
Acid
Afghanistan
Aires
Ak@@
Alcohol
Allah
Andrea
Ania
Antarctica
Apart
Arabian
Aristotle
Arriving
Art
Atoms
Az@@
BBC
Babies
Bacteria
Basi@@
Bear
Beer
Beg@@
Behold
Bel@@
Belarus
Belgi@@
Bless
Brothers
Bru@@
Buenos
Bus@@
COVID-19
Can@@
Canal
Canc@@
Cari@@
Carl
Cas@@
Cast@@
Cha@@
Champi@@
Cinderella
Clar@@
Clas@@
Coke
Congress
Consult
Cooking
Cyrillic
Daniel
Danish
Declar@@
Deep
Deli@@
Detroit
Ding
Dino@@
Don@@
Done
Drugs
Dry
Eastern
Ed@@
Egyptians
Ele@@
Electric
Eli@@
Eris
Esperanti@@
Eurovision
Exactly
Examine
Except
Fanta
Fast@@
Feel
Ferris
Fold
Frank
Frank@@
Fridays
Fucking
Games
Giving
Glass
Golden
Greg@@
Guide
HIV
Hard
Hashimoto
Helsinki
Hercules
Him
Hispanic
Hmm
Hol@@
Home
Identi@@
Imagination
Impossible
Inhale
Instagram
Institu@@
Israeli
Ito
Ivan
Jac@@
Jean
Joy
K
Kabylia
Kaz@@
Kings
Kur@@
Lack
Lar@@
Later
Lem@@
Lidia
Lithuania
Logic
Lou@@
Luck
Master
Meanwhile
Meat
Meet
Mem@@
Mina
Mom@@
Monkeys
Musk
NO@@
Native
News@@
Nuclear
Okinawa
Ottoman
Ox@@
Palestinians
Panama
Paraguay
Patien@@
Perfec@@
Place
Pleasure
Prepare
Probably
Project
Quiet
Qur
Regar@@
Rob@@
Robin
Rock
Row
Sar@@
Sara
Screw
Sk@@
Sla@@
Slavery
Slo@@
Slow
Smell
Soli@@
Spaniard
Spi@@
Squirrels
Stars
Strictly
Syria
System
Tango
Teaching
Tech@@
Ter@@
Testament
Tig@@
Tor@@
Toss
Translation
Treas@@
Twi@@
Ul@@
V
Val@@
Vari@@
Vasilissa
Ve@@
Vikings
William
Wisdom
Wit@@
Won@@
Wri@@
abi@@
abs
absur@@
abuses
aby@@
accumu@@
accurately
accusation
acelet
acker
acles
acquit@@
act@@
activated
adjec@@
adjectives
adjusted
administration
admit@@
ado
ado@@
advertisement
advo@@
ady
aeroplan@@
affor@@
agan
agon@@
agony
agriculture
airports
aisle
al-@@
alar@@
algorithm
alities
alled
allergies
alous
alternatives
alty
aluminum
aly@@
ambiguous
amentary
amongst
analyzed
ancestor
ancho@@
andro@@
andruff
anecdote
aning
anks
annihil@@
anta
anted
anthem
antine
anyways
apologizing
apy
archaeo@@
arrangement
arrows
arsonist
arth
ashi@@
assassin@@
assassinated
asser@@
assess
assist
assist@@
astro@@
astrology
astronauts
ater@@
ather
atist
attend@@
attle
attracts
attributed
atures
audi@@
aul
aunts
authentic
authorities
authorize
auxili@@
avalan@@
awaited
babo@@
bachelor
backing
bage
bakes
bamboo
band-@@
bang@@
baptism
barbe@@
base
basically
bastard
bation
bearing
bedridden
beetle
bells
belonged
beneath
bert
best@@
bi
biased
bikes
binary
biography
birth@@
bit@@
blade
blames
blankets
bler
blinds
blink
blocking
blossoms
blow@@
body@@
bodyguard
booze
bot
bounds
bows
brandy
breath@@
brighter
brightest
brim@@
bum@@
bushes
buttoned
campfire
carni@@
cas
celebrity
celery
celess
cell@@
cello
cest
chamele@@
characteri@@
cheap@@
chee@@
cheer@@
cheers
cherries
chill
choked
chopsticks
cian
cis@@
citizenship
civilians
civilizations
ckwise
clas@@
clay
clear@@
clearer
cled
clings
clini@@
cock
coco@@
coke
collo@@
color@@
combustion
committing
comp@@
compar@@
compreh@@
comprehensible
compulsive
concealing
concentr@@
concerning
conden@@
conju@@
consent
conser@@
considerably
consul@@
contamin@@
contracted
contrast
conversion
convert
cop@@
corp@@
corpus
correcting
costly
county
coura@@
cram@@
creator
cricket
criticizes
croissant
crucial
curry
custard
custody
cutest
dangers
dation
ddy
decides
deciding
decisive
decline
deed
defending
defy
delinqu@@
delusion
demolished
demonstrate
demonstration
denying
depending
deplo@@
derness
descend@@
descended
destroys
detached
detained
detect
developing
develops
devices
devised
dged
dial
diaper
diced
dio
diplomat
directory
disabled
disappears
disclosed
dishon@@
dismant@@
disputed
distinct
diverse
dividing
diving
dless
document@@
doub@@
dragon@@
dramatic
dres@@
duck@@
duel
dum@@
dump@@
dupli@@
dwells
eable
ech@@
eck@@
educate
ego
eigh@@
elabor@@
eldest
electro@@
elev@@
elite
elo@@
embarras@@
emis@@
emperor
emphasized
empire
employ
enci@@
encyclopedia
ength
enters
entertain@@
eous
eping
episo@@
equations
equipped
erec@@
eries
erous
estab@@
estate
eton
even@@
everyday
exceeded
excep@@
executed
executive
exhaust@@
exoplanets
expand@@
expired
explode
extin@@
extinguished
eyeli@@
fa
facili@@
fade
failing
famished
fastened
father-in-law
fax
fe
fem@@
femin@@
ffy
ficiency
finishes
finite
firefighters
firmly
fish@@
fit@@
fitting
flakes
flirting
floats
flun@@
folder
folding
foo@@
fooling
four@@
franti@@
freak
frequ@@
fron@@
gander
gazed
geance
gel
geniuses
geo@@
geology
gered
gestu@@
ggle
ggy
gi
gment
goodness
goodnight
governs
graduation
gram@@
graphi@@
grasp
grasshopper
greedy
green@@
guarante@@
gues
guitars
hairstyle
hallway
han@@
handcuffs
handicapped
handkerchiefs
harbor
hard-working
harmless
hat@@
hau@@
headlights
hedgehog
herbs
hills
hind@@
hitch
homici@@
hone
hostages
hosts
huh
humming
hypocrisy
hypothesis
iPhone
ilt
imag@@
immense
immigrant
immigration
imper@@
imperi@@
implying
impo@@
imprisoned
impro@@
incen@@
incurable
inde@@
indifference
industri@@
infinitely
ingale
ingu@@
inians
initiative
inity
inn
inner
insanity
inseparable
inspi@@
instinct
intel@@
intentional
interfering
intersec@@
intoxicated
introverted
intrude
ious
irrit@@
irritates
isms
ital
itches
itchy
ition
ived
ize
jars
ject
ji@@
jour@@
journalists
judges
karate
killers
kilometres
kisser
kit@@
knelt
knitting
knob
know-@@
lander
lark
lawsuit
lays
laziness
lemons
lethal
lian
licen@@
lifestyle
lighting
lilies
linguistic
linked
liquids
list@@
liter@@
liters
loathe
losses
low-@@
lowed
lowing
lucid
lumberjack
lur@@
maiden
main@@
maj@@
maker
mam@@
mance
maniac
manifest@@
manly
manufac@@
manuscript
mar
marke@@
mary
mately
maximum
mbs
meat@@
mechan@@
mechanic
medieval
mented
merchandise
mered
meri@@
metric
microphone
midday
mince
mind@@
mines
miniskir@@
mma
moi@@
mole
molecular
monthly
moreover
mornings
mother@@
motor@@
mount
mun@@
myth
navy
naï@@
neighbour@@
nel
neutral
nies
nment
non
non-stop
noses
nosy
notebooks
numbered
obe@@
obese
obligated
oc@@
occurs
offence
offense
offer@@
officials
offshore
omit@@
omy
one-eyed
one@@
ono@@
oph@@
optimist
organi@@
oring
osity
outraged
overalls
overconfident
pal
pandas
partially
particles
partners
passwords
pastime
pastor
patterns
pav@@
paved
paws
peed
perfection
perple@@
peti@@
pha@@
phase
phere
phon@@
pi
pin
pinched
pine
pioneers
plan@@
playful
playground
plaza
plea
plural
pneumonia
po
podcast
poets
pointments
poo@@
pools
popped
populated
possess
prank
preci@@
pregnancy
primar@@
prin@@
privately
prob@@
proceed
proceeded
profound
programmed
promot@@
prophets
proposals
pros@@
protesters
psychic
psycho@@
psychological
psychologist
psychology
ption
pump@@
purely
purposes
puzz@@
py
quad@@
qualities
quisition
quor
quotation
races
radiation
rail
rail@@
realised
rear
recapitulate
records
refer@@
refrain
regime
regional
regulations
relies
remar@@
remedi@@
repeatedly
requirements
researchers
reservoir
resistance
resolution
resolved
respective
restarting
restra@@
rests
revel@@
reven@@
revolve
rewrote
rhyth@@
riches
riddles
ris@@
riser
rocking
roller
rot
rum
sabot@@
sacre
sailed
sails
saints
sandbar
sanity
sausage
scam@@
scores
scorn
scorpions
seas
secondhand
selec@@
self-employed
sevent@@
sewed
shady
showers
shru@@
shuffle
sieve
sighted
sil
simmer
singular
sips
sist@@
sk
skies
skilled
skis
slug
smel@@
snacks
snoo@@
snu@@
snuck
sociable
sole
soli@@
solves
soo@@
sovere@@
spaceship
spectators
spinning
spitting
sprink@@
stalled
stap@@
startled
stated
steadily
stein
steroids
stools
strai@@
strangest
street@@
striking
submar@@
substances
successfully
superi@@
supre@@
sured
surrendered
surrounding
swag@@
swan
swelled
swing
symboli@@
sympa@@
synago@@
tablets
tack@@
tail@@
talents
taped
tched
tec@@
techniques
tedious
teen-year-old
teens
teller
tened
tens
testimony
tex@@
texting
thank@@
theore@@
theoretical
thick@@
thmetic
thrive
thum@@
thy@@
tically
tier
tioning
tir@@
tiveness
tle
tles
toad
tolerance
tomic
tonic
tonomous
tortoise
totaled
touches
tougher
toxic
tram
traveler
tremble
trifles
triumph
trustworthy
tta
tulips
tum@@
tural
turnip
ty-four
ud
umbrellas
unanim@@
unbeatable
unfaithful
unfamiliar
unfit
unicorn
unsuccessful
untie
untied
ura
urgently
urin@@
use@@
vacations
vampire
vative
vels
venti@@
verdict
vices
vicious
vigorous
vot@@
vou@@
waf@@
wanders
wasp
weaknesses
webs
weekly
wei@@
whisky
wild@@
windshield
witchcraft
witty
wls
wly
wn@@
womb
woof
wre@@
xic
ym
zar@@
zens
zipper
zo@@
zombie
ü@@
…
*
-minded
.5
1000
1492
186@@
1945
194@@
1969
1992
2-@@
2006
200@@
2020
2021
28
31
32
5,000
75
9.@@
911
Abraham
Academ@@
Adol@@
Akiko
Ala@@
Alaska
Alban@@
Andy
Ankara
Ariel
Arti@@
At@@
Ath@@
Atl@@
BM@@
Barack
Baya
Benjamin
Biden
Black@@
Bor@@
Bot@@
Brazili@@
Budd@@
CO
Cab@@
Cat
Cathy
Cele@@
Ci@@
Cli@@
Coca-Cola
Colom@@
Columbia
Contin@@
Cul@@
DVD
Dame
Def@@
Dev@@
Duck
Dy@@
Ecuador
Emilia
Eric
Es@@
Exam@@
FIDE
Fal@@
Fer@@
Ferdinand
Fili@@
Fl@@
Fle@@
Francis
French@@
Fres@@
Fri@@
Fru@@
General
Geor@@
Glo@@
Greene
Guerra
Ham@@
Hans
Haumea
Hitler
Hollywood
Hot
Houston
III
Ignor@@
Isabella
Japan@@
Jef@@
Jeff
Johnny
Karl
Kato
Kenji
Kis@@
Kit@@
Kno@@
Ko
Kyushu
LO@@
Leonardo
Liisa
Lis@@
Lost
Luke
MP3
Mach@@
Magellan
Maj@@
Marc
Masha
Mc@@
Memori@@
Miguel
Mil@@
Muhammad
Must@@
Note
Ogawa
Oleg
Orwell
Ou@@
Palest@@
Parks
Pat@@
Pep@@
Phar@@
Pharamp
Piotr
Publi@@
Pyth@@
Rem@@
Richard
Ronaldo
Royal
Saint
Salvador
Scar@@
Serbia
Shor@@
Spen@@
Stal@@
Star
Stefan
Sul@@
Sun@@
Super
Swe@@
Switch
Tai@@
Takahashi
Tal@@
Terr@@
Tha@@
Tomás
Uni@@
Vancouver
Vati@@
Wars
Web
XXX
Xi@@
Yoshi@@
Z
Zar@@
abandon@@
abomin@@
academ@@
accep@@
accessor@@
accommo@@
accomplish@@
accor@@
accredi@@
acle
acquaint@@
adju@@
adu@@
advant@@
advent@@
adver@@
affec@@
aggres@@
alas
alia
ampu@@
anc@@
anda
anos
ante@@
anza
ap
apar@@
appreci@@
apri@@
ar-@@
aria
arily
ark
armi@@
arra@@
arse
art@@
ashi
ason
astronom@@
auto
avor
awar@@
ax
badminton
baf@@
bie
bilities
bin@@
borro@@
bro
bron@@
brun@@
bucks
bulle@@
bullying
campa@@
canal
cance
celebr@@
centr@@
centu@@
champi@@
chec@@
chemi@@
chers
chever
chim@@
coca@@
coloniz@@
comb@@
comm@@
commer@@
comparable
compens@@
compu@@
compul@@
concede
condi@@
conductor
confes@@
confli@@
consci@@
conson@@
constel@@
contain@@
contin@@
continental
contradict@@
cosmos
creep@@
crip@@
croo@@
ct@@
culous
cup@@
curr@@
custo@@
dai@@
dang@@
ddle
deal@@
decep@@
democr@@
dental
depri@@
descri@@
desper@@
dess
devast@@
dex@@
dict@@
dile@@
dimensional
diploma
disco
discrimin@@
dispar@@
distr@@
dney
doct@@
dor
drag@@
dram@@
dre@@
dream@@
dren@@
dromes
e4
ece
edo
edy
ee
emi@@
enas
encyclo@@
entry
ere@@
ero
ess@@
ester
estr@@
esty
ete
eti@@
euro
eva
evapor@@
exclam@@
expan@@
explan@@
extermin@@
extravag@@
extremi@@
ez@@
fabri@@
fail@@
fav@@
fee
fertiliz@@
fety
ffes
fic@@
friend@@
frustr@@
fugi@@
furi@@
gem@@
gene
generaliz@@
gest@@
gether
gim@@
gira@@
glori@@
gradu@@
grow@@
hai@@
hale
happ@@
hard@@
hardware
hind
histori@@
horizontal
house@@
hum@@
iPod
ial
ica
ignores
impu@@
in-@@
ince
incre@@
indign@@
infra@@
ing-@@
inhabit@@
inian
ino@@
insol@@
inte@@
inti@@
intri@@
intrigu@@
introdu@@
invali@@
inven@@
irresistible
iso@@
issu@@
jan
jects
kg
kimono
kness
l-@@
lear
left-@@
legible
legis@@
liberal
limit@@
lip@@
literal
lla
lor
low@@
lum@@
magi@@
magn@@
mane@@
masturb@@
maternal
mati@@
mb
meg@@
melancho@@
memor@@
mend
metry
miko
minori@@
mitted
moment@@
monitor
mono@@
motiv@@
murmu@@
neg@@
nerv@@
nings
nur@@
nutri@@
obses@@
occur@@
ocu@@
oles
oling
oms
onna
opho@@
orate
organ@@
orig@@
orit@@
ost@@
oter
oting
ouldn
ound
pack@@
paella
palin@@
panel
parall@@
particip@@
past@@
peas@@
pedias
penetr@@
peri@@
perpe@@
perver@@
pest
phe@@
philoso@@
pine@@
pinos
pleas@@
poe@@
pois@@
poly@@
pony
popo@@
possi@@
preced@@
prepares
priori@@
proced@@
program@@
prohib@@
promin@@
prud@@
quet
quie@@
raci@@
radios
reac@@
real@@
recei@@
rectangular
refuge@@
regi@@
regre@@
reli@@
remin@@
reminis@@
repli@@
repor@@
resist@@
resol@@
ress
resul@@
reve@@
rink
rival
roll@@
rou@@
rural
sar@@
sarcas@@
satelli@@
scu@@
secu@@
sel
sengers
shap@@
shi
si
sibility
sier
sing@@
smartphone
spac@@
spec@@
spect@@
stes
stly
stop@@
subsi@@
sugg@@
suppli@@
sus
swal@@
tarot
tel@@
termin@@
tero@@
therwise
thful
titudes
tiv@@
tled
tom
torment@@
tractor
traditionally
traditions
trans
transc@@
transform
transition
trap@@
treasures
treat@@
trembled
trig@@
trim
troll
trum
trum@@
trun@@
trusting
tuned
ugli@@
ulu
unbelievably
underneath
understandable
undressed
une
unfairly
unfinished
univer@@
universities
unrealistic
unsatisfied
untidy
untly
upri@@
ured
urinating
urous
useous
uti@@
utmost
valry
vanity
ve-@@
veled
vend@@
vent
ventured
venue
vered
video@@
violently
vixen
volcano@@
vomiting
vowels
vul@@
wag@@
wagon
waitress
waltz
warehouse
warm@@
warmly
watercolors
weather@@
web@@
weigh@@
whatsoever
whereabouts
whilst
whim@@
whir@@
whirl@@
whit@@
whites
wires
withdrawal
withdrawn
withdrew
wled
woo@@
wood@@
worl@@
worms
wrest@@
xim@@
yacht
yalty
yards
yawned
ygen
ymous
yor
yotes
young@@
za@@
zer
zombies
zzling
₂
--
....
.00
1.5
119
180@@
1941
1956
1972
1976
1984
1998
1999
20,000
2004
2008
2014
4-@@
42
6-@@
89
97
AT@@
Aga@@
Akira
Albania
Amanda
Ameri@@
Ander@@
Apo@@
Arab@@
Arnold
Arthur
Bali
Bas@@
Bay
Beli@@
Biwa
Bowl
Bre@@
CO@@
Cambridge
Cant@@
Chil@@
Civil
Consi@@
Const@@
Conver@@
Costa
Crossing
Cur@@
Dam@@
Davis
Demo@@
Des@@
Diana
Dig@@
Dol@@
Econo@@
Elena
Elvis
Emp@@
Eura@@
Exper@@
F
Fi
Filiberto
Fol@@
G
Ga@@
Georgia
Glenn
Good@@
Graham
H
HI@@
Had@@
Hak@@
Heather
Himalayas
Hin@@
Hyogo
Indu@@
Industrial
Inst@@
Jason
Jessica
Joan
Joh@@
Jordan
Jud@@
Kal@@
Kathy
Kin@@
Koko
Kylie
LGBT
Leo
Leonid
Liren
Liter@@
Lola
Luxem@@
Mam@@
Mari
Marta
Mer@@
Messi
Minogue
Mir@@
Mississippi
Mol@@
Moroc@@
NASA
Nag@@
Naomi
Natural
Nick
Nig@@
Nintendo
Ok
Ol@@
On@@
Organiz@@
PC
PC@@
Parra
Philidor
Pho@@
Photo@@
Physi@@
Pier@@
Pis@@
Pizza
Point
Potter
Pra@@
Putin
Ren@@
Rick
Roman@@
Sac@@
Sadako
Sahara
Sapporo
Sat@@
Say@@
Sayoko
Scrooge
Sherlock
Shh
Shibuya
Shin@@
Shishir
Shou@@
Sici@@
Skype
Sli@@
Sol@@
Span@@
Star@@
Stre@@
Sysko
Tax@@
Tele@@
Tit@@
Tommy
Tracy
Trang
Tues@@
Vac@@
Van
Vegas
W
WhatsApp
Yam@@
Yuri
Zamboanga
Zeus
aardvar@@
abe
accompli@@
acket
aco
acrob@@
acu@@
adily
administr@@
after@@
aga
agit@@
alog
alterna@@
ami
ampi@@
anes
anic
anity
anon@@
apologi@@
appla@@
apr@@
arbitr@@
ares
argu@@
asol@@
aspec@@
assas@@
astu@@
asy
attr@@
attribu@@
audio
awa@@
aya
bacco
bacteria
bag@@
bai@@
ballet
begin@@
bered
betr@@
bish
blas@@
bott@@
bound@@
brief@@
caf@@
cali@@
capit@@
carbon@@
carcin@@
cardin@@
care@@
carel@@
cates
cauti@@
caviar
ced@@
cedes
chal@@
challeng@@
chap@@
cheque
child@@
chur@@
cil
cion@@
civili@@
clam@@
claustro@@
clim@@
clon@@
codi@@
coinci@@
coincid@@
colum@@
come@@
compani@@
conclu@@
configu@@
confir@@
conquer@@
controver@@
conversa@@
crimin@@
critici@@
crust@@
ctu@@
curity
cury
cyclo@@
de-@@
dea@@
dead@@
dedi@@
defi@@
defin@@
dela
deliber@@
dent@@
depend@@
despi@@
detectives
dia
dif@@
direc@@
distin@@
doctr@@
e5
easi@@
ecraft
een
eh
ema
emigr@@
empi@@
ench@@
endor@@
ense
eral
ernal
esc@@
escal@@
essenti@@
essing
esting
eth@@
etic
eves
evolu@@
excu@@
experien@@
exter@@
eye@@
eze
facul@@
fair@@
false@@
feel@@
ficit
fins
floo@@
forgi@@
fort
freel@@
fren@@
full@@
fundament@@
gel@@
genic
genu@@
geous
got@@
gratulations
graz@@
grocer@@
hab@@
handi@@
hap@@
hard-@@
hay@@
hear@@
hemor@@
hip
ho
homosexu@@
honorable
horiz@@
horizon@@
host@@
hundre@@
ici@@
ido
ido@@
ify
igs
imos
imple@@
impres@@
impul@@
inal
indescri@@
indis@@
inea
inferi@@
infin@@
inflam@@
inflexible
infli@@
infr@@
ingeni@@
ingos
inno@@
innumer@@
inser@@
insom@@
instru@@
interfer@@
inv@@
inver@@
irri@@
itor
jar@@
jer@@
jud@@
kee
kelp
ker@@
kidnap@@
km
know@@
knowled@@
koala
lanes
lap@@
lash
laun@@
leased
lee
legend@@
lement
let@@
lf
lingui@@
listed
livia
long@@
loo
lum
lux@@
mac@@
magne@@
manga
manuel
mari@@
mart
medicinal
mediocre
microscopi@@
minim@@
mir@@
moderni@@
modest@@
monum@@
mos@@
mosquitos
muscular
mush@@
mutu@@
nat@@
nation@@
neck@@
neigh@@
nia
nic
nil@@
nish
objec@@
observ@@
ocra@@
offi@@
og@@
oligar@@
omed
omin@@
omous
ona
ond
onian
oo@@
opport@@
oral
orch@@
ore@@
ose
ough
ough@@
pagan
pagne
papaya
part@@
pati@@
patio
patrio@@
penicil@@
permit@@
perni@@
pes@@
pessimi@@
petri@@
phs
picnics
pics
plying
pollu@@
pong
post-@@
pply
pregn@@
premi@@
preser@@
prestigi@@
prolon@@
pron@@
proph@@
propor@@
pub
pud@@
punctu@@
puri@@
q@@
queer
quil@@
quit@@
rami@@
reconci@@
redund@@
refriger@@
regres@@
rel@@
relo@@
rement
remodel@@
rescu@@
rhy@@
rid@@
ridi@@
ried
rome
rover
rub@@
rumo@@
sab@@
sable
sacrifi@@
sail@@
samurai
sav@@
scal@@
scat@@
scr@@
sear@@
second@@
secre@@
sector
sedu@@
seller
sensi@@
seri@@
servi@@
sic
silen@@
sincer@@
sionally
six@@
skin@@
sly
sna@@
sob@@
sof@@
spray
ssi@@
steam@@
stery
stom@@
struc@@
subur@@
sumed
sumo
surge
survi@@
symp@@
syst@@
tacos
tant
tating
tax@@
tedly
tent@@
terminal
terr@@
terre@@
thern
thous@@
thu@@
tismal
tivation
tooth@@
tornado
torto@@
translat@@
trau@@
travel@@
tre
treas@@
tremend@@
tress
tric
tropical
tte
tten
tter@@
tual
tumn
tumor
ual
ums
una
uns
uring
uro
usted
uten@@
ux
vac@@
vana
veli@@
veni@@
venir
verb@@
vertical
veter@@
vict@@
vigil@@
violini@@
volcan@@
wa
wahili
wan@@
wart
was@@
weir@@
wel
whisper@@
wling
wonder@@
yment
yo
yoga
yu@@
zen@@
zeria
á
€
#
&gt;
-M@@
03
123@@
180
1865
189@@
1921
1933
1957
1963
1970
1975
1983
1988
2.5
2001
2002
2015
256
3.5
456
53
54@@
7.5
776
85
86
AC@@
Aaron
Aca@@
Adri@@
Af@@
Al-@@
Alex@@
Alister
Alpha
AlphaZero
Alzheimer
Andr@@
Andrew
Android
Angola
Antar@@
Antoine
Any@@
Ao@@
Armen@@
Atlanta
Augusto
Aviv
Bal@@
Batman
Bernie
Bieber
Bin
Bl@@
Bonaparte
Borges
Boris
Bou@@
Budapest
CIA
Carla
Carmen
Cat@@
Catho@@
Charlotte
Chuck
Cir@@
Cla@@
Compu@@
Cristiano
D.C.
DE@@
Damiano
Dana
Dec@@
Degas
Delhi
Descartes
Desper@@
Dosto@@
Dubai
Dun@@
Duolingo
Edward
Elisa
Ellen
Emet
Emmet
Erdogan
Esca@@
Esper@@
Esther
Evi@@
FIFA
Federal
Firefox
Flavio
Flor@@
Franco
Fred@@
Fun@@
GPS
Gali@@
Galicia
Gan@@
García
Garry
Gol@@
Grace
Gran@@
Guadal@@
Guam
Guar@@
Ha
Hamilton
Harrison
Hat@@
Hawking
Hill
Hiro@@
Hiroshi
Homo
Hou@@
Hungar@@
Ichi@@
Ikeda
Imperial
Indonesia
Introduce
J
Ja@@
Jaco@@
JavaScript
Jen@@
Jenny
Jon
Joseph
Julie
Justin
Kabu@@
Kaoru
Kasparov
Kazu@@
Kelly
Kemal
Kevin
Kumi
L.
Lan@@
Larry
Lego
Lennon
Leon
Lib@@
Lili@@
Lily
Liszt
Lor@@
Louis
Luci@@
Luk@@
Ly@@
Lyn@@
López
MA@@
Manila
Manuel
Markku
Masao
Masaru
Matsu@@
Medellín
Men@@
Mes@@
Mich@@
Micro@@
Milton
Minecraft
Mini@@
Miroslav
Mont@@
Mos@@
Mumbai
Murphy
Mus@@
Nagano
Nar@@
Natur@@
Net@@
Nicar@@
Nikko
Nina
Not@@
OE@@
Obe@@
Oc@@
Orle@@
Oscar
PDF
Paki@@
Pal@@
Peters@@
Petunia
Ph@@
Piz@@
Plu@@
Posi@@
Proust
Py@@
RA@@
Rafael
Ramad@@
Ray
Rein@@
Rob
Rodri@@
Sad@@
Samsung
Samuel
San@@
Sas@@
Sasayama
Schopenhauer
Schubert
Sci@@
Sec@@
Sep@@
Sevilla
Siberia
Sig@@
Sof@@
Stan@@
Superman
T-@@
Tamori
Tato@@
Tho@@
Tirana
Truman
U.@@
U.S@@
USB
Valencia
Venez@@
Victoria
Vinci
Vol@@
Watson
Wha@@
Whit@@
Wik@@
Windows
X.
Yard
Zel@@
Zhuangzi
Zu@@
Zuckerberg
abbrevi@@
abdi@@
abri@@
absent@@
absor@@
abu@@
acqui@@
actu@@
af
agawa
ager
ago@@
agram
agri@@
agua
ai
aire
aires
aliz@@
alman@@
almo@@
aman
amu@@
anal
analg@@
anar@@
anded
andra
ange
angu@@
answ@@
ao
appropri@@
architec@@
ari
arri@@
arter@@
ass@@
associ@@
astero@@
asts
ata@@
atari
ath@@
ato@@
atri@@
audio@@
aur@@
auti@@
aver@@
avy
aza@@
beauti@@
beet@@
behavi@@
bery
bid
binocu@@
biotics
bipolar
blan@@
boar@@
bran@@
business@@
casu@@
cata@@
cater@@
caver@@
ccoli
cely
cendental
cere@@
certainty
certi@@
chan@@
chang@@
cher@@
chester
chis@@
cho
cine
cipl@@
claim@@
cocon@@
competen@@
comprehen@@
concer@@
conci@@
confer@@
coni
consecu@@
conten@@
contest@@
coral
cruel@@
ctic
ctors
d4
deco@@
decora@@
dedu@@
deep@@
defender
design@@
deter@@
diagno@@
dic
dices
dici@@
disco@@
discre@@
disi@@
dispos@@
dispu@@
distor@@
distur@@
dom@@
domesti@@
drin@@
eba.@@
eces
efs
ehouse
eira
eleg@@
elf
ella
eman@@
embar@@
emer@@
empanadas
ems
ener@@
enigma
enz@@
epidem@@
eres
erg@@
eros
erry
escen@@
esterol
estim@@
etern@@
exag@@
exam@@
excel@@
exces@@
exhau@@
exi@@
experim@@
expli@@
expor@@
extra@@
extradi@@
extrater@@
facial
factor
fasci@@
fast@@
fati@@
faul@@
fen@@
fero@@
ferry
ffs
fianc@@
ficial
ficient
figu@@
fir
focu@@
footing
for-@@
formu@@
fran@@
frey
fro@@
frust@@
fund
fursona
gae
gage
gays
gebra
genoci@@
gery
gian
gies
glan@@
gluten
grab@@
graci@@
gradual
graphs
gravita@@
grees
grotes@@
grud@@
gry
guacamole
gust@@
hack
hacker
hedgeho@@
hei@@
heit
heli@@
helpl@@
hes
hier@@
hob@@
hospit@@
hospitali@@
hypocri@@
ida
ilan@@
ima
inate
inces@@
incid@@
inclu@@
indeci@@
indirect@@
indivisible
indul@@
inform@@
informal
ington
ingy
inher@@
inscri@@
inst
instal@@
instin@@
institu@@
insul@@
integri@@
intellec@@
interior
intern@@
interru@@
intr@@
intru@@
inventor
invertebr@@
ion@@
itali@@
ite
iter
jam@@
journ@@
judicial
kilo@@
kni@@
laugh@@
lava
legi@@
leopar@@
llama
llu@@
logan
lugg@@
mahjong
males
malnutri@@
manif@@
manipul@@
mantis
marize
marvel@@
master@@
mastur@@
mathemati@@
matri@@
mechani@@
meless
mery
mese
metic
migrat@@
million@@
mm
modi@@
mole@@
molecu@@
motel
mph
mple
muda
multipli@@
munici@@
musi@@
nag@@
narra@@
natur@@
nau@@
neces@@
neighbor@@
nesses
ni
nit@@
nomin@@
oasis
obedi@@
ocular
odi@@
ok@@
oler
ome
omelet
opo@@
ota
oti@@
oto
otr@@
oub@@
ousy
outw@@
oy@@
paired
pant@@
partial
paste
pation
patter@@
pean
penal
pene@@
permafrost
perman@@
persi@@
pertur@@
philosop@@
piens
pier@@
pillar
pistol@@
piz@@
plane@@
plun@@
polar
politi@@
ponent
pop@@
posi@@
postu@@
predi@@
prefec@@
preval@@
privi@@
probable
produ@@
propa@@
propos@@
prostitu@@
purcha@@
quer@@
quez
radio@@
raft
raid
rant
rat@@
recom@@
recor@@
rect@@
red-@@
ree
refr@@
renov@@
requ@@
resem@@
resour@@
respe@@
respec@@
respect@@
retr@@
revolver
rey
ricane
ridicu@@
rish
rite
ritual
roman@@
ron
roo@@
room@@
roomba
ros@@
rup@@
rus
sabi@@
sas
sate
satisfac@@
scan@@
scienti@@
seat@@
seem@@
seless
sence
senti@@
seren@@
sert
shire
sians
sick@@
siles
sili@@
skyscra@@
small@@
snor@@
solo
soluble
some@@
sonata
stab@@
sterdam
stimu@@
stres@@
stun@@
su
subst@@
sudo@@
suffer@@
superficial
surro@@
symbo@@
tality
tane@@
tato@@
tee
teen@@
tenor
terror@@
tese
thering
thor@@
ti
tial
til@@
tish
toris
tortilla
tos@@
tragedi@@
transfor@@
trauma
trim@@
tro
tron@@
tsunami
ttable
ttery
tuberculosis
twenti@@
ulti@@
ultra@@
ultras@@
uma@@
understand@@
undo
unicor@@
uno
uri
ushi@@
utili@@
vaccin@@
vag@@
vapor
var@@
vertebr@@
vest
viable
victori@@
vig@@
vigor
viru@@
vo
vol@@
volunte@@
vre
vu@@
week@@
wheel@@
wid@@
yama
year-@@
ype
zbe@@
zer@@
zhou
zi
zodi@@
zu@@
zugzwang
zz
â@@
ñ@@
ö@@
ます
&lt;
.A.
149@@
2000
29
3000
43
66
700
72
77@@
@
AS@@
Adver@@
Afri@@
Ah@@
Amaz@@
Andre@@
Ani@@
Arm@@
Arro@@
Atten@@
Australi@@
Beat@@
Buddhi@@
COV@@
Chin@@
Christ@@
Constru@@
Cra@@
Dal@@
Dani@@
Dep@@
Dil@@
Din@@
Dri@@
Edu@@
Eduardo
Ei@@
Esteban
Euro@@
Fant@@
Felipe
Fing@@
Fortun@@
Goethe
Gustavo
Hab@@
Hal@@
Han
Hawai@@
Hay
Helena
Idi@@
Indon@@
Industri@@
It@@
Italia
Jan@@
Jor@@
Jur@@
Kiev
Kyo@@
Lee
Lei@@
Leon@@
León
Lucas
Lun@@
MS
Mai@@
Mancha
Moder@@
Má@@
Neces@@
Negro
Nep@@
Ner@@
Okin@@
Pancracio
Pek@@
Pit@@
Pl@@
Pon@@
Preg@@
Prepar@@
Presi@@
Que@@
Quite
Rar@@
Reg@@
Regre@@
Rel@@
Rep@@
Sab@@
Sancho
Santiago
Scho@@
Sean
Sebasti@@
Shinano
Sing@@
Sm@@
Son@@
Sor@@
Sud@@
Supre@@
Sw@@
Tay@@
Tel@@
Terrible
Tex@@
Ton@@
Uno
Uru@@
Ven@@
Vie@@
Who@@
Yan@@
You@@
Zero
aa@@
aband@@
abies
absten@@
abstin@@
abund@@
aca@@
academia
acas
accompani@@
acefully
acor@@
acro@@
activi@@
adap@@
adar
adillas
administra@@
admirable
ador@@
adul@@
aero@@
aga@@
ague
ako
alb@@
alcoholi@@
ald
aler@@
alien@@
alon@@
alter@@
alu@@
ambulan@@
amoun@@
amus@@
ancest@@
andas
andi
anec@@
anglo@@
ania
anormal
antel@@
anxi@@
anzas
apa@@
ard@@
aro
aro@@
arr@@
arrang@@
arro
arrog@@
arroz
aspi@@
astern
aston@@
atem@@
aten@@
athers
atmo@@
ato
attemp@@
atur@@
atus
atí
auda@@
az
band@@
bene@@
bikini
biles
bis
bomb@@
bombar@@
bor
bras@@
bud@@
bus@@
butter@@
cados
calam@@
cancel@@
cante
cargo
carica@@
carp@@
carr@@
catastro@@
caus@@
cavi@@
celebra@@
celebri@@
celer@@
cerem@@
cham@@
chen
china
chit@@
chita
chon@@
chron@@
ché
cip@@
circul@@
circular
class@@
clones
clou@@
cm
coher@@
col
cole
collap@@
combin@@
comer
common@@
compati@@
compe@@
complac@@
computa@@
condem@@
confin@@
confron@@
consol@@
consoli@@
consti@@
contra@@
contradi@@
conveni@@
copi@@
corpul@@
corre@@
cose
cras@@
cruci@@
cubi@@
cui@@
cula
cus@@
dad@@
das
dboard
deas
decapit@@
deleg@@
delu@@
demo@@
demon@@
deni@@
denti@@
dents
depos@@
destru@@
det@@
deterior@@
diag@@
diagonal
dime
diminu@@
dir@@
direct@@
discus@@
disper@@
dote
dow
draw@@
drow@@
dwar@@
eag@@
eb@@
eder@@
edonia
ees
eiko
elec@@
elo
elos
elu@@
emas
embro@@
emen
emite
empan@@
empha@@
enda
endered
endo
endos@@
enig@@
enor@@
ensu@@
enthusi@@
envelop@@
envi@@
environ@@
enza
eph@@
equi@@
eras@@
escor@@
esper@@
esperanti@@
essed
esto
estra
eter@@
evalu@@
eve
ewell
examin@@
exci@@
excur@@
exist@@
experiment@@
expi@@
extraordin@@
extre@@
eyed
faci@@
fai@@
fairs
falsi@@
fas@@
fat@@
favor@@
fes@@
ffle
fi
fia
fica@@
fideli@@
figur@@
financi@@
fing
fiscal
flor@@
fo
form@@
fortun@@
founda@@
frain
frases
gal
garden@@
gase@@
gawa
genio
gesti@@
ghted
ghtly
gio
gly
gon@@
good@@
grapher
graves
great@@
gres@@
gress
grou@@
guil@@
gur@@
hate@@
heaven@@
heavi@@
histor@@
holo@@
home@@
honey@@
ice@@
ie
ign@@
iland
impe@@
impertin@@
impor@@
imprison@@
improbable
inci@@
incu@@
indefini@@
independ@@
inet
infanti@@
infer@@
infiltr@@
infl@@
infor@@
ingo
ink@@
inoc@@
insi@@
insinu@@
insist@@
inted
interrup@@
intest@@
invaluable
ires
iri
iring
irrever@@
iskir@@
ito
jewel@@
jur@@
kable
kebab
kim@@
kiwi
kon@@
labor@@
lam
langu@@
lav@@
leo@@
lesbi@@
ligi@@
lik@@
lio
literate
livi@@
lla@@
llamas
llas
llic
locu@@
logo
lti@@
mafia
make@@
mani@@
mans
manuscri@@
masco@@
mascul@@
maso@@
mata
mau@@
may@@
medica@@
mely
menstru@@
meti@@
mez
mia
mic@@
migr@@
mili@@
mina
minable
minded
miso
mly
mobili@@
mod@@
moso@@
mption
mul@@
municipal
mur@@
narr@@
nas
nels
neur@@
nex@@
nod@@
nood@@
nostalgia
num@@
obes@@
oblig@@
obo@@
odies
olo
olo@@
omel@@
omi@@
onas
onia
opportuni@@
ops
optimi@@
oras
ore
ored
orient@@
osis
otea
oth@@
ould
ournam@@
owa
paint@@
parano@@
parta
patra
pear@@
pelled
perfu@@
periodi@@
pertin@@
pione@@
plac@@
point@@
poll@@
pollo
polyg@@
poo
porcel@@
porno@@
postal
pper@@
ppy
precede
predictable
premon@@
prescri@@
presume
prodi@@
prohi@@
proper@@
prophe@@
provi@@
provin@@
psi@@
ptero@@
pti@@
pulmon@@
punc@@
pura
ques@@
quial
quid
quir@@
rad
ragana
rap@@
rapi@@
rar@@
rati@@
reclu@@
remo@@
remot@@
report@@
repu@@
republi@@
resear@@
resig@@
respirat@@
retir@@
retor@@
retro@@
reuni@@
revo@@
riel
rigi@@
riko
rio
rist@@
ristina
sac@@
salsa
sane
sanit@@
sat@@
sch@@
scorpi@@
see@@
selves
sex@@
sexu@@
sey
shepher@@
shou@@
shu
sica
sie
siesta
sim@@
simultane@@
singular@@
sku@@
sky@@
slo
smar@@
so-@@
soever
solsti@@
soy
spre@@
stances
statu@@
ste
stem
stom
ston
strate
suici@@
surf
surviv@@
tab@@
tac@@
tari@@
taro
tech@@
teleno@@
tely
tem@@
tern@@
thedral
them@@
thered
through@@
tic-@@
tien@@
tigable
til
timi@@
tina
tones
top@@
topi@@
tortur@@
tos
touri@@
tournam@@
traf@@
trage@@
traj@@
tranqui@@
transfer@@
trates
tres
tris
triu@@
trol@@
tton
tumb@@
turb@@
turi@@
tware
tz
tú
udson
ugh@@
unze
uro@@
urr@@
usa
ush
ust@@
usya
vacu@@
vagina
valdi
vale
vampi@@
varo
vas@@
vec@@
veri@@
ves@@
vi
vibr@@
vibra@@
ville
virtual
vitis
voca@@
vosotros
walkie-talkie
wat@@
watermel@@
weal@@
where@@
windo@@
wol@@
xima
ximately
xing
yager
yday
yev@@
yle
yon@@
yond
zo
zzy
Ál@@
ß
án
ä@@
è@@
ée
és
ë@@
ó
ó@@
ø@@
ā@@
ę@@
ō
π
た
の@@
#@@
&@@
56
Abo@@
Abra@@
Achil@@
Admi@@
Adop@@
Al
Ale@@
Alej@@
Alicia
And@@
Ante@@
Ara@@
Arri@@
Aver@@
Bai@@
Beauti@@
Belaru@@
Blan@@
Bles@@
Butter@@
Christi@@
Chu@@
Colum@@
Come@@
Comple@@
Cru@@
Deb@@
Deci@@
Discu@@
Dro@@
Echo
Edi@@
El
Ella
Eng@@
Eri@@
Europa
Exi@@
FID@@
Fern@@
Fir@@
Foot@@
Goo@@
Hag@@
Hel@@
Ig@@
Imag@@
Improvi@@
Inspi@@
Intel@@
Invest@@
Investig@@
Isab@@
Israel@@
Ital@@
Jack@@
Jer@@
Jes@@
Julio
Las
Lava
Lean
Len@@
Lithu@@
Luna
MP@@
Marcos
Mateo
Mathemati@@
Mexi@@
Miles
Moz@@
Nao@@
Neg@@
Noel
Occid@@
Octo@@
Olympi@@
Organ@@
Os
Ot@@
Pag@@
Paragu@@
Parti@@
Pau@@
Pel@@
Peli@@
Perman@@
Phili@@
Pisa
Plat@@
Practi@@
Profes@@
Prome@@
Resist@@
Rich@@
Roma
Ron@@
Rus@@
SS
Sap@@
Sei@@
Simp@@
Sin@@
Spiri@@
Stri@@
Sum@@
Super@@
Sus@@
Susana
Tar@@
Tes@@
Thurs@@
Tom@@
Tranqui@@
UF@@
Univer@@
Valent@@
Vin@@
Visi@@
Vu@@
Wat@@
Wed@@
Wednes@@
Wh@@
What@@
Wher@@
Wol@@
aba
abad
abili@@
abstr@@
acces@@
accid@@
accommod@@
accomp@@
accustom@@
acep@@
acer@@
achi@@
acri@@
activ@@
adas
aer@@
agement
agenda
agra@@
aho@@
aja
alco@@
algori@@
alta
alth
aman@@
ambigu@@
amon@@
anced
anci@@
andro
andy
anges
angular
anj@@
anno@@
annu@@
ante
antes
antial
antisem@@
anto@@
anun@@
aní
appy
arios
arma@@
arre@@
articu@@
asis
aspar@@
aspir@@
aster@@
atal
atas@@
aton@@
atr@@
atrop@@
attor@@
aus@@
autodid@@
avail@@
avari@@
ave
ayla
bacter@@
bare@@
batter@@
belon@@
ben
bies
bile
blings
boa
bole@@
bos
bre
brow@@
busti@@
c-@@
capped
capri@@
cara
carav@@
cardi@@
carte
caste
cel
cela
celo
cence
cend@@
centa@@
cerebral
cero
certain@@
chair@@
chan
character@@
chel@@
chick@@
chiev@@
chin@@
chorizo
cial
cid
cigar@@
cil@@
cis
cist
ckey
ckily
clic
climb@@
clum@@
cog@@
cola
colate
coll@@
compon@@
cones
cong@@
consequ@@
contam@@
contex@@
corporal
corri@@
cos
cost@@
coundrel
country@@
covi@@
creati@@
croco@@
cuad@@
culosis
cun@@
dal@@
dan
dec@@
defe@@
defen@@
degrad@@
democra@@
dena
dere@@
desc@@
did@@
digit@@
dilig@@
dir
divi@@
doll@@
dormit@@
dotes
dows
dred
dur@@
dwel@@
e-ma@@
ean
eas
eba@@
eda
eder
educa@@
effor@@
eful
eks
elas
emin@@
empa@@
enab@@
enc@@
encoun@@
endi@@
enjo@@
eno
ensive
enth
entists
enzo
eo
ept
equili@@
equival@@
eras
erce
erci@@
ere
erta
erto
esar
esca@@
esco@@
esh
esp@@
esteem
estos
etery
evacu@@
evange@@
eventu@@
exha@@
exhibi@@
exhilar@@
expec@@
expen@@
exqui@@
exu@@
eyes@@
factor@@
fam@@
fami@@
fau@@
fera
ferre@@
festi@@
fil
fili@@
fini@@
flamen@@
flexi@@
flori@@
forbi@@
foun@@
frac@@
freck@@
fres@@
fro
ganda
geho@@
geon
geons
gest
gile
gir@@
glad@@
glas@@
gol
gos
gover
graf@@
gros@@
guardi@@
gust
gusta
habili@@
half@@
hall@@
happen@@
har
hara
hed@@
hem@@
hir@@
hiragana
holi@@
honor@@
hopel@@
horr@@
iP@@
ideo@@
ifi@@
iga
ili
ili@@
illo
immigr@@
immigra@@
import@@
impostor
incl@@
indefen@@
indig@@
iner@@
inevi@@
infi@@
informa@@
ingada
ingenu@@
inger
inse@@
insured
integr@@
intent@@
inund@@
inva@@
investi@@
ira
ison
ist@@
jada
jal@@
jas
jersey
jim@@
jo
kanjis
ket
ketball
kil@@
kis@@
kiw@@
knit@@
kus
lace
ladi@@
lan
lando
last@@
lata
lateral
laz@@
legu@@
len
leng@@
ler@@
lib@@
lig@@
ligence
lliant
llos
los
lyri@@
mama
mandar@@
mangas
mangos
manu@@
marin@@
materi@@
matically
matrim@@
mbr@@
mea
mear
melo@@
mero
mería
migh@@
militar@@
minum
mis
miser@@
mista@@
mol@@
moon@@
moto
mula
mundo
must@@
nad@@
nega@@
negro
nes
nick@@
nie
nifi@@
noble@@
oca
oce@@
och@@
ola
oli@@
omen
ones@@
ophone
ople
orado
ordin@@
orite
oru@@
ose@@
oto@@
oughly
ov
oxi@@
pacho
particular@@
pas
pea
pect
peda@@
pedi@@
peli@@
persever@@
persu@@
perten@@
pez
phenomen@@
pical
pines
pion@@
plant@@
pod@@
poin@@
por
posite
poster@@
postpon@@
potable
power@@
preh@@
presid@@
presiden@@
preven@@
prevent@@
prim@@
princi@@
priva@@
proble@@
proce@@
procra@@
prog@@
psychi@@
pudi@@
puls@@
quali@@
quanti@@
quisi@@
quitoes
rab@@
ral@@
ras
ray@@
rea
recipi@@
recomm@@
recur@@
regular@@
rements
rent@@
repar@@
repent@@
reper@@
repeti@@
requi@@
respi@@
riage
rible
rica
rico
ros
rí@@
s.
salv@@
san
santo
sar
sardin@@
sement
shiel@@
shima
skep@@
skil@@
slam@@
sley
sneez@@
snit@@
sol
sol@@
sole@@
spaces@@
spin@@
sses
sta
strang@@
subti@@
suicid@@
superfici@@
supervi@@
surance
swit@@
tad@@
tap@@
tar
tario
tau@@
techni@@
teleph@@
telephon@@
televisi@@
teria
terri@@
terrori@@
ther-in-law
therapi@@
thermo@@
thier
thr@@
tig@@
tigo
tillas
tings
tio
toi@@
toms
tough@@
tra
tradi@@
tras@@
trivi@@
trom@@
trot@@
tu
turbul@@
té
ubi@@
uda
ude
udo
uk@@
unbe@@
unior
unted
unts
urai
ural
urg@@
uros
urse
uskera
uza
vaca@@
vada
valan@@
vani@@
velas
vers@@
vesti@@
vez
vide@@
vigilante
vigor@@
villa
vini@@
vino
viola
vis
visor
vita@@
vive
voy@@
vulner@@
vuvuz@@
vuvuzelas
vuz@@
weas@@
wha@@
what@@
whe@@
whist@@
wom@@
won@@
ww@@
xen@@
xide
xon
ya@@
yan
yas
yn
yoko
zan
zan@@
zco
zona
zones
­
à
á@@
án@@
å@@
í
ías
ín
ína
ís
č@@
ł@@
ń
ō@@
а
а@@
т@@
ַ@@
ל
​
♘
み@@
-time
.C.
2.@@
=
AD@@
Aardvar@@
Abandon@@
Abr@@
Absolu@@
Ado@@
Agre@@
Ajedrez
Alco@@
Alpha@@
Ama@@
Amar
Ano@@
Anto@@
App
Aqu@@
Arabi@@
Aust@@
Ay@@
Ayu@@
Baj@@
Bast@@
Bat@@
Bei@@
Blo@@
Bon@@
Break@@
Buda@@
Bulgar@@
CD@@
Cai@@
Cali@@
Califor@@
Canadi@@
Carl@@
Catal@@
Cay@@
Cen@@
Che
Chr@@
Cier@@
Cin@@
Cola
Comi@@
Confi@@
Consul@@
Coo@@
Corri@@
Cree
Cyri@@
Cz@@
DN@@
Da
Dad@@
Davi@@
De
Dice
Dio
Drag@@
Dul@@
EE
Eleg@@
Eleph@@
Emi@@
Empi@@
En
Envi@@
Es
Escal@@
Esp@@
España
FI@@
Ferr@@
Fire@@
Fla@@
Flo@@
Fra@@
Franci@@
GP@@
Gabri@@
Gir@@
Goe@@
Gram@@
Hac@@
Hap@@
Harri@@
Haw@@
Him@@
His@@
Histor@@
ID-@@
ID@@
Imperi@@
Ing@@
Intro@@
Introdu@@
Ismael
Isra@@
Itali@@
Jesús
John@@
Juda@@
Jun@@
Justo
Ky@@
LGB@@
Lav@@
Le
Lev@@
Lit@@
Llam@@
Llo@@
Lux@@
Mand@@
Mark@@
Med@@
Mej@@
Mez@@
Monte
Mé@@
New@@
Nik@@
Norwe@@
Obvi@@
Pac@@
Paci@@
Pan@@
Panam@@
Panc@@
Pap@@
Papa
Pará
Ped@@
Pes@@
Peter@@
Philoso@@
Picas@@
Plant@@
Ple@@
Pok@@
Polo
Pot@@
Premi@@
Prob@@
Pron@@
Pru@@
Pul@@
Pé@@
Pí@@
Rab@@
Rafa@@
Reci@@
Recu@@
Religi@@
Repe@@
Repent@@
Resol@@
Respon@@
Rom@@
Sachi@@
Santo
Segu@@
Seri@@
Señ@@
Shangha@@
Sher@@
Siber@@
Sincer@@
Sle@@
Sofía
Soy
Sque@@
Steph@@
Stu@@
Suecia
Tana@@
Termin@@
Tok@@
Tomas
Tran@@
Turk@@
Tw@@
Tí@@
U
UR@@
US@@
Ukra@@
Vict@@
Vien@@
Vig@@
Viva
Vladi@@
Vot@@
Wiki@@
Willi@@
Wis@@
With@@
XI@@
Yah@@
Ye@@
YouTu@@
abouts
abra
abre
abrup@@
accident@@
acel@@
achiev@@
aco@@
acon@@
acqua@@
acre@@
adder
adem@@
adequ@@
adhes@@
adol@@
adolesc@@
adon@@
ador
aficionado
agr@@
ahu@@
ais
aise
ajo
ajos
alcoho@@
ale@@
alem@@
alf@@
alo
alto
amas
amate@@
amen@@
amento
amo
amo@@
amor
amor@@
amp@@
anca
andes
ando
andu@@
angaro@@
anor@@
anse
anto
anut
ape@@
apeu@@
aran
archa@@
ardu@@
arena
arin
ario
arist
arit@@
arlo
armp@@
ascend@@
asco
asha@@
asili@@
asin@@
asma
asted
asth@@
asu@@
atable
atas
athon
atre@@
aud@@
auri@@
auto-@@
avirus
ayama
ayed
ayer
aza
añ@@
bac@@
bak@@
ballo@@
bank@@
bankrup@@
bassador
beau@@
beg@@
benef@@
bibli@@
bien@@
bikin@@
bili@@
bio
biol@@
biscu@@
bita
bola
boli@@
bolí@@
bou@@
bran
bras
brew
buf@@
butt@@
bí
ca-@@
cabe@@
caca
caca@@
cad@@
cada
cajón
cala
calami@@
calvo
cancer@@
candi@@
cani@@
canti@@
capaci@@
cari@@
cartel
cashi@@
castellan@@
catal@@
cate@@
causa
cav@@
cede
cente
centen@@
ceros
cet
challen@@
chant
chees@@
cheques
chero
chiefs
chitec@@
chocol@@
cible
cido
cielos
cien
ciles
cils
cima
cister@@
citizen@@
civi@@
ción
clave
cler@@
coche
cocido
colas
cole@@
como@@
conced@@
concre@@
conf@@
congratu@@
cono@@
conquista
conserv@@
const@@
contagi@@
controversi@@
convin@@
coque@@
cor
corpor@@
corte@@
cot@@
cough@@
coundre@@
cous
crani@@
crees
crois@@
cryst@@
ctedly
ctly
cual@@
cuar@@
curi@@
custom@@
cía
cías
dada
dame
danc@@
dar
datab@@
dej@@
delici@@
depil@@
depre@@
dera
derly
descen@@
despo@@
deta@@
deva@@
develop@@
dial@@
dialec@@
diam@@
diana
diap@@
dica
dict
dictator@@
dieciséis
dimen@@
diplo@@
diplom@@
diri@@
disab@@
dise@@
disgust@@
dish@@
diso@@
div@@
divor@@
dn
doc@@
dol@@
doli@@
dolph@@
dorm@@
doro
dos
dot@@
dres
dudes
duras
dé@@
ear-@@
eban
ebras
eces@@
eci@@
ecia
eclip@@
eco
ecu@@
ede
edr@@
ega
egos
ej@@
elem@@
eleph@@
ellan
ellan@@
ellas
elled
elli@@
ello
elá@@
embargo
emper@@
empla@@
employe@@
empo
enced
encia
ende
endes
endid
endo@@
enes
engine@@
enj@@
enjoy@@
ensa@@
enta
entary
entend@@
ento
entre@@
entu@@
enty
enty-@@
eo@@
eran
erismo
eru@@
esia
especi@@
esta
estan
estar
este
este@@
estri@@
estro@@
etas
eter
etly
ettes
ev
eval
evo
expedi@@
exper@@
expl@@
expla@@
exterior
eyebro@@
famili@@
familiari@@
fant@@
favou@@
feli@@
feri@@
ficti@@
ficul@@
fiel@@
fina
firmar@@
fixi@@
flash@@
flore@@
ford
forgettable
fraud@@
fresco
frighten@@
fum@@
fumes
furson@@
fusible
fut@@
futur@@
gab@@
gadi@@
galle@@
gan
gana
gasol@@
gata
geneti@@
genous
gent@@
ghetti
gho@@
gili@@
gip@@
girl@@
gni@@
gote
grad@@
grassho@@
grat@@
gratis
gratu@@
gree
gres
gua
gura
guro
gurt
guste
haber
habitu@@
hables
hala@@
hammad
handcu@@
hibern@@
hilar@@
him@@
hjong
hol
hom@@
homel@@
homi@@
hor
horne@@
hoy
hurac@@
hía
ias
ib
ible
ico
identi@@
ien@@
ience
iles
illas
immedi@@
inar
inas
inau@@
inclin@@
incumb@@
incur@@
ingl@@
inidad
interminable
intimi@@
intoxi@@
intu@@
invo@@
isa
isol@@
itance
itas
itely
jab@@
jamas
jamón
je
jera
jos
joy@@
jubil@@
jug@@
kaholi@@
kangaro@@
kel@@
ket@@
ketch@@
kra@@
lah
lament@@
lamentable
lana
landa
lares
larg@@
lass
ld
lease
leen
lef@@
lei@@
lemos
libras
lingua
lista
listo
litos
lleg@@
lli@@
llover
lom@@
lue
lywood
lá@@
m.
madura
maestra
magnifi@@
mago
mail@@
mals
mando
manta
mantel@@
mara
mares
margar@@
marion@@
mascar@@
mast@@
matical
maxi@@
mayo@@
mbra
meable
meaningl@@
medicam@@
medio@@
meme
mend@@
mento
meteor@@
metr@@
metros
mez@@
mics
mide
miner@@
minio
minton
mite
model@@
modifi@@
mol
molest@@
monot@@
mor
morrow
mos
moto@@
mov@@
mover
mpi@@
mpli@@
much@@
mune
mán
nam
natal
neath
negra
nei@@
neo
neu@@
neumon@@
neumonia
news@@
ning@@
nitro@@
niture
nobles
noctur@@
notable
nove@@
novel@@
novi@@
nuis@@
obstin@@
oci@@
ocul@@
ojo
ole@@
ollen
oma
onous
onship
oplan@@
orde@@
org@@
orio
orly
oro
oru
oso
osos
otor@@
oul
outs
pala
pand@@
panor@@
papa@@
para@@
paradi@@
pata
patri@@
pavi@@
pedia
pefully
pens@@
pent@@
perju@@
perma@@
permi@@
persona
personifi@@
peso
pha
phan
pharm@@
pharma@@
phy
pica@@
pied
pipa
piri@@
pis
piña
pona
pone
poni@@
pons
popular@@
pose@@
pota@@
ppi
precipi@@
precipit@@
predict@@
pren@@
presen@@
presu@@
pret@@
principal@@
pring@@
promis@@
promo@@
pronunci@@
propi@@
pru@@
psia
pulsar
punish@@
pé@@
question@@
questionna@@
quilombo
quin@@
quitos
r.
rado
rase
reales
recapitu@@
reces@@
redom
refres@@
registr@@
rema@@
remuner@@
rendi@@
repa@@
reprodu@@
repugn@@
reservo@@
reside
responsi@@
resta@@
resu@@
reti@@
reun@@
rev@@
rez
ri
ria
rib@@
rida
rinking
rito
roes
rol
ror
rors
rosa
ross
rossing
rout@@
rugs
rupt
saber
sabor
sacri@@
saf@@
sali@@
salve
salía
sang@@
sant
satisfactor@@
schedu@@
scis@@
sco
scrat@@
secon@@
sep@@
serie
sest
sful
sham@@
shame@@
shield
shir@@
shmallows
shoul@@
siasm
sigh@@
simili@@
simp@@
simul@@
sinas
singly
sinu@@
sio
sir@@
sist
sister@@
skir@@
snat@@
solu@@
sombrero
somno@@
sophi@@
sos
spa@@
spea@@
ssa
stan@@
stard
starte
stay@@
sten
stero@@
stitu@@
stol@@
straw@@
stub@@
sui@@
suit@@
susp@@
suspen@@
suspici@@
suya
syll@@
sé
sólo
table@@
tant@@
tarian
tatar@@
teach@@
teapo@@
tel
telesco@@
tement
tempor@@
temporal
tenden@@
tener
teor@@
teri@@
tero
terse
tful
thly
tico
tif@@
tilla
tinto
tiri@@
titu@@
tivo
tment
tocino
toki
tol@@
toma@@
tome
tostada
total@@
trag@@
trai@@
trait
tranquiliz@@
transmit@@
trat@@
trate
tren
tribu@@
tribunal
trin@@
triz
tsun@@
tudes
type@@
ua
udd@@
uded
uela
uf@@
ughty
unbear@@
unci@@
ura@@
uran
urch
urgen@@
ustedes
usu@@
usur@@
ut@@
utter@@
vacy
vales
vaqu@@
vas
vege@@
veh@@
vela
velo@@
vera
verano
vete
villa@@
vio
vir
viron@@
vis@@
vistas
volante
volver@@
vos
wad@@
wait@@
want@@
warri@@
wels
whel@@
whisk@@
wiches
will@@
workaholi@@
world@@
worth@@
wro@@
yach@@
yar
yaw@@
ybody
yi@@
yiel@@
ympi@@
yos
your@@
zar
zen
zom@@
zos
À@@
Ángela
É@@
Ü@@
à@@
ár@@
ás
áñ@@
æ@@
én
ér@@
ê
ê@@
ío
íri@@
î@@
ña
ños
ón
ón@@
ô@@
ú
ú@@
úl
ć
č
đ@@
ě
ī@@
ł
ń@@
œ@@
ř
ŝ
ş@@
š
ū@@
ź
ž
ǎ@@
ə
ˈ@@
М@@
Ч@@
з@@
и
к@@
л@@
о
р@@
с@@
ы
э@@
א@@
ע@@
ồ@@
ứ
‐
‽
₪
₫
→
☭
♗
⨯
あ
し@@
ま@@
む
便
音
