<unk>
<pad>
<s>
</s>
.
de
que
a
la
?
¿
en
el
,
es
Tom
no
un
No
una
se
y
lo
El
los
por
me
con
está
su
para
las
La
más
Él
mi
Me
al
le
!
¡
te
del
Ella
Mary
qué
&quot;
muy
tiene
Es
tu
como
Qué
Por
son
él
Los
hacer
A
casa
fue
estaba
Yo
eso
Mi
ha
aquí
pero
esta
gusta
tiempo
todo
Estoy
tan
este
mucho
bien
ser
vez
Te
era
nada
si
algo
puede
favor
sus
dos
ella
puedo
o
cuando
yo
ir
Se
En
Lo
Si
Tengo
hay
todos
tengo
día
nos
trabajo
Este
dijo
Le
mañana
Quiero
Las
estoy
esto
mejor
verdad
dinero
vida
he
años
están
Hay
hablar
quiero
libro
hace
sin
Esta
solo
va
antes
poco
ver
siempre
sobre
hombre
Su
mundo
demasiado
ya
nunca
sé
quiere
padre
Cómo
francés
Ellos
tres
había
Creo
mí
Soy
mis
ese
ahora
Ya
sabe
estar
gente
tarde
María
soy
Dónde
Eso
estás
inglés
noche
hizo
mismo
tenía
usted
Un
nuevo
De
perro
haber
Quién
días
esa
así
decir
hecho
tú
hoy
hasta
coche
Tienes
ó
hora
comer
Está
Tomás
Todos
cosas
madre
porque
agua
ti
uno
nadie
Esto
voy
Nunca
menos
Eres
cómo
has
gustaría
estado
otra
quería
problema
les
niños
He
amigos
ado
Sé
puedes
tienes
escuela
parece
veces
Cuando
ciudad
personas
amigo
tus
quién
Cuál
quieres
año
hacerlo
buen
pasado
ni
también
Boston
os
otro
niño
Puedes
semana
puerta
dónde
buena
fuera
tienen
difícil
re@@
Puedo
Nos
desde
nosotros
ar
hermano
habitación
gran
nombre
Estás
cada
é
ada
alguien
tener
tanto
después
eres
ando
dice
persona
ayer
:
Nadie
mujer
dio
mal
entre
habla
Voy
allí
Tú
muchos
sea
ellos
visto
as
Todo
todas
lugar
in@@
seguro
Una
cuenta
durante
Hoy
saber
Ahora
vino
vas
gustan
grande
han
debería
feliz
an
aron
todavía
bueno
idea
libros
Cuándo
comida
comprar
sabía
Solo
Necesito
país
ayuda
Ese
creo
clase
gato
café
conmigo
padres
aprender
da
nuestra
amos
sido
miedo
tren
Tenemos
hermana
Siempre
haciendo
toda
muchas
des@@
leer
alguna
pronto
nuestro
hijo
rápido
John
Tiene
fácil
podría
carta
fiesta
Has
casi
ahí
momento
música
diez
contigo
parte
familia
profesor
vive
sólo
cosa
joven
Cuánto
Para
Japón
aba
cinco
pueden
salir
historia
cama
Tu
vivir
sí
ados
Todavía
cerca
primera
donde
siento
horas
Dios
Espero
Estamos
tomar
trabajar
acuerdo
Puede
;
palabras
importante
mano
Esa
problemas
ojos
mayor
lado
hijos
Pensé
Estaba
auto
teléfono
amor
realmente
dicho
razón
Fue
dormir
accidente
podía
mesa
puso
bastante
palabra
«
»
debe
mientras
camino
alto
llegar
pasó
jugar
lengua
Quieres
Al
necesita
tipo
Yanni
viene
tenemos
Sabes
tuvo
dejar
estaban
menudo
venir
encontrar
temprano
murió
importa
policía
estamos
ido
dar
A@@
pregunta
ustedes
estudiar
película
Son
té
mes
Deberías
fin
forma
hombres
idioma
esposa
contra
última
podemos
e
frío
lunes
arte
leche
será
unos
muerte
aún
cabeza
fueron
fuerte
punto
estación
sol
adas
dejó
misma
mucha
minutos
ía
único
estos
hacia
nueva
cualquier
ayudar
Sami
acerca
pelo
Ayer
nadar
otros
Gracias
manera
Parece
sueño
zapatos
chica
ningún
dije
número
pasar
Y
juego
volver
edad
Usted
vi
Alguien
juntos
vio
suficiente
cuatro
hablando
pidió
queda
usar
cansado
médico
plan
calle
luz
llama
manos
algún
encanta
escribir
televisión
falta
verano
cara
quien
eran
realidad
Estados
hubiera
lleva
tienda
bajo
cuarto
reloj
Unidos
bicicleta
error
guerra
pudo
emos
ventana
Aquí
viejo
Con
ropa
arse
sino
mujeres
compró
oficina
mío
ninguna
corazón
cierto
español
examen
ocupado
Nosotros
ca@@
ve
tal
hija
Sólo
deberías
en@@
río
buscando
perdido
primer
respuesta
algunos
autobús
rico
sabes
ante
chico
sola
preguntó
ará
posible
esperar
frase
ta
Vamos
á
hice
Australia
van
poder
Sus
canción
llegó
árbol
caja
estudiantes
pasa
Como
reunión
to
Ha
al@@
lejos
niña
seis
Hace
pequeño
Mis
calor
perder
pueda
perros
Cuántos
aré
dolor
pensar
veo
interesante
japonés
diccionario
animales
esperando
flores
hambre
libre
o@@
media
extranjero
haya
idiomas
largo
unas
bebé
creer
fumar
Sí
estas
estuvo
Era
entonces
final
vamos
viaje
ganas
quedó
necesito
duro
entrar
suerte
Pero
colegio
mar
Ojalá
hotel
regalo
somos
jardín
sería
anoche
malo
Había
capaz
nieve
carne
Tatoeba
nuestros
avión
ales
enfermo
oído
conozco
doctor
cielo
sentido
Cada
cocina
cree
preguntas
vista
novia
pan
caso
salud
tenido
das
an@@
errores
pregunto
Debes
Están
crees
tenis
...
allá
baño
dólares
esté
haga
parque
fútbol
perdió
algunas
lista
estudiante
gatos
vacaciones
verte
alemán
g@@
co@@
cumpleaños
de@@
pueblo
salió
tocar
trabaja
pagar
pude
siete
fui
siquiera
vuelta
listo
primero
Deja
beber
color
entender
llave
éxito
Nuestro
iba
pie
vestido
quieren
conducir
cuidado
tarea
Mañana
hospital
dentro
equipo
opinión
aste
grandes
terminar
España
Somos
pequeña
puesto
último
blanco
tío
ación
cuanto
culpa
llorar
lluvia
mayoría
ruido
empezó
señor
voz
ás
oportunidad
tomó
conoce
pena
única
aire
cámara
meses
Estos
Podría
mala
oír
ador
dado
fuego
gracias
piensa
vivo
entiendo
muerto
cena
demás
hemos
vaya
alrededor
ca
par
volvió
aban
aría
extraño
parecía
Navidad
Que
medio
ama
hagas
papel
cambiar
cantar
cayó
consejo
Aún
Después
ci@@
Vi
a@@
di@@
ello
próximo
quieras
secreto
ti@@
ón
atención
debes
Podrías
alta
significa
foto
loco
di
C@@
Cuántas
Francia
arme
derecho
edificio
escuchar
hiciste
huevos
morir
vos
ara
compañía
cuándo
asunto
Fui
completamente
terminado
banco
boca
leyendo
restaurante
Tokio
poner
caballo
cerveza
come
ex@@
igual
partido
Quisiera
Ustedes
habría
sitio
situación
án
biblioteca
encontró
treinta
Crees
ción
inteligente
trabajando
playa
rojo
Ellas
Ni
Tierra
ente
negro
pe@@
ajedrez
ar@@
barco
jugando
ley
pi@@
seguir
Casi
China
arlo
justo
mente
saben
imposible
par@@
viven
necesitas
su@@
Muchos
cine
favorito
piano
triste
cuesta
suelo
clases
encontré
peor
í@@
Déjame
ab@@
amiga
azul
duele
equivocado
eras
haces
invierno
novio
llevar
sombrero
París
frente
propia
dan
hacen
pre@@
presidente
S@@
Sin
cuánto
d@@
dientes
guitarra
solía
tas
Algunos
peligro
siendo
ías
llamar
í
Estas
Les
caro
le@@
manzana
rey
Os
capital
digas
do
abuelo
cenar
decisión
futuro
t@@
Odio
campo
con@@
llover
serio
vale
Vas
esperanto
jamás
pesar
rompió
tos
éis
abuela
com@@
comiendo
li@@
llamó
necesario
paz
universidad
é@@
Debería
dijiste
dirección
encontrado
estudiando
hermosa
mamá
pensando
sa
vi@@
abogado
camisa
car@@
esos
ina
otras
Alguna
caliente
entes
exactamente
i@@
irse
mía
ocho
vosotros
P@@
Prefiero
comió
escribió
pro@@
sigue
ganar
irme
pasada
Re@@
at@@
caminar
dejes
escrito
frases
montón
viajar
Dame
Mira
am@@
man@@
montaña
noticias
peligroso
Así
D@@
Uno
pobre
r@@
siguiente
z@@
Pienso
información
fi@@
haría
iglesia
marido
taza
co
mos
ordenador
paraguas
rato
sala
sangre
Nada
estabas
estará
propio
M@@
abrir
aquel
azúcar
e@@
empezar
ga
hablo
luego
venido
Realmente
bosque
fotos
larga
lleno
seas
tuve
buenas
comido
cuerpo
diferencia
jefe
ri@@
vayas
za
Debo
dormido
est@@
hermanos
ocurrió
ro@@
Debemos
Hemos
amo
comprado
debo
decidió
esperaba
experiencia
im@@
oso
ían
buenos
claro
radio
Necesitamos
acaba
ad@@
cu@@
Europa
Ziri
cambio
oro
Londres
Tuve
ero
gu@@
peso
piensas
tenga
verde
acá
as@@
lago
—
cartas
causa
común
esas
pájaro
ves
viendo
Acabo
Nueva
Ven
conseguir
divertido
domingo
er@@
hago
mo@@
próxima
-
amable
centro
llevaba
mar@@
países
pienso
Compré
es@@
lenguas
mil
reglas
s@@
tó
vaso
visitar
30
Con@@
bus
pescado
precio
ana
atrás
comenzó
correr
diciendo
llegado
mejores
nació
piso
suficientemente
tado
taxi
vendrá
encima
humanos
mi@@
recuerdo
carro
contar
estés
llevó
or@@
periódico
to@@
E@@
Todas
confiar
decirle
felices
ste
tierra
-@@
Argelia
afuera
aremos
cor@@
cuchillo
enfermedad
mor@@
responder
totalmente
acostumbrado
aprendiendo
elo
hará
paso
proyecto
varias
O@@
Tenía
aeropuerto
almuerzo
chino
concierto
cuál
detrás
entró
intentando
resolver
semanas
silla
daño
dejado
mensaje
pasando
queremos
u@@
ó@@
varios
&apos;
Quería
escritorio
evitar
i
mirando
ones
América
animal
ch@@
correcto
helado
miró
prisa
sopa
viento
áis
Anoche
Aunque
Hasta
gustaba
manzanas
nuestras
sale
Desde
compré
deberes
on@@
Hola
desayuno
funciona
haré
inmediatamente
llaves
maestro
matemáticas
novela
papá
ra@@
repente
sentado
Ken
ayudarte
béisbol
estúpido
famoso
hicieron
sos
trata
veinte
bailar
casado
cre@@
ja
libertad
pensaba
respecto
so
suena
venga
Alemania
Podemos
chocolate
conocido
dicen
ideas
paciente
pedí
segura
á@@
)
bonita
dijeron
iré
odio
pudiera
público
sentía
siente
debajo
diferente
espera
luna
nueve
ocupada
pájaros
tras
usa
(
Conozco
Inglaterra
York
adores
gas
gusto
leído
noticia
olvides
pone
segundo
silencio
B@@
abierta
cien
contento
durmiendo
mal@@
tampoco
b@@
bebe
chicos
diferentes
digo
favorita
hablan
humano
isla
ojo
sistema
G@@
car
cas
casó
cita
felicidad
minuto
oración
p@@
Entonces
bi@@
cal@@
canadiense
fruta
gafas
ganó
jóvenes
pieza
quiera
Italia
T@@
arroz
c@@
clima
corriendo
dices
enamorado
gustó
películas
quedarse
rápidamente
sal
sentó
terminó
Nuestra
Vivo
brazo
cocinar
gobierno
matar
prueba
tonto
Algunas
Tal
ac@@
enemigo
esperanza
n@@
necesitaba
traje
través
Dime
Haz
contó
em@@
per@@
piedra
si@@
ven@@
árboles
Estaré
abrigo
deseo
habló
incluso
pared
pase
sueños
ven
verlo
vuelto
Sabía
ciencia
mu@@
pedir
platos
resultado
toca
vieja
2
Habla
Sos
abrió
enferma
estrellas
juega
profesora
tar
j@@
obra
odia
principio
queso
universo
I@@
También
ano
existe
junto
llega
llueve
mentira
osos
quedar
ta@@
tengas
v@@
borracho
chicas
ciones
diga
gana
intentó
izquierda
quedarme
cansada
deberíamos
hiciera
raro
sta
útil
Layla
apenas
aunque
grupo
me@@
nuevos
tormenta
traducir
viste
compras
decidido
estuviera
llena
mitad
Jane
Tienen
interesa
lo@@
menor
tele
Deberíamos
Tus
adora
derecha
domingos
duda
empresa
fuerza
ia
pensó
popular
primavera
temo
verme
capacidad
cos
hielo
inter@@
l@@
noches
olvidado
olvidó
orgulloso
pies
podrías
política
quedé
sacó
sal@@
seguridad
tía
verdadero
Muchas
bolsa
decirme
dieron
estáis
hacía
mantener
naturaleza
puedas
puente
sabemos
trató
Des@@
encuentra
máquina
po@@
sentimientos
Sr.
belleza
deja
espacio
hermoso
llegue
memoria
tuyo
Han
agradable
arás
correo
ejemplo
is
ra
roja
sepa
suele
uso
cado
educación
encuentro
entiende
pa@@
simplemente
te@@
cambiado
eron
pensé
texto
toma
és
Acaso
Perdí
arle
ayudarme
llamo
lu@@
partir
preocupes
resto
ro
solución
terrible
valor
10
Quiere
ayudó
casas
delante
ladrón
ma@@
modo
parar
ruso
taron
tratando
Brasil
Dicen
V@@
Va
dis@@
dulce
fu@@
general
guapa
jo
ma
mató
medicina
rica
tema
Sería
Supongo
asiento
espalda
ino
llamada
lloviendo
perfecto
preocupado
sonrisa
Hice
Jamás
L@@
Quizá
Será
bella
bo@@
escribe
habían
necesitan
parecen
partes
roto
Bill
aburrido
bonito
botella
des
go
idiota
llamado
necesitamos
normal
tuviera
Dile
cantante
cer@@
computadora
correcta
empieza
escuchando
paciencia
pizza
propósito
quitó
sas
abajo
deben
despacio
ellas
flor
irte
lágrimas
m@@
mismos
osa
piernas
pocos
segunda
siguió
tarta
teatro
aconsejó
aquellos
buscar
cual
empleo
enojado
hermanas
humor
irá
museo
pintura
planeta
recordar
se@@
tuya
viviendo
z
Siento
Ve
aquella
arán
carrera
deberían
decirte
deporte
hechos
inocente
lápiz
pastel
pescar
st@@
techo
ter@@
5
Toda
ad
alma
anciano
conocer
contacto
discurso
ent@@
habrá
k@@
la@@
objetivo
pocas
tivo
tráfico
Desearía
Hablo
aciones
anos
arriba
debido
du@@
frecuencia
jugador
levantó
madera
sorprendido
vuestro
ándose
Sabe
Según
cerrar
embargo
golf
haberlo
japonesa
nativo
negocio
paseo
peces
permiso
relación
tes
u
veía
ú@@
almente
club
darle
enseñó
er
llorando
pez
Éste
Com@@
In@@
almorzar
cabo
ce@@
cerrada
culpable
debemos
enfadado
ir@@
línea
muchacho
qu@@
quiso
robó
sa@@
ten@@
zar
3
Apenas
Veo
absoluto
arla
ejercicio
escribiendo
estaría
limpiar
llegué
planes
sorprendió
traducción
Su@@
ambos
ario
comen
encantan
millones
nuevas
oraciones
oscuridad
respondió
sintió
ten
tenían
Antes
acento
alumnos
confianza
dedos
galletas
hables
lenguaje
naranja
negó
opción
premio
preparado
real
sientes
sonido
teoría
tor@@
F@@
Jim
Llevo
Mamá
Mejor
able
ag@@
alegro
basura
blanca
coger
comportamiento
computador
corbata
doce
enorme
intención
simple
so@@
tendrá
vuelve
R@@
arma
boda
botón
crimen
despierto
diario
eros
explicar
fondo
harto
nariz
oferta
parada
piel
siglo
zo
Canadá
broma
can
cha
cáncer
distancia
esposo
ita
mapa
metro
negocios
pierna
quedarte
tar@@
un@@
ventanas
viernes
vivía
Juan
aceptar
bar@@
carretera
casarse
coches
hablas
hacerte
lee
pequeños
profundamente
página
rara
significado
vuelva
Adónde
Ambos
Co@@
Cuanto
Dan
Espera
Grecia
Probablemente
Queremos
Tenés
artículo
casualidad
especial
estrella
explicación
hayas
honesto
mo
pertenece
prisión
vecinos
volar
Ésta
ñ@@
Algo
Hubo
Más
N@@
Necesitas
amente
amistad
arnos
darme
entrada
haberte
hubo
re
supuesto
y@@
Toma
adelante
dando
daré
gan@@
hi@@
japoneses
lentes
placer
probablemente
pu@@
que@@
querés
quince
Bob
Lamento
ap@@
cárcel
có
dura
ela
entero
escucha
gar@@
interesado
italiano
lavar
tr@@
vimos
vuelo
Debe
Encontré
Esos
alcohol
ali@@
ba
cha@@
cia
col@@
depende
enseñar
excepto
hablado
incendio
inmediato
merece
nervioso
permite
plantas
recuerda
vecino
verdaderamente
vuestra
En@@
Estáis
completo
finalmente
fría
ganado
je
llamas
ni@@
parado
resultados
ru@@
servicio
stas
tomado
usando
H@@
Pronto
ba@@
baja
colores
dad
darte
dedo
dé
energía
estábamos
estómago
for@@
gratis
mat@@
pin@@
plato
quise
recibió
sábado
tamos
Bueno
Dos
Roma
cabello
cincuenta
ció
comí
fácilmente
huele
pasaporte
probar
prometió
pérdida
satisfecho
sociedad
tu@@
Al@@
Jack
andar
barato
camión
conocía
ec@@
enseña
estudio
no@@
oscuro
propuesta
resfriado
salvo
sentí
supone
tiempos
tomando
trajo
Oh
arena
caer
cambió
cantidad
conocí
corto
cuestión
echar
extranjeros
hojas
lar
linda
mas
mintiendo
mostró
programa
responsable
rosa
sentir
steis
tra@@
vemos
ín
Conoces
Cuáles
Di@@
Internet
Kioto
apareció
conoces
correos
cualquiera
embarazada
esfuerzo
intentar
ob@@
ora
paró
sorpresa
tarjeta
torta
8
Colón
Estuve
Hablas
Incluso
Papá
Tenéis
absolutamente
cola
consciente
creía
encia
espejo
estudia
molesta
ores
pareja
pelota
primo
quedado
qui@@
revista
sofá
soldados
tanta
íamos
Skura
Solía
Ten
To@@
aj@@
amaba
anda
bolígrafo
can@@
decía
empezado
fiebre
mercado
natural
nubes
perdí
querías
quisiera
sacar
solos
tada
talento
7
Mientras
ables
acabó
ayude
chi@@
cont@@
creen
cru@@
cultura
descanso
destino
el@@
empleados
estadounidense
mirar
ol@@
orden
probable
robado
salido
soportar
suyo
teme
tir@@
trampa
visita
volverá
vosotras
én@@
Cor@@
Mucha
alegra
arreglar
artista
discutir
elegir
escaleras
excelente
física
go@@
herido
hu@@
inteligencia
it@@
or
portugués
principal
vergüenza
zas
Querés
Rusia
acer@@
alo
anillo
bandera
casada
chas
estuve
facilidad
gordo
humana
matrimonio
mira
ninguno
pantalones
posición
supermercado
ver@@
vivido
zado
últimamente
20
Dijo
K@@
México
Pareces
Pro@@
ascensor
caballos
canta
cantando
consiguió
cuello
dej@@
erte
ería
fe
malas
mantequilla
mayores
mierda
mon@@
multitud
on
pensado
pobres
ratón
temperatura
yenes
Fuimos
alegría
beso
calidad
cargo
cero
conciencia
corre
costó
derechos
fuiste
guste
horrible
huevo
latín
materna
moda
olvidé
once
podido
por@@
sirve
teclado
últimos
1
Quizás
aran
brazos
canciones
comienzo
contrario
curso
desayunar
escritor
esper@@
fin@@
formas
haberme
herida
hogar
invitados
juegos
lindo
manejar
nivel
otoño
poema
resultó
sonó
tiva
vender
4
Cierra
Ninguno
Quien
U@@
abierto
acción
aprendido
aria
arios
cas@@
conocen
conversación
corta
den@@
dulces
endo
hacerme
jugo
llevas
llevo
luces
mediodía
necesidad
olvidar
osas
pedirle
promesa
religión
tenías
tratar
vacía
viejos
Aquel
Trabajo
Vive
Vos
ant@@
au@@
ausencia
bajó
besó
bolsillo
cartera
cerebro
cho
comenzar
conocimiento
convirtió
detuvo
extremadamente
f@@
habl@@
habías
hecha
maleta
mañanas
medianoche
pas@@
prestado
recor@@
sonrió
tenés
éste
Ar@@
acu@@
apartamento
armas
cuerda
ducha
duerme
invi@@
montañas
niñas
nosotras
pedido
piensan
piscina
pistola
pregunté
presente
profundo
ricos
rosas
sabido
sión
vende
web
éramos
Disculpe
acabado
bebiendo
caminando
ce
corrió
cortó
debía
dieta
diría
dió
doble
dormitorio
empezando
esfuerzos
griego
habéis
il@@
importancia
inas
iría
is@@
móvil
normalmente
octubre
prohibido
reír
robaron
sed
velocidad
verdadera
6
Amo
De@@
Intenté
Quieren
Tuvimos
Vete
actuar
adentro
agu@@
busca
cias
ciudades
cometer
cuarenta
cul@@
den
distinguir
enemigos
escuchó
fortuna
fracaso
fresco
ga@@
hacerse
historias
inútil
ll@@
llaman
nación
población
preocupa
profesores
remedio
riesgo
solas
sucedió
Sigue
ble
camente
casar
cerró
china
comprender
control
dejé
detalles
esquina
fuimos
gar
imagen
informe
lados
miembros
motor
oyó
podéis
querido
regalos
reina
trabajadores
ís
%
An@@
Durante
Finalmente
Oí
antigua
baj@@
cuidar
der@@
dispuesto
drogas
echó
end@@
existen
explicó
extraña
flauta
gi@@
gue
hablaba
interés
mirada
mundial
murieron
na
naranjas
pareció
pollo
pusieron
razones
según
supiera
tendré
tranquilo
tuvimos
ur@@
violencia
voluntad
Esas
Estábamos
Iré
J@@
aceite
autor
billetera
cierta
cometido
compañeros
cuadro
descansar
discusión
ejército
elección
estadounidenses
guar@@
hablante
hable
lan@@
llam@@
medida
muñeca
precios
prepar@@
quedan
recibido
rostro
saberlo
sean
tocando
volveré
zó
árabe
Mike
Pasé
Pueden
Tony
abre
apar@@
blancas
bolso
cant@@
ciego
cogió
condiciones
costumbre
diré
diste
falda
golpeó
gó
iguales
ju@@
lentamente
metros
pal@@
podrá
político
puse
remos
ren@@
respuestas
señora
terremoto
época
Par@@
Pon
Recuerdo
Smith
Tan
abandonado
abandonar
abandonó
acciones
amas
aras
ban@@
be@@
bu@@
castillo
descubrió
difíciles
don@@
espero
famosa
fábrica
gado
gri@@
guapo
ha@@
jas
kilómetros
letra
muchacha
na@@
novelas
pasé
personal
polvo
preguntar
puesta
super@@
suya
televisor
tuvieron
verduras
veré
ábamos
Ahí
Haré
India
Kate
Simplemente
armario
ase
asi@@
bordo
compraste
construir
cruzar
cubierta
dentista
fuertes
hábito
medi@@
mir@@
ocurre
pa
poniendo
propios
seres
turno
vidas
Ningún
Osaka
Sal@@
Sois
Vale
Vi@@
arías
bajar
billete
cumplir
datos
deportes
engañ@@
enseñ@@
enta
fal@@
feo
insectos
maestra
mentiras
miembro
nombres
posibilidad
querría
romper
sur
termina
tomo
Facebook
San
acabo
alcanzar
arlos
aves
añ@@
comienza
conductor
economía
eta
lento
llueva
mentiroso
metió
muertos
nota
pens@@
poca
políticos
reci@@
responsabilidad
ros
saltó
saludable
sor@@
ér@@
Est@@
Normalmente
Perdón
Preferiría
acceso
altos
americano
amigas
apagar
ate
chaqueta
cierra
contestar
cri@@
crédito
débil
elecciones
estaré
genial
h@@
hacemos
humanidad
inos
invitó
lar@@
largas
llegaron
loca
míos
norte
parecer
patatas
ponerse
querer
recibir
ría
sombra
sub@@
tame
viva
yendo
zona
área
Dejé
Es@@
Llegué
Mar@@
Porque
Sol
agrada
alas
alidad
bebida
bereber
calles
chiste
cido
cur@@
cuyo
dama
doy
escena
justicia
l
llegará
min@@
motivo
ocupados
odian
pareces
pesado
quedaron
ras@@
regla
respeto
sois
tantos
tendrás
toalla
tocó
trabajó
vacío
victoria
ándome
Dice
Estaban
Ex@@
Hazlo
Jackson
Lleva
Podéis
amiento
aquello
averiguar
breve
brillante
cae
carga
ciento
colina
consigo
entera
escapar
esco@@
estilo
gui@@
instrucciones
inteligentes
lav@@
león
locos
mando
meta
miel
millas
montar
pegó
pen@@
poeta
sobre@@
sol@@
t
verla
vivió
Cristóbal
Cuidado
Nací
andando
asesinato
ayudarnos
banda
caballero
calcetines
che
cion@@
compar@@
confi@@
consider@@
damos
dios
estúpida
evi@@
genio
her@@
ho@@
hombro
héroe
ida
illa
importantes
junio
levantarse
leyó
leí
literatura
llamaré
lugares
men@@
obtener
olor
ori@@
paga
paquete
pequeñas
periódicos
planta
presión
ré
sabor
salida
solamente
taba
tantas
trae
traer
trozo
África
Guerra
Jesús
Man@@
Mi@@
O
actor
anterior
aspecto
ataque
cabra
convencer
cuidadoso
curiosidad
delicioso
desierto
electrónico
ena
fantasmas
fr@@
fun@@
grados
gué
imaginación
internet
ismo
lección
limpia
martes
mer@@
ne@@
negra
océano
piezas
prob@@
productos
puertas
querían
regresó
rela@@
repar@@
trat@@
usado
vuelvas
Berlín
Hu@@
Pues
Quédate
Vosotros
acep@@
aceptó
ayudara
azules
bromeando
calma
cio
comentarios
compañero
compr@@
dame
decidir
dueño
encontramos
hicimos
hubiese
iremos
juguete
juventud
listos
logró
moto
muere
orejas
pasajeros
plata
pon@@
pongo
pos@@
quedamos
requiere
res@@
sen@@
sencillo
señal
siones
suelen
tamaño
tido
tivos
tí
tímido
Cualquier
Tanto
Vivimos
ber@@
capitán
cercana
cho@@
cientos
cinturón
cometió
conocerte
director
discu@@
disculpas
disponible
durmió
encar@@
fluidez
irnos
llev@@
notas
ona
orgullosa
preferido
regresar
salvar
seguido
seguros
sent@@
sospechoso
tomé
torre
usan
ventaja
vistazo
volando
Buenos
Cre@@
Cu@@
Estabas
Parecía
Sabemos
acaso
actitud
adi@@
agujero
ala
ame
ata
autos
avi@@
ayud@@
bello
bomba
bor@@
br@@
cando
conoció
contr@@
d
dará
decirlo
democracia
enfermera
entendido
entr@@
escondiendo
estén
granja
hablamos
harías
hubieras
importar
internacional
investigación
invitado
llevan
lobo
mejorar
menú
pagó
perdón
pintar
preparando
producto
quedaré
regaló
rojas
subir
subió
tal@@
tecnología
tenéis
100
George
Le@@
Nancy
Per@@
Podés
abas
accidentes
actual
admitir
amar
amarillo
and@@
ausente
auto@@
barba
casos
científico
conocemos
considerado
contrato
cortar
cruel
deci@@
despertó
dido
ear
escribí
francesa
increíble
invitación
levanta
leyes
maravillosa
millón
moneda
papas
pel@@
pesa
podamos
quer@@
r
serpientes
social
tipos
trans@@
tri@@
vengas
vienen
vo
zando
zaron
zumo
ésta
50
Dije
Llámame
Ponte
Venga
Ves
anciana
antiguo
apagó
bebió
bo
bote
cados
casados
cen@@
cida
contraseña
cura
deber
descubrir
dificultad
do@@
elegido
encontr@@
escuchado
fra@@
gerente
gracioso
grave
impuestos
intento
inventó
jo@@
mintió
muro
necesit@@
ocultar
op@@
oí
patio
queréis
riendo
rieron
riqueza
saliendo
serán
sonar
tales
tando
tieron
vendría
vol@@
volviendo
ático
Car@@
Dudo
Mundial
Nuestros
Qu@@
Rima
Vuelve
acercó
acompañ@@
af@@
alcalde
asuntos
ces
comas
comp@@
conduce
contado
continuar
cómodo
daba
departamento
enamorada
entos
gris
hagan
hermosas
honor
imos
importaría
infancia
intentarlo
mate
monte
muchísimo
ota
petróleo
podés
poesía
pongas
preparar
propias
puntos
rió
sabio
sepas
sto
trece
uñas
va@@
vaca
vacas
vela
venta
visitado
9
Creía
Luna
Tres
acor@@
admitió
agradecido
bar
blancos
cambi@@
capaces
celular
coma
compra
diera
digan
duró
ej@@
enseguida
entendí
erlo
eré
fila
fines
gal@@
golpe
habido
jugadores
maravilloso
mismas
mover
muebles
muestra
método
ocurrido
patas
pecho
permitir
quem@@
rec@@
reg@@
salario
sin@@
sueldo
tratado
valiente
vernos
vienes
Empecé
Pas@@
Peter
Pon@@
Seguro
Sobre
Trata
Vaya
acabar
adiós
alimentos
anti@@
aumento
az@@
bal@@
cab@@
cación
cambia
cansados
causó
chos
cin@@
comentario
comes
cá@@
dejaron
despertar
desperté
dificultades
ea
elefante
emergencia
ensalada
enviar
esti@@
extranjera
falso
fotografía
guantes
gustado
hierro
intentado
llamarme
llame
melo
movimiento
mínimo
ofreció
origen
pantalla
pasear
pensamientos
perfectamente
piedras
pluma
ponga
prefiero
quit@@
recuper@@
sano
ser@@
serás
suave
tendría
tentación
ío
Come
Olvidé
Pensaba
Pre@@
abril
adop@@
agarró
anas
apa@@
aparte
apellido
aproximadamente
barrio
bebo
cedió
ciendo
conejo
conocida
contiene
có@@
deseando
diente
distra@@
electricidad
envió
equivocada
ere
erse
espada
especie
estarás
estudiado
fecha
gan
gasolina
gay
gritó
haberse
haremos
hoja
idos
imagin@@
in
instituto
ito
labios
limpi@@
llegamos
lloró
momentos
nadando
obras
opiniones
podríamos
polaco
preguntaba
prestar
princesa
práctica
páginas
risa
rumor
rápida
sabías
salón
sur@@
tiende
trabajaba
traído
ud@@
votar
ár@@
ñas
Dale
Dima
Llegó
Tra@@
Tras
acusado
adecuado
alarma
aprende
aprendió
batalla
batería
cap@@
cerrado
chil@@
cuentas
dejaré
demasiada
equipaje
escalera
esperado
expresión
fuente
gr@@
humo
impresión
lectura
leo
limpio
locura
matado
misión
músico
original
pl@@
recientemente
sab@@
son@@
sucia
tarse
tiró
tro@@
us@@
vano
venden
vivi@@
volví
00
Buenas
Hizo
Intenta
Madrid
Piensas
Primero
Vol@@
aje
arañas
atrapado
baloncesto
cerdo
cima
clientes
compartir
conferencia
cr@@
crear
creas
cuántos
da@@
dejara
dormí
efecto
fueras
fuerzas
gando
gido
habilidad
imaginar
indi@@
io
levant@@
medicamento
misterio
molesto
muerta
mueve
mé@@
nu@@
pagan
partida
pasatiempo
pat@@
pelear
poemas
punta
reali@@
ridículo
rota
sabiduría
salv@@
tablero
tareas
toques
trago
trato
ve@@
vea
verdes
vieron
vinieron
vivos
ísimo
Betty
Desafortunadamente
Entre
Hablé
Suiza
Vimos
abri@@
adónde
aliento
altura
apo@@
artificial
baile
bes@@
boleto
callado
cambios
caron
caído
char@@
ciudadano
convencido
desea
deseos
desnudo
despe@@
despierta
entas
escenario
especialmente
extraños
fo@@
frutas
función
gran@@
gritar
guía
haberle
ignorancia
interior
mentir
miraba
monos
nacional
nad@@
ot@@
perfecta
preguntarle
promesas
recoger
región
sensación
sentada
seré
sociales
sucio
teniendo
tesoro
urgente
violín
visión
án@@
ño
órdenes
Entiendo
Estudio
Li@@
Mu@@
Sea
alguno
amabilidad
americanos
asust@@
cantó
científicos
cla@@
convenció
correctamente
corte
cost@@
costa
crisis
daron
decepcion@@
decepcionado
documento
efectivo
entemente
entend@@
entreg@@
equivo@@
escucho
existencia
gada
gallina
gatito
gen@@
ig@@
jos
letras
líneas
metal
miento
mochila
mono
números
odi@@
oper@@
pasan
pasará
pes@@
pudimos
ras
resulta
robar
saltar
seguida
supo
tir
ura
utilizar
vives
zamos
ña
4@@
5@@
Ah
Algún
Comí
Decidí
Lle@@
Murió
Nosotras
Pasamos
Portugal
Pregúntale
Recibí
Tomé
abor@@
adultos
aman
apoyo
asustado
avergonzado
ayudará
base
basta
bebido
bilingüe
botas
cerr@@
colo@@
confía
construcción
construyó
convertirse
copia
corriente
deje
desapareció
destru@@
disfru@@
disparó
diver@@
ece
encontraste
enfadada
enfermedades
entiendes
intent@@
juegan
llamando
llevará
lograr
lástima
mantiene
mantuvo
marcha
moderna
pago
pesada
pobreza
profunda
puedan
rechazó
sentarme
serpiente
sexo
tate
trabajan
val@@
volumen
zada
Alice
Aprendí
Dis@@
Donde
Escuché
Estuvo
Fuji
Leí
Policía
Querría
Traté
aburrida
aco@@
actriz
actu@@
alfabeto
anim@@
apre@@
asistir
bonitas
caba
cl@@
clásica
complicado
consejos
contener
cé
darse
decisiones
desgracia
desper@@
dest@@
dijera
dispar@@
domin@@
echo
empezaron
experimento
exten@@
fa@@
hac@@
ilegal
lación
levantado
levantarme
levanté
librería
lámpara
necesitar
oeste
oficial
os@@
oídos
pelea
pido
podré
ponerme
pozo
present@@
pruebas
quedando
ques
ración
res
revistas
siesta
siguen
suéter
temporada
tió
ton@@
total
trabajos
traducciones
viajes
zan
ángel
Adoro
Biblia
Claro
Di
Escribe
Escu@@
Esperamos
Feliz
Fuiste
Hab@@
Hagamos
Ju@@
Linda
Llam@@
Oye
Piensa
Señor
Trabaj@@
Viste
Volveré
absurdo
afortunado
ale
almohada
alumno
anza
aprobó
arre@@
carácter
cercano
clara
come@@
cubierto
cuento
debió
dile
documentos
dudas
ed
enamoró
encantaría
encontraron
enti@@
erme
erá
esperó
estuviste
fama
filosofía
fingió
fri@@
gustas
heridas
hierba
hor@@
húngaro
iendo
independiente
ingenuo
juguetes
levantar
limón
local
logrado
logro
lógica
malos
medios
ment@@
nevando
normas
obvio
ocasión
pagado
pagar@@
pasamos
permanecer
poli@@
príncipe
reconocer
recuerdos
salvó
secretos
secundaria
sion@@
tados
taste
tengamos
tura
vayan
veras
verle
visitó
ví@@
zorro
Brown
Coge
Deberían
Dijeron
Egipto
Gran
Saben
Ser
Vayamos
aco
acto
acuerdas
admi@@
alegre
amado
ayudarle
bici
bió
bur@@
cajas
cante
cidos
claramente
cliente
comunidad
confío
contenta
corre@@
creó
del@@
divi@@
dó
eléctrica
extraterrestres
fantasma
formar
funcionar
guardia
hacerle
incapaz
infierno
linterna
llamaste
llegues
líder
ló
miles
modelo
negros
nevar
opciones
pierde
plástico
postre
practicar
prefiere
primeros
primos
pul@@
quedo
quienes
química
ratones
rodilla
ríe
similar
solar
soldado
tam@@
tarme
tidos
tiro
traductor
turco
vídeo
ye
Abre
Debido
Detesto
Fu@@
Pablo
Paul
Po@@
Tendremos
Tuvo
Vine
Vino
abandon@@
abuelos
ahorrar
alcanzó
alfombra
ave
bañ@@
chó
cobarde
cocinero
condición
conjunto
consiste
coraje
creyó
cuida
dejas
dejo
descubierto
deten@@
dime
dor
elefantes
eri@@
espectáculo
espere
espíritu
esquiar
exámenes
far@@
gorda
gru@@
guardar
ini@@
jazz
je@@
jun@@
lava
licencia
llor@@
lloverá
luce
mol@@
mostr@@
musical
naturales
negras
ocurra
osamente
paredes
pañuelo
pesca
picnic
pila
pri@@
privado
producción
produce
prome@@
pura
puta
ren
salí
sesenta
soci@@
suma
tejado
tras@@
trenes
uvas
versión
viniera
Ésa
–
Be@@
CD
Da
Lu@@
Ob@@
Tendré
Van
afec@@
agotado
ajo
ale@@
amar@@
ambas
ancianos
apariencia
aprendiste
ast@@
bola
botellas
bra
cajón
canadienses
casarme
chinos
cional
cito
cocinando
completa
confun@@
considera
conven@@
cosecha
dem@@
despedido
diendo
directamente
dirá
enfrent@@
ental
escondido
estudió
familias
gió
ilusión
incómodo
instante
itas
jabón
jar@@
juzgar
k
llamaba
llamé
llegada
m
masa
mayo
monedas
mueren
nuevamente
ochenta
olvidaré
olvide
ordenó
orgullo
pasaba
permi@@
pidiendo
planeando
ponen
posee
pr@@
principios
proceso
proteger
raza
razonable
reconoció
renunciar
reserva
rio
segundos
sensible
sobras
suicidó
superar
tela
temas
toque
trabaj@@
turistas
vayamos
viniste
íais
.@@
7@@
Aprender
Ci@@
Creí
Cualquiera
Cuánta
Dejó
Esper@@
Gu@@
Hablamos
Habéis
Ma@@
Mon@@
Viene
aca
además
alegr@@
amenaza
apoy@@
archivo
ardilla
asesino
ayudado
bail@@
bas@@
borde
bre
bro@@
bromas
cabaña
camiseta
cerdos
cerrados
che@@
chistes
comiste
cortas
criminal
cumpli@@
cómoda
daría
desarrollo
descar@@
eme
esp@@
esperanzas
estudi@@
estupidez
estuvieron
ete
frigorífico
garganta
golpe@@
gramática
habitaciones
hijas
impidió
lamento
llevado
llo
males
mascota
material
milagro
musulmanes
mutuamente
ocurrir
parecido
participar
pele@@
personalidad
pinta
probado
produ@@
quej@@
recién
reco@@
reducir
respirar
sel@@
símbolo
tendremos
tonta
trabajado
tur@@
usó
vend@@
viera
vo@@
zados
zos
ácido
áramos
12
25
500
6@@
Allí
Asegúrate
Bienvenido
Cuéntame
Elige
Lee
Luego
Sentí
Sigo
Tráeme
afeit@@
aho@@
alérgico
amanecer
amarilla
aprendizaje
ares
arrepiento
asesinado
atr@@
bri@@
c
cali@@
castig@@
comidas
consecuencias
consideran
constru@@
convertido
copa
creció
cuaderno
cui@@
diablo
dioses
directo
diseñ@@
disfrutar
dor@@
echado
emp@@
empleado
encendió
encuentran
enero
eno
envi@@
envidia
escapó
escondió
excusa
expresar
falsa
ger@@
hablantes
incidente
inglesa
intenta
invent@@
jar
jaula
libres
llen@@
marchó
marrón
mentido
miente
ministro
mires
n
nacimiento
nací
objetos
oveja
oxígeno
pas
peligrosa
personalmente
pil@@
piloto
podrás
poquito
preci@@
presencia
presentes
quede
rate
recursos
regal@@
relaciones
reparar
reuniones
robo
sabían
salieron
seco
sentados
solicitud
soltero
sonriendo
soporto
sti@@
sándwich
sótano
talo
termin@@
tinta
tor
tranquila
trigo
utiliza
vete
vidrio
émonos
Ayúdame
Carlos
Corea
Esperemos
Habrá
Intent@@
Llev@@
Ninguna
Queréis
Recuerda
Recuerdas
Ro@@
Sabéis
Sabías
Si@@
Taro
Tendrás
Turquía
Vengo
abejas
ador@@
aguanto
alcanz@@
alquilar
apetece
asco
añadir
bles
bus@@
camin@@
canto
celoso
cocin@@
colección
collar
comité
conocimos
conver@@
crea
defectos
deliciosa
descubri@@
dimos
dir
diri@@
dur@@
ed@@
educado
egoísta
elev@@
enfad@@
estudios
et@@
ev@@
extranjeras
falleció
familiar
fea
fuese
fuma
gane
generalmente
gieron
grano
gustar
hab@@
improbable
irán
jueves
juicio
lam@@
lastim@@
lat@@
llegaste
lleve
lotería
mado
man
moderno
mordió
mó
nativos
niebla
obedecer
ocultando
orden@@
oscura
pares
pasto
periodista
pona
populares
prefieres
preparó
puerto
quedes
quejas
ran
realizar
regres@@
regreso
respe@@
respon@@
resul@@
revés
samente
semejante
sienta
sonreír
taciones
telo
tivas
trabajador
título
uni@@
verás
vivimos
yeron
zanahorias
zoológico
Bien
Chicago
Empezó
Fueron
Fumar
Leo
Llama
Marte
Me@@
Ni@@
Pasó
Suecia
acabas
adver@@
alej@@
all@@
alternativa
ambiente
araña
arias
arro@@
automóvil
bel@@
ben@@
bot@@
cariño
carme
chu@@
colgó
compromiso
conducta
conec@@
considero
conversar
crema
dades
dé@@
edi@@
embajada
encantadora
ensayo
ento
entra
espacial
estalló
euros
experto
explosión
fresca
frontera
gastos
género
hablé
habíamos
iban
iga
ignor@@
infantil
influencia
ing@@
ingresos
ios
ista
itos
juez
ladrones
llevaré
luchar
marca
mostrar
movimientos
nervios
objeto
obligado
of@@
oponente
pan@@
partió
pasaron
pedirte
pensamiento
perder@@
planetas
plant@@
port@@
preocuparse
puntual
qued@@
receta
reputación
resuelto
rin@@
ritmo
rueda
sales
seca
sillas
sobrevivir
sucede
talla
tarlo
tengan
tomas
tomate
tradu@@
tí@@
zca
íbamos
8@@
Además
Argentina
Compr@@
Deme
Guar@@
Norte
Sal
Suelo
Tradu@@
Twitter
adme
adulto
anta
antiguas
atos
aviones
caras
caros
ced@@
cen
cinta
clave
comprarlo
comunicación
concurso
condenado
conduciendo
confundido
coreano
cubo
cueva
culo
cuántas
césped
círculo
desafío
despreci@@
detener
din@@
encender
endas
enojada
entrevista
eo
ernos
escrita
estructura
estupendo
extra
gasta
ge
gracia
gripe
gust@@
habilidades
harina
ibas
idad
incluye
irás
levanto
llego
logía
moverse
pado
palo
parezca
pasillo
peligrosos
perdiendo
perdieron
permitido
pol@@
ponerte
preocupada
profesional
quedaba
quedara
radi@@
refrigerador
resol@@
retraso
s
secretaria
siva
smo
tación
tarda
tará
testigo
vais
viaj@@
viejas
víctima
x
yen
Ése
ándolo
ética
útiles
19@@
2@@
Ann
Apaga
Ay
Buen
Existen
Hablar
Mantén
Perdió
Pi@@
Quiénes
TV
Trabaja
acostumbr@@
actividad
actividades
adamente
adicto
agradec@@
agradezco
alar@@
amante
antiguos
arían
ate@@
atractiva
bala
besar
bienvenido
bonitos
caluroso
caída
cel@@
cidas
cionado
circunstancias
ciudadanos
comercial
comple@@
congel@@
crecimiento
damente
date
demanda
deme
detenido
disco
dí@@
enas
endi@@
engañar
enseñarme
escalar
exi@@
famosos
ficción
fiestas
fil@@
firmar
flo@@
frecuentemente
gaste
gemelos
gimnasio
gira
gos
grosero
gustaban
habitual
hagamos
hambriento
har@@
helicóptero
hun@@
huyó
ias
ilumin@@
ira
julio
ko
largos
llenó
lucha
límites
mada
mariposa
matemática
mejilla
meter
mide
mit@@
mosca
muchachos
muero
médicos
mías
ocul@@
om@@
ordenadores
pianista
pidieron
podrían
pones
preocup@@
presa
promedio
pronunciar
provo@@
pudieras
pues
pun@@
queja
quitar
red
sabés
san@@
sencilla
señorita
sincero
sorprende
soñar
supe
tadas
tent@@
teníamos
tercer
vago
vasos
vendió
vuestros
x@@
éndose
ónica
.000
Acep@@
Afortunadamente
Ana
Aquella
Asia
Bienvenidos
Dej@@
Eh
Fadil
Llé@@
Mal@@
Mario
Mat@@
Pedro
Perdona
Res@@
Susan
Unión
acostumbrada
adelantado
aguantar
aparece
ape@@
apetito
apresur@@
apun@@
atacó
ayudaría
cadena
calvo
carajo
carse
caus@@
chando
charla
cierre
cigarro
comi@@
comprarle
comuni@@
conocieron
control@@
coser
creado
debí
dedi@@
definitivamente
demasiados
demonios
dibujo
duermo
déjame
edificios
efectos
emocionante
encontrarás
entienden
entradas
erla
erlos
escal@@
escritura
eternidad
evento
fotografías
harás
hayan
haz
herramientas
horario
impaciente
insul@@
invitar
jado
lavó
llora
llos
lápices
martillo
mas@@
mata
materia
metas
modos
mojado
muriendo
máximo
necesariamente
nublado
particular
partidos
pasión
pasta
pide
pintó
plaza
preparada
prote@@
proteger@@
puestos
puro
recibí
rojos
rá
sac@@
salga
salud@@
segu@@
seguía
sentarse
senté
separ@@
sientas
sufrir
tec@@
tercera
tijeras
tinto
toki
tomar@@
trataba
tránsito
usualmente
vel@@
via
virus
yó
zoo
én
1@@
3@@
Bus@@
Busca
California
Cambi@@
Déj@@
Escucha
Google
Haga
Haría
Llegamos
Mo@@
Z@@
abandonada
abraz@@
acondicionado
advirtió
aguant@@
aliz@@
altas
aparcar
aprend@@
arles
arruin@@
ases
asientos
aula
averigu@@
bienvenida
bre@@
bruja
cancelar
cial
cigarrillo
cios
comprando
computadoras
conejos
constantemente
contexto
controlar
culpar
dejaste
demasiadas
derrota
desaparecido
desat@@
desearía
despedir@@
deuda
dieciocho
ecen
encontrarlo
encuentras
escu@@
escuché
eses
estanque
fe@@
febrero
franceses
g
gigante
grab@@
gues
hebreo
hilo
honestidad
horno
illas
increíblemente
insulto
interesada
interesantes
jugó
juntas
jó
ka
laron
lastimó
leerlo
lia
liber@@
lí@@
mensajes
moscas
mostraré
máquinas
noviembre
obtuvo
ocup@@
oigo
olvida
orgullosos
ovejas
pacientes
pasos
pedazo
pierdas
pista
plan@@
po
preciosa
prima
protección
publi@@
pulso
registr@@
rodeado
salgas
saste
sitios
sordo
soñando
suceder
superficie
sábados
tan@@
tara
tarte
taré
templo
tigre
tirá
tom@@
trescientos
tristes
udo
universal
vari@@
velas
venganza
zaba
ármelo
éstos
únicos
15
18
18@@
Bo@@
Busco
Cállate
Deberíais
Dé@@
Eli@@
Envi@@
Hacía
Hawái
Justo
Nemesio
Pu@@
Queda
abiertas
acero
activo
admir@@
agot@@
alista
amarillas
ambulancia
americana
aparato
aprobar
arrestado
astuto
atrapó
ayudando
bailando
ballenas
barata
bra@@
cable
calent@@
camos
campos
chi
chis@@
cigarrillos
colectivo
comprendo
comúnmente
concepto
construido
corona
crecen
criti@@
desastre
despertador
dia
dirigió
eando
ejemplos
elos
enfer@@
engañado
entenderlo
erás
esconder
escuch@@
especi@@
etas
expli@@
eó
fabri@@
funeral
furioso
fáciles
gastado
idiotas
impresionado
imágenes
inocencia
intenciones
intérprete
irri@@
izquierdo
jugaba
llas
lle@@
mandó
mejorando
molestes
mostrarte
mudó
muñecas
noventa
objetivos
ocupa
opinas
pad@@
paron
pasas
pavo
pesadilla
pico
pimienta
pizarra
portátil
preguntado
presentó
progreso
propiedad
puestas
quejarse
quemó
quiénes
quí@@
ratas
recha@@
ricas
saliera
salvajes
seriamente
sexual
sia
siguiendo
tabaco
tardes
tico
tida
tiendo
tismo
tomes
tosa
tradujo
visité
volvería
vuelven
álbum
ético
40
Actualmente
Cree
Date
Do@@
Día
Entiendes
Esperaba
Harvard
Hicimos
Muéstrame
Obviamente
Pregun@@
Sabés
Segu@@
Ten@@
Vosotras
Vámonos
ablemente
acordeón
acusó
adap@@
adolescentes
adorable
alemana
alemanes
alquiler
asegur@@
asteis
autoridad
be
brasileño
cambian
capacidades
centr@@
cheque
ché
cir
comete
compraron
comprarse
compraré
confor@@
conozca
conseguido
considerar
consul@@
convi@@
cortinas
costumbres
cristal
cuales
damas
defensa
delgado
demos
dibujar
diversión
dud@@
ema
engañó
ense
enter@@
err@@
escribo
espaldas
estaciones
estre@@
estudias
estúpidas
evidencia
fracasado
fumo
gano
gastar
ge@@
gida
gustará
hazlo
hel@@
hundió
hábitos
ignoró
imit@@
inclinó
involucrado
iz@@
joyas
ko@@
lanzó
lla
llevarse
maneras
manten@@
mel@@
menores
metido
miércoles
molest@@
médica
mí@@
observ@@
observando
odiaba
olvid@@
oírte
parcial
perman@@
permitió
pides
piense
pintor
pla@@
plazo
plátanos
ponerlo
precioso
principalmente
probó
queráis
repe@@
rock
romper@@
salen
seda
sem@@
semáforo
sentimiento
serie
servicios
stica
subido
superior
tarla
tese
tiendas
tomará
tono
toro
tuvieras
tó@@
vegetales
vehículo
vencido
veremos
viol@@
xi@@
zo@@
ése
ísima
Ad@@
Adiós
Ca@@
Compramos
Déjalo
Dígame
Fr@@
Fuera
Muy
Na@@
Necesita
Nuestras
Pásame
Trat@@
Usa
W@@
Y@@
abras
aconse@@
adecuada
agre@@
anteojos
apesta
aprendí
aros
arrepen@@
artículos
atentamente
atractivo
atrap@@
atravesó
ban
bañera
bebés
borr@@
búsqueda
cadas
campana
castigo
cazar
ceder
cocinera
competencia
condu@@
confuso
consi@@
contestó
costará
cuantos
cuchara
células
decírselo
diablos
discutiendo
distinta
divertida
don
dormida
duelen
duermen
edu@@
emocionado
enfadó
enme
entre@@
entrenador
esca@@
escándalo
esperamos
estatua
exceso
existir
expres@@
farmacia
fatal
felici@@
fl@@
galo
gir@@
gra@@
grado
guen
hadas
hermosos
hin@@
hormigas
huelga
huesos
impor@@
infeliz
ingleses
intereses
interpre@@
jan
lea
legal
lido
llegara
mandar
mani@@
maron
mento
mezcla
mil@@
nacido
nieto
nube
picante
pienses
plátano
prefer@@
prendió
quebrado
rama
rehusó
retras@@
revi@@
rán
sar
semillas
septiembre
sienten
sorprend@@
sueco
sueles
suje@@
sujeto
suponía
tenedor
tivamente
tocaba
toman
tratamiento
trates
tristeza
tumba
uniforme
veas
vecina
vendedor
veneno
virtud
Ángeles
ámonos
áticos
ólogo
ón@@
ór@@
300
Ambas
Ayud@@
Beethoven
Cam@@
Ch@@
Condu@@
Corrí
Dijiste
Encontr@@
Gobierno
Hacer
Islam
Limpi@@
Mantente
Perdone
Planeo
Salió
Salí
Shakespeare
So@@
Son@@
Suena
Veamos
Venid
Yu@@
Yumi
abra
agudo
alfil
almor@@
anc@@
ani@@
apli@@
apur@@
arran@@
arreg@@
arreglar@@
arrogante
arru@@
atmósfera
avergon@@
ballena
bil@@
cabe@@
cafetería
casaron
casé
cepillo
cionó
comenzado
comprarme
conclusión
conden@@
confesó
correctas
corri@@
crece
creciendo
cruzó
cuestan
cumplido
dañ@@
daños
desconocido
descu@@
despedir
deudas
devolver
dez
diciembre
dieciséis
difun@@
dr@@
eg@@
elas
empiezan
encantado
enseñando
entorno
erías
escribir@@
explicarlo
fer@@
fina
firme
fueran
funcionan
gación
giendo
gradu@@
grafía
gritando
heridos
impresionante
incorrecto
inspi@@
kilos
lad@@
lata
lavadora
libr@@
ligero
lin@@
llamaron
llegan
llenos
llevaron
lobos
marco
maíz
milla
mina
mos@@
mosquitos
movi@@
nado
nave
operación
oportunidades
organización
paliza
papeles
partici@@
pausa
perezoso
peón
podían
policías
preferida
preguntarte
prestar@@
prestó
pública
quizás
ramas
reales
respetar
responde
retor@@
roca
rompe
ros@@
ruinas
salsa
sellos
selo
star@@
tazas
tem@@
ticos
tirar
tomates
tuviste
tuyos
típico
viaja
vine
visi@@
11
14
Alicia
Aprende
Asumo
Austria
Comi@@
Conocí
Entr@@
Eran
Escocia
Escri@@
Estudi@@
Hago
Hiciste
I
Israel
Levant@@
Lincoln
Llevaba
Llovió
Llueve
Lávate
Mayuko
Olvi@@
Pase
Pens@@
Prueba
Regres@@
Sur
Tomasa
Tome
Tr@@
Trae
Vuelvo
aclar@@
actúa
adoras
ahorrando
ahorros
alimentar
alizado
ambi@@
amor@@
ansioso
anu@@
apla@@
arlas
audiencia
aventura
ayudaré
ayudé
beneficios
biología
bir@@
bomberos
cabe
caminaba
casarte
ciega
cimos
combustible
comenz@@
computadores
confir@@
consta
consu@@
continuó
contratar
ct@@
cuentos
cuero
cuya
daste
decidieron
dejan
demostrar
deprimido
derro@@
determin@@
diamantes
divorcio
doctores
ear@@
earon
eli@@
eléctrico
empecé
enci@@
encontrarte
enfadar
entendió
entienda
entren@@
esclavitud
escolar
estarán
fascin@@
fastidi@@
figura
fir@@
fritas
gallo
horizonte
idas
inado
incorrecta
informado
int@@
inten@@
jes
judíos
jugado
juz@@
kilo
lada
lavado
lavando
lavo
leña
libras
llamadas
llevarme
lujo
lá@@
mam@@
maneja
mariposas
mejorado
mencionó
mental
mica
mico
monstruo
mostrarme
motivos
naciones
natal
necesites
nuclear
optimista
peleando
peligrosas
perdon@@
pica
porqué
preguntar@@
prisionero
privada
prohi@@
prometo
prácticamente
pudieron
pálido
pó
pó@@
quedarnos
quejando
quieto
recibo
repetir
retir@@
revisar
ron@@
ruedas
rí@@
sacerdote
saludó
sana
servi@@
sigo
soledad
solucionar
str@@
subiendo
sufre
sugirió
sándwiches
timos
tomaron
trabajas
trá@@
té@@
usuario
vecindario
venía
villa
víctimas
áticas
ír@@
“
”
Barcelona
Camin@@
Continu@@
Depende
Discu@@
Emily
Enten@@
Entra
Estaremos
Her@@
Imagino
Intentó
Jones
Judy
Maria
Meg
Mennad
Picasso
Qui@@
Quí@@
Reino
Santa
Taninna
Ti@@
Ven@@
Washington
abrazo
adolescente
ahor@@
aldea
aliment@@
alimento
alizar
ancho
aos
auténtico
ayudes
beben
bebidas
bolsillos
borrar
camina
camisas
captur@@
carbón
cargar
castigado
ceremonia
cieron
ciervo
cir@@
cogido
comer@@
comieron
comport@@
condujo
consultar
crecer
creí
crítica
cuidadosamente
curar
código
dados
detalle
disfruta
distinto
dolores
dominar
durar
eligió
enfrente
entar
entregar
escuelas
esfor@@
españoles
especiales
especies
estantería
estemos
evolución
excusas
exist@@
faltan
fascinante
fica
ficación
frutos
funcionó
gamos
garon
holandés
honesta
hueso
imaginé
impli@@
inclu@@
inevitable
ingeniero
injusto
inst@@
interro@@
irlo
italiana
judío
lej@@
leyenda
listas
liz@@
llames
llegando
lloraba
lon@@
líquido
mac@@
malentendido
mantenerse
marzo
mataste
mezcl@@
mul@@
máscara
nas
oc@@
olla
oírlo
parecían
parti@@
patinar
pedazos
petición
pir@@
planea
pondré
ponerle
positivo
postura
previsto
principales
quedará
regularmente
renunci@@
respeta
revolución
rollo
rías
sabios
sali@@
seria
setenta
sigues
siguieron
sivo
sonríe
stado
suficientes
sustitu@@
suyos
taban
tapa
tasa
tera
terminé
terror
timbre
tirlo
traicion@@
tro
turas
vehículos
verbo
vest@@
vestida
video
voluntario
vueltas
zco
ándote
átomos
ños
$
13
16@@
24
Al-Sayib
Apuesto
Baja
Conoce
Cru@@
Deben
Deje
Enséñame
Escribí
Gan@@
Go
Halloween
José
Kobe
Llevamos
Llevas
No@@
Nuevo
Quítate
Segunda
Siéntate
Thomas
Tómate
Unido
Viven
White
Zelanda
aceler@@
aceptado
agosto
agrad@@
agreg@@
arries@@
arrojó
asustó
atra@@
aumentando
bl@@
brilla
bufanda
cans@@
casillas
celebr@@
ces@@
ch
ciertas
ciona
claridad
comemos
comprend@@
comía
consegu@@
constante
conten@@
continu@@
conté
crecido
creerlo
crudo
ctor
cumple
cálido
cí@@
dejaría
delito
derram@@
desierta
diccionarios
disculpa
dora
económico
ejecu@@
encontraba
entregó
equipos
escap@@
esclavo
esclavos
estaremos
estricto
eto
excepción
explo@@
extrañ@@
ey
fa
fiel
finales
fingir
fol@@
formulario
gen
generación
gol
got@@
gota
grasa
griega
grifo
huellas
huir
independencia
influ@@
instrumento
inver@@
jersey
ki
ladra
lament@@
llámame
logr@@
límite
magia
mamíferos
mero
mezquita
mientas
molestar
moral
má@@
negar
nerviosa
ocupar
ola
ología
pasarme
pe
perdimos
permanente
pida
pilas
planeado
preocupados
primeras
pá@@
quejarte
quinto
quizá
rana
redu@@
regrese
relojes
rendi@@
represent@@
representa
reservar
reun@@
reírse
robando
ríos
sección
separado
señales
simpático
sufrimiento
suicidarse
tamente
tifón
truco
términos
unidad
usas
valla
voces
volviera
vía
vó
w@@
Últimamente
ín@@
Acab@@
Adivina
Asumí
Atenas
B
Baj@@
Colombia
Confío
Cookie
Dec@@
Dentro
Deseo
Dormí
Dr.
Er@@
Espere
Existe
Falta
Gri@@
Hablando
Irán
Jugamos
Leer
Lucy
Miré
Mucho
Pe@@
Pá@@
Qued@@
Ri@@
Siga
Sigues
Sí@@
Viaj@@
aborto
abrazó
acostado
acostar
actos
actualmente
adonde
adoptar
afi@@
afilado
alcance
alérgica
amamos
amenaz@@
ami@@
apaga
aprob@@
aprovechar
apuesto
apuntó
aquél
arrastr@@
atas
ato
atrapar
atrasado
av@@
avan@@
avis@@
ayudan
añadi@@
bicicletas
bol@@
cachorro
caciones
camarero
canal
candidato
cau@@
caza
celebra
cer
cercanos
charlar
chocó
cina
cirugía
complejo
compone
consigue
contac@@
contarle
contra@@
convertirme
convierte
copi@@
coro
crecí
cristiano
crí@@
cuantas
cuentes
cuerpos
culpar@@
cámaras
debate
decidí
decor@@
demand@@
demostr@@
deprisa
descubrimiento
desmay@@
dida
dir@@
distintos
eces
echa
echar@@
enamorados
encantaba
enseñanza
enterrado
enviado
estable@@
estacionar
estante
estufa
europeos
exterior
falsas
flecha
fran@@
fruto
gallinas
gata
giró
gravedad
griegos
grupos
habitantes
hall@@
herir
hospe@@
humil@@
ide@@
igas
industria
ines
infl@@
ingredientes
jer@@
lab@@
leas
ligera
llamamos
llamarte
llegarás
llegas
llevaban
lío
macho
maquillaje
mascotas
medias
medicamentos
medidas
mejor@@
memorizar
miraron
miré
nave@@
navegar
necesite
niega
norma
novelista
obede@@
olas
ordeñar
pasaje
patria
pedo
peores
perra
pesadillas
poderoso
preguntando
pronuncia
propor@@
provocó
pró@@
pudiste
quejó
rad
rastro
recogió
reempla@@
resi@@
reírme
rob@@
rás
sabia
seguramente
sentamos
sentaron
sobrino
sonando
ste@@
stó
suel@@
suelto
temen
temer
temor
tense
terminará
terremotos
tetera
tica
til
titu@@
tonterías
trampas
triunfar
tropas
trozos
tón
variedad
veloz
viajó
videojuegos
vigil@@
visitas
vocabulario
voló
vuela
zación
zcan
,@@
90
9@@
ADN
Abandon@@
Acaba
Alex
Ayú@@
Añ@@
Bebe
Bebo
Bu@@
Busqué
C
Cal@@
Cant@@
Cataluña
Col@@
Corán
Dor@@
Enseñ@@
Estuvimos
Explí@@
Extraño
Hokkaido
Juguemos
Mor@@
Moscú
Pedí
Permítame
Podríamos
Polonia
Río
Se@@
Ser@@
Teníamos
Tomamos
Ver@@
Vives
Volvió
acompañó
acostumbrados
acróbata
adivin@@
agente
aju@@
alización
aplica
aprobado
aqu@@
ardillas
argumento
ari@@
arreglarlo
artificiales
asist@@
asistencia
asu@@
atasco
ateo
ativo
ay@@
azar
aña
b
bajando
barca
basa
bombero
brin@@
británicos
buscas
buscó
cadáver
calcular
cambiando
caminó
carnet
casco
caste
cat@@
causar
celebrar
cidad
cionar
civilización
cobr@@
coincidencia
comenzaron
comercio
confes@@
conocidos
contar@@
contaré
contrat@@
cristianos
cucarachas
cuchillos
cultural
cursos
darnos
defender
dejarlo
der
describir
devolver@@
diseño
disminu@@
disparo
dist@@
divorci@@
docena
dominio
dormidos
eb@@
edades
emociones
enamor@@
encuentre
eno@@
enos
enseñaré
enterr@@
ep@@
erta
esperes
esperábamos
estuvieras
euskera
exitoso
explicar@@
explor@@
extra@@
falle@@
fijamente
flu@@
fracasó
fresas
fríos
físico
gase
gloria
goma
guarda
he@@
identidad
idi@@
impacto
inclin@@
infec@@
insecto
inusual
islam
juegues
leen
lema
llevamos
luchando
maletas
manga
marcado
mermelada
mis@@
multa
murciélagos
métodos
nacionalidad
ne
niveles
one
paraíso
pata
pato
pedir@@
pensarlo
peras
periodo
permit@@
pilló
piña
podremos
preguntes
preocupación
preocuparte
prestas
pretendía
prevenir
principiantes
probarlo
programas
prometido
pronunci@@
quebr@@
querrías
quisi@@
químico
recto
recuerdas
resolvió
respiración
rito
rol
rumores
rusa
récord
ró
sabrá
salgo
same
sanguíneo
sar@@
satisfechos
sen
sencillamente
sentarte
sentirse
siga
signifi@@
sirven
soleado
solían
sucedido
sugerencia
supieras
tarjetas
tel@@
telefónica
test
tires
tocado
tre@@
turista
tímida
us
van@@
visitarme
vuestras
yo@@
zar@@
Abr@@
Alcan@@
Bail@@
Chile
Compraste
Devuélveme
Empieza
Escriba
Estará
Francisco
Hablemos
Hazme
Hi@@
Iba
Júpiter
Lea
Levanta
Lisa
Pag@@
Pocos
Ponga
Robert
Rom@@
Ru@@
Saca
Tanaka
Termin@@
Vendré
Vienes
abrí
absor@@
aburri@@
acaban
ace@@
acompañado
acordar
adu@@
aficionado
aguar@@
ais@@
alfab@@
alismo
alu@@
ancia
arco
arquitectura
arrodill@@
arruinó
atraves@@
audi@@
aument@@
aviso
ayudarlo
bajas
bajos
balde
bat@@
besado
billetes
bloque@@
borrachos
británico
burro
buzón
cam@@
cana
cancelado
cazador
celos
central
cep@@
cera
cesta
ciales
coleccionar
compuesto
conocer@@
conociste
conseguiste
consist@@
contando
contarte
contenido
cortado
creemos
cruce
cuernos
cumplió
cómplice
deb@@
declaró
dedicó
def@@
dejarte
dejen
demonio
desagradable
desarroll@@
descans@@
descripción
dese@@
despedida
dici@@
diosa
disculparme
divirtiendo
dol@@
dormía
droga
duras
dí
echarle
económica
elementos
elimin@@
encias
enda
enlace
enseñado
entré
envenen@@
eren
escoba
esperan
esperaré
estadio
estudian
etos
evidente
experiencias
expertos
explotó
extendió
extrañar
fan@@
festival
fum@@
funcion@@
funcionará
gados
galaxia
ganando
garse
gener@@
gio
gobern@@
grama
grito
h
hablarle
hacían
harta
hirviendo
hombros
homicidio
hur@@
há@@
húmedo
ill@@
incendios
ine@@
inmigrantes
ino@@
interrumpi@@
inundación
involucr@@
islas
jamón
jugamos
lando
lares
lenta
llevara
llovido
llovió
logros
mad@@
mali@@
mareado
matarme
melodía
millonario
modifi@@
mojada
mona
muchachas
muer@@
nica
nido
nombr@@
ocasion@@
ocu@@
ofrece
oreja
origin@@
paisaje
panadería
paral@@
parec@@
pasaste
pasteles
pastor
payaso
pedimos
pegado
pequeñ@@
perdida
perdonar
permanece
permaneció
piratas
pis@@
podías
poten@@
preferiría
preocuparme
preso
prest@@
prestarme
preten@@
primi@@
principiante
prisioneros
produjo
program@@
pronunciación
pronóstico
préstamo
pusimos
pánico
quil@@
quita
rabia
rayos
reconoce
redacción
regañ@@
repentinamente
reporte
respetan
reunió
rompi@@
romántico
rse
rubio
sentar
signo
siguientes
sobrevivió
software
staste
stes
stos
suavemente
suceda
sudor
sábanas
tad
taxista
tiera
toco
tortuga
tradición
traducido
traicionó
trataron
tumbado
técnica
vaste
vendido
verdaderos
verlos
verse
vió
vot@@
vuelvo
yu@@
zapato
Éramos
árbitro
ído
ónico
últimas
+
17
Ab@@
Acepto
Ali@@
Amar
Aprend@@
Cocin@@
Doy
EE.UU.
Empecemos
Entré
Esperé
Estado
Estudia
Generalmente
Hungría
Im@@
Jo@@
Juego
Llen@@
Marika
Men@@
Mé@@
Pacífico
Papa
Plan@@
Prome@@
Prometo
Sa@@
Soñé
Tenías
Toco
Tó@@
Varsovia
Vivir
Vladimir
abismo
absurda
abu@@
aca@@
acas
acceder
acepta
aceptable
acné
acostarme
acostumbrarse
acti@@
acuerda
adera
admite
afecta
afir@@
ais
alcan@@
amantes
andaba
ang@@
anía
aplicación
apropiado
aprove@@
artistas
aréis
aspectos
asqueroso
atento
aterrizó
atravesar
atreves
atro@@
aun
autobuses
ayudarles
ayudaros
ayudas
ayúdame
bebí
bigote
bolígrafos
bá@@
caballeros
came
campaña
campeón
carbono
cate
cción
celosa
chor@@
cli@@
colega
colegas
complicada
compositor
compraría
compre
comunes
confíes
conocimientos
contador
conveniente
corté
cortés
criado
criaturas
cti@@
cuáles
cálida
dale
darán
dedor
dejarme
desear
desesper@@
destruir
detective
diamante
diecisiete
dinosaurios
direcciones
disculp@@
distintas
dito
dores
dro@@
ele
emi@@
enamoré
encontrarme
encuentres
enfermos
enseñé
equivoco
erles
escuchaste
esencial
espi@@
esquí
estu@@
eterna
exclu@@
ez
ez@@
fac@@
fiar
firmó
frías
fuentes
girar
guerras
harían
haz@@
herramienta
hicieran
hola
huelen
ideal
infinito
intenté
intercambio
interesan
invención
investigar
invitaron
inó
italianos
jefa
jubil@@
juegas
ladrando
lana
late
leía
lingüística
madrugada
madura
mandé
manta
mejillas
men
meter@@
miserable
mp@@
nace
necesaria
necesidades
nieva
niñez
obligación
obsequio
onda
ordenar
orquesta
oye
palacio
pant@@
pare@@
parejas
pañ@@
pecado
pedi@@
pelos
personaje
pintado
pisos
plane@@
ple@@
pli@@
plumas
políticas
porte
pose@@
posibilidades
posiciones
post@@
precipit@@
prohíbe
quema
quinientos
rado
ranas
rar@@
rayo
razon@@
raíz
recuperó
resfri@@
revel@@
riesgos
rogó
romanos
rumbo
rusos
rían
sacrificio
saldrá
salimos
salo
saludos
secuestr@@
secó
serlo
servir
ses
solitario
star
ster
sticos
sufrió
sushi
sí@@
temos
tensión
testigos
tible
tiburón
tirado
tirte
tobillo
tomarme
tomarte
tontos
tost@@
tradicional
traducida
transporte
tru@@
término
túnel
ul@@
vapor
vendrán
vengo
veros
verá
veterinario
violento
visa
voleibol
volver@@
volvieron
zanja
ác@@
ática
úa
0@@
Anda
Apa@@
Aquellos
Aun
Bebí
Bélgica
Ciudad
Comer
Comparto
Compra
Consider@@
Constru@@
Diez
Dí@@
E
Em@@
Enciende
Encontramos
Entró
Finlandia
Gi@@
Ha@@
Iremos
Juega
Llamé
Lo@@
Mark
Pres@@
Rem@@
Ren@@
Sencillamente
Temo
Terminé
Tomas
Tomó
Universidad
abi@@
abunda
abundan
acabar@@
aceptaría
acerques
aci@@
adero
agradecerte
ai@@
algodón
aliviado
alo@@
amables
animó
anot@@
ans@@
anticu@@
apagado
apoyó
aprendi@@
arrancó
aseguro
aspirina
ata@@
ati@@
atre@@
atribu@@
aver@@
ayudarla
añas
barra
bellas
bio
bosques
cables
cabras
calendario
capaci@@
captura
castaño
catorce
cciones
cementerio
centímetros
coge
coleccion@@
comerse
compasión
composición
comprende
comprensión
conce@@
concentrarme
conexión
conociera
conserv@@
continuación
contrató
contribuir
cortina
cortos
costo
cristiana
cría
críticas
crítico
cuer@@
cueste
cuidó
culturas
cén@@
dar@@
declar@@
delfines
dería
desa@@
desprecio
dete
devolvió
doloroso
dolía
ele@@
enca@@
encant@@
enfada
engor@@
enojar
enojó
entres
equivocados
ero@@
erto
erán
escala
escasez
escriba
escriben
española
esposas
esqu@@
esqui@@
estampillas
estúpidos
evolu@@
exacta
exhausto
fantástico
favoritos
feria
financi@@
fle@@
fluido
fluye
fon@@
fre@@
fren@@
fuegos
fur@@
generoso
globo
graci@@
gravemente
graves
grites
gua
guardó
higos
ignorar
imbécil
impedir
importaba
imán
insistió
instrumentos
intentes
inva@@
investigando
istas
jarra
jungla
jurado
laboratorio
lastimar
leones
limpiando
lindos
lleguemos
llevando
llevé
madres
maestros
marineros
mataron
matarán
materiales
medalla
mediante
memori@@
mentirosa
mes@@
mini@@
miras
molécula
mordido
muerde
narices
navidad
noble
nor@@
notó
nutri@@
obser@@
odias
ofen@@
olvidar@@
palomas
panda
parientes
pasara
pasaría
pensás
perderás
perdiste
perten@@
pijama
pint@@
plena
pondrá
postal
precisión
predecir
prend@@
prensa
preparados
pres@@
presté
producen
propina
prove@@
práctico
pueblos
pár@@
pé@@
quen
quieran
ran@@
redonda
refres@@
reino
renta
resaca
resca@@
respondido
rodillas
romp@@
ruego
sado
salía
seguir@@
sentimos
sincera
sir@@
sistemas
sito
sobra
soli@@
soñado
sten
sucios
sumamente
sumer@@
supi@@
síntomas
taremos
telefon@@
terriblemente
terribles
tería
tiría
tiste
tocar@@
tomaré
torneo
tortugas
trabajamos
transi@@
utilidad
utiliz@@
valle
vendiendo
volverás
vuelan
zadas
zón
É@@
águila
áneo
ánimo
árselo
éstas
000
22
Alguno
Alí
Apla@@
Apo@@
Cen@@
Cha@@
Cinco
Comimos
Consi@@
Corre
David
Dejá
Descan@@
Duerme
Empe@@
Eras
Estar
Guár@@
Hac@@
Hicieron
Iglesia
Jorge
Levántate
Llamaré
Manten@@
Monte
Nara
Ocurrió
Padre
Pen@@
Pin@@
Pé@@
Rara
Sab@@
Seguramente
Tarde
Trump
Trá@@
Visi@@
YouTube
abeja
abriendo
aburre
acab@@
act@@
acusaron
afil@@
agr@@
agradecimiento
agradeció
agregar
alcanzado
alejado
alistas
almorzando
alojamiento
altar
alzó
aniversario
antibióticos
apr@@
archivos
argumentos
arque@@
asignatura
asombroso
astronauta
atender
atorio
atrapados
atras@@
aventuras
ayú@@
bailarín
balón
bebas
bios
bon@@
callar
callar@@
camello
cantaba
caracteres
carece
caí
cebollas
cheques
chimenea
chup@@
cimiento
clavo
clí@@
coartada
comedor
comerme
comimos
compli@@
compro
comunista
concentr@@
conci@@
conseguí
consideraba
consideración
constitu@@
construida
construyendo
contest@@
continente
contribu@@
convencerle
corazones
creencia
cro@@
cruzando
ctiva
culpo
curioso
cuán
cólera
dada
deber@@
decente
descri@@
descuidado
desmayó
desocupado
detec@@
diariamente
diarios
diferencias
disculpó
disparar
distribu@@
divertirse
dragón
durará
dólar
ech@@
echa@@
echaré
ejercicios
eleg@@
elegante
eliminar
emborra@@
empez@@
emple@@
empresas
enseño
envidi@@
equivocas
escribiré
escuchas
espantoso
esperé
espía
estaf@@
estarías
estrecho
estro
exager@@
explica
familiares
filósofo
flojo
fortaleza
frenos
frijoles
fuga
funcionando
game
garaje
gemelo
gidos
gor@@
granjero
gustos
gón
hablemos
hambrientos
hamburguesas
heladera
helados
hered@@
herman@@
hicieras
identifi@@
indispensable
ine
ingres@@
inici@@
intrig@@
invisible
jala
jirafas
lac@@
lees
lemos
limpias
lio
llando
lucía
manchas
marcó
marrones
matando
mencion@@
merezco
mez@@
modernos
molestia
movió
musulmán
nacieron
nativa
nico
nueces
oblig@@
ocasiones
ocurrirá
oficiales
ol
oscuras
pare
ped@@
pensamos
peones
perdonado
perfume
perrito
pidas
pierda
pisó
plomo
poder@@
posponer
potencia
presentar
prestando
producir
quilla
rame
reacción
rechazar
recibir@@
recoger@@
recomendó
recu@@
relaj@@
relajado
repugnante
restaurantes
roble
rode@@
rompecabezas
rompí
saca
saco
sagrado
sartén
sequía
sexuales
siglos
signos
sillón
similares
sinceridad
sitos
soltó
some@@
sopló
sorprendente
sorprendida
sosten@@
soñ@@
suicidio
sumo
sustancia
só
talentoso
tante
tardará
tarnos
teando
tej@@
tele@@
tendrán
terminan
termine
territorio
ticas
tierras
tiré
tome
traduce
trasero
universitario
uro
usada
usu@@
utili@@
vac@@
vag@@
vaqueros
veinti@@
veinticinco
veinticuatro
verbos
zonas
Á@@
Éstos
ártelo
éndome
íes
ógicos
ópera
únicamente
16
Abra
Abrí
Admiro
Ag@@
Agradezco
Aprecio
Bretaña
Buena
Carlsen
Cas@@
Cayó
Ciertamente
Comprendo
Cont@@
Copi@@
Corri@@
Creés
Cuatro
Cuesta
Cui@@
Debiste
Desper@@
Dick
Déjeme
Encontraste
Esperaré
Estuviste
Everest
Fi@@
Guarda
Hablaré
Habría
Hijo
II
Invi@@
Jugar
Laurie
Limpia
Llegaré
Láctea
Mil
Mirá
Mué@@
Mírame
Nad@@
Ne@@
Nobel
Nu@@
Oíste
Pagué
Pón@@
Quedé
Sam
Seguimos
Serás
Sh@@
Sién@@
Ta@@
Tampoco
Tomo
Tuvieron
Volvamos
Vuestro
Vía
abogados
abundancia
acarici@@
actuando
adura
agrado
aguas
ahogó
ahorr@@
alcanza
altamente
aman@@
ambición
ano@@
ansi@@
apretó
apri@@
argelinos
asegurar
asistente
asusta
asustada
atas@@
ativa
atrae
atropellado
avergüenza
ayudamos
azo
baila
balcón
bancos
ben
bienestar
blusa
bos
burgo
buscan
cabezas
cador
cajero
calculadora
canasta
cantan
caramelo
caridad
carre@@
cartero
cenas
cerradas
chada
chado
char
ches
cicatriz
ciencias
ciertamente
cintura
cionales
circo
circu@@
cochera
coger@@
cojones
coment@@
cometa
complacer
compuesta
concierne
conmovió
conocerlo
considerada
consume
continúa
copias
cosquillas
creativo
crímenes
cuadros
cuar@@
cántaros
cía
cómodos
cú@@
dalo
debiste
decirles
desayun@@
desayuna
descubrieron
despertado
desprecia
dico
didos
diferenciar
dimi@@
direc@@
disculparse
distingu@@
divertimos
dudo
duermes
echas
ecu@@
ecía
edor
ega
ego
eles
embajador
emoción
empate
empeor@@
empeorando
empeorar
enano
encontrarse
endido
energ@@
enoj@@
ensa@@
entendi@@
entraron
entusiasmo
envié
equilibrio
escon@@
esperara
esperas
ester@@
estrictamente
estrés
estudié
estuvi@@
eti@@
ex
examin@@
existo
explicado
extraordinario
factura
faldas
falló
ficó
finés
firma
flota
formado
funcione
funciones
fundamental
furi@@
fí@@
gaba
ganos
genes
gentil
golpear
haberla
hablarlo
hablaron
hicisteis
hidrógeno
higiénico
hospitales
hoyo
huérfano
igualdad
inconsciente
infor@@
inventar
irlandés
jaque
jarrón
jengibre
jeron
ji
jornada
jugaron
juramento
lamos
latas
lecciones
leta
lidos
limit@@
llores
lé
mag@@
manda
manejo
mango
mantenido
meterse
mido
miendo
mientos
modesto
mudarse
mueras
muriera
museos
nudo
obli@@
obviamente
oculta
ocupadas
ocurren
oposición
orado
ordenado
otas
oíste
pag@@
paloma
pap@@
parecidos
pedos
pendientes
perfección
permiten
pertenecen
pesimista
pinturas
pirata
pistas
plac@@
poderosa
porta
prender
prepara
presentación
presupuesto
proces@@
prof@@
profundidad
provecho
puñetazo
póquer
quedarás
quemando
quetas
rata
realizó
rechazado
reconocido
reconocí
recordó
recuperar
registradora
renunció
requieren
resultar
retiró
reveló
ria
rincón
rlo
rocas
sabría
sabíamos
sacrifi@@
salvado
sam@@
sangr@@
sangrando
saxofón
seamos
sembr@@
semestre
sepan
sesión
solares
soltera
sorda
stra
subestim@@
sú@@
taxis
tear
teléfonos
temblar
terminamos
terreno
terroristas
textos
tigres
tilla
toler@@
tomamos
torio
tragedia
traidor
trasera
uniformes
unió
usarlo
vaci@@
vacun@@
vado
valientes
vame
varían
vec@@
vegetariano
ventas
verdura
vería
vestir
visitarnos
volverme
vuelos
ví
zarse
zorra
zu@@
Órale
ándole
ángeles
émoslo
éndole
érselo
ídas
íos
ística
ñó
/
17@@
196@@
23
3.@@
60
Acu@@
Admito
Anna
Anne
Aparentemente
Apr@@
Aprendemos
Bach
Basta
Bor@@
Cambié
Comemos
Cono@@
Creemos
Decidió
Dem@@
Diles
Estaría
Estudié
Europea
Habló
Hagámoslo
Holanda
Huele
IA
Intentaré
Intentemos
Inter@@
Irlanda
James
Joe
Johnson
Julia
Lamentablemente
Laura
Limítate
Llegaste
Luces
Mag@@
Mand@@
Michael
Miles
Necesit@@
Necesitaba
Necesitan
Nochebuena
Noel
Pocas
Podr@@
Pr@@
Pregún@@
Puso
Pídele
Respon@@
Ricardo
Salimos
Sent@@
Sinceramente
Sír@@
T
Tenga
Toca
Trabajas
Trabajé
Ucrania
Unos
Uso
Varios
Ve@@
X
X@@
abandonaron
abo@@
abrieron
abur@@
acabe
aceptaron
acordarme
actuación
adivinar
administr@@
admiración
agri@@
aguja
ahorita
alerta
alturas
amargo
amarr@@
amaré
amenazó
amientos
andas
antemano
apasion@@
apañ@@
api@@
aplau@@
aplicar
aprobación
armado
arr@@
arregló
aumentado
aumentar
autor@@
bancaria
barcos
basada
bastón
bes
blo@@
bodas
borró
buscado
búho
caminos
cancel@@
canceló
canos
capa
carné
casamos
case
cast@@
catedral
causado
cayeron
cenando
cepillar@@
cerá
chan
charon
chen
ciera
cimientos
cionados
cocodrilo
cog@@
cogí
cole@@
coli@@
color@@
comienzan
compramos
conclu@@
confirmar
conflicto
congela
congelado
conocerle
conser@@
consumo
contactar
contaste
convertirá
corregir
creación
cristianismo
crueldad
cucaracha
cuerdas
dad@@
dam@@
danza
dejando
dejará
delfín
delgada
deli@@
deportivo
depri@@
desanim@@
descuento
deseaba
despedirse
despidieron
destruyó
diagnosticado
dirse
dirías
disi@@
disparado
dispararon
disponibles
dita
div@@
divide
débiles
e-mail
ebrio
eció
eco
eficaz
ei@@
embar@@
empu@@
encendido
ende
enden
endes
endió
enormes
entendía
entiendas
env@@
enví@@
escape
escuchaba
escucharlo
esencia
espe@@
estable
estim@@
estr@@
etiqueta
explicár@@
expliqué
extinción
extrañas
extremo
favoritas
fica@@
fico
fideos
formación
fortal@@
fronteras
futbolista
gadas
ganador
ganará
gastó
grita
guardado
gueme
hablara
hablarte
harán
hechi@@
herencia
hirió
hon@@
hormigueros
hoteles
háb@@
héroes
ides
igan
impresora
inar
individuo
inferior
inform@@
insist@@
insoportable
interes@@
interpretó
interrumpió
inútiles
jam@@
japonesas
ji@@
jugu@@
juro
justa
justi@@
ki@@
lad
lan
laste
letas
levantas
liado
lig@@
limitado
limpió
lindas
liter@@
llegar@@
llegaría
llé@@
logramos
loro
mamífero
mancha
mangas
marcar
mariscos
mej@@
mela
metí
micro@@
mienten
milagros
miro
modales
moder@@
mojados
monstruos
mortal
mot@@
motiv@@
mula
muñeco
nacer
neg@@
neumático
nevera
nicas
observar
olvi@@
olvidéis
organismo
organiz@@
orias
participó
pecados
pedirme
pega
pelotas
pera
perfil
peri@@
perju@@
perlas
personajes
personales
período
pesos
pica@@
picos
pinos
pintando
plenamente
plá@@
podrán
podíamos
ponía
posibles
postu@@
precisamente
prefieren
pregun@@
preguntaron
preocupar@@
presu@@
proteínas
pulsera
pusiera
pí@@
queríamos
racista
rap@@
rar
raste
recibe
recomend@@
redes
refugio
regañó
relajarme
rendirse
rep@@
resistir
responder@@
rest@@
retrasado
retrasó
retrato
reza
ridícula
rindas
robot
rotos
rubia
ruina
rutina
ríen
segui@@
selva
sentidos
señal@@
sim@@
sirvió
sist@@
solici@@
solíamos
sor
sordos
sorprendería
sta@@
sube
sucediendo
sucias
sudando
supersti@@
supongo
suspen@@
suspiró
tab@@
taría
temperaturas
temporal
temía
tendencia
tercio
terminarlo
tesis
tienden
tillas
tiza
torno
traicionado
traiga
transfor@@
trate
tribunal
um@@
unidos
uses
usos
utilizado
utilizan
vacías
vada
vali@@
var
veamos
vegetarianos
vejez
vendrás
vengan
vergonzoso
vestidos
vestirse
vigilando
vis@@
vivían
volcán
volveremos
vé
yas
zaremos
érmelo
ésa
éticas
éticos
íste
óni@@
0
2013
20@@
26
99
Abri@@
Acor@@
Antonio
Aprendo
Año
Ba@@
Bienvenida
Bruno
C.
Central
Cerr@@
Comúnmente
Continúa
Danos
Decir
Decían
Descubri@@
Disculpa
El@@
Empezamos
Estudiar
Feli@@
Hablaremos
Hable
Han@@
Id
Jiro
Jun@@
Juro
Lav@@
Llame
Llegaron
Mac
Mari@@
Marina
Merece
Millie
Mire
Mán@@
Noruega
Pasa
Pel@@
Pensamos
Poco
Prepárate
Puse
Quedate
Rec@@
Recibiste
Recientemente
Relájate
Siguió
Sugiero
Tend@@
Trabajamos
Trato
Vend@@
Viva
Viví
Vuestra
abrirá
abro@@
abstracto
aburridos
aburrimiento
acompañar
acostó
activa
actuó
acudir
ades
adicción
adquirir
agenda
agit@@
alimenta
alla
amarillos
ancias
anes
anuncio
análisis
apariencias
apel@@
apoya
apreci@@
apropiada
aproxim@@
apuntes
aquellas
aroma
arquitecto
arrancar
arreglado
arruinar
ascen@@
ases@@
asintió
asma
asom@@
astronomía
atardecer
ates
ator@@
automático
ayudarlos
ayudaron
ayudo
bailarina
banca
barro
beb@@
bebi@@
benefici@@
bienes
bilidad
bilingües
bondad
boste@@
bres
brill@@
brillaba
bru@@
burlar@@
busc@@
cabilio
cal
cambiarme
cambiaron
cambiará
camp@@
campeonato
cano
cantantes
carreteras
carte
cartón
cavar
cela
cenó
cerradura
cervezas
chamos
charlando
ciertos
cionada
cioso
cirujano
ciste
cobardes
cohete
cole
combin@@
comenzando
comerci@@
cometas
comparte
completar
comunismo
conducen
conductores
conduzco
confiaba
confusión
conocerla
conqui@@
consol@@
consumir
contaminación
contentos
controver@@
corredor
correspon@@
corresponde
corro
corría
costoso
criar
cuartos
cubri@@
cuchar@@
cuidará
curi@@
cuántica
daban
darles
deba@@
debilidad
dec@@
decepción
decidiste
decimos
declaración
dedica
densa
depor@@
derramó
desafi@@
desapare@@
descen@@
desempleo
desesperado
desnu@@
despedirme
despegó
despier@@
destruido
dialecto
dicas
digital
dijisteis
dirigido
disfrazó
dispuestos
distin@@
distraído
divirtió
domicilio
dondequiera
dudar
dupli@@
dó@@
ean
eas
ecerá
educada
efec@@
ejerci@@
electrónicos
emo@@
empe@@
empiece
encendida
ende@@
enfermero
enseñas
entren
entrenamiento
entretenido
equi@@
equivoca
eremos
escapar@@
escondidas
escritos
escuches
estad@@
estir@@
estri@@
estupenda
exige
extin@@
fati@@
felizmente
feminista
festi@@
fiable
filo@@
fingía
forzado
foto@@
freno
fumando
galaxias
ganaron
gará
gases
gatillo
gesto
gorra
graduó
gráfico
gé@@
gü@@
hablaste
hablen
hamburguesa
haríamos
hierbas
hockey
hormiguero
huracán
hábil
id
iles
ilust@@
imitar
impul@@
incen@@
incluyendo
inesperado
ingreso
inidad
intenso
internacionales
interpretar
investig@@
irías
jugaban
jur@@
lastimé
leg@@
levantarte
leíste
lidiar
limpiado
literalmente
llamarle
logra
logré
lunas
mago
maletero
manipul@@
mant@@
marse
mataré
meterme
micas
mid@@
militar
minerales
molestando
montó
monumento
motocicleta
mínima
nacionales
negoci@@
nes
nevará
niego
nietos
niñita
notado
novato
nove@@
novi@@
obje@@
obligaron
obligó
obsesionado
occidental
ocurriendo
ofrec@@
oiga
olfato
olviden
ordenada
ordeñ@@
oxi@@
oír@@
pala
palomitas
papa
paro
parpad@@
patada
pción
pegar
peleas
periodistas
permitir@@
permitirme
perspectiva
pic@@
pingüinos
plana
planchar
polaca
pondría
posiblemente
posteri@@
preguntarme
preocupo
presi@@
presion@@
presta
primió
probé
procesador
progres@@
prolon@@
proviene
provocar
pudiéramos
pusiste
pésimo
quear
quedas
querida
químicos
ramo
raqueta
raz@@
rebel@@
reciente
recog@@
recomiendo
recompensa
reconocimiento
reconozco
recurrir
refieres
refle@@
regar
regi@@
religiosa
repentina
reprodu@@
resbal@@
reside
respi@@
restos
resumen
rindió
rodeos
romántica
sabrás
salto
salvaje
santo
sat@@
satisfacer
satélite
secreta
seguirá
seguiré
selección
separados
significa@@
sil@@
sober@@
sobor@@
sobrevivi@@
sobrina
sonda
sonidos
sopl@@
sorabo
sospe@@
sospecha
stió
suegra
suenan
suene
sufriendo
tables
tarle
tatuaje
tea
tenerte
tenista
tern@@
teó
tin@@
tol@@
tomarse
tontería
tores
tortur@@
toser
trabajadora
traen
trag@@
tram@@
triunf@@
trucos
tá@@
usaba
usuarios
viajando
viniendo
vinieras
vir@@
visible
vital
voto
yac@@
zarte
zará
ándonos
ángulo
ída
ógica
ónicas
19
200
2010
54
Ac@@
Ajedrez
Ale@@
Am@@
Arreg@@
Atlántico
Ben
Ber@@
Brian
Camina
Caminamos
Chopin
Chris
Comen@@
Comes
Compar@@
Conocés
Conseguí
Cuba
Cuén@@
Decid@@
Desconozco
Descu@@
Devuél@@
Dices
Donald
Dur@@
Dá@@
Echo
Einstein
Escribo
Escrí@@
Esperad
Estambul
Estarás
Estate
Estudiamos
Estudias
Evi@@
Expli@@
Filipinas
For@@
Fred
Gol@@
Habláis
Hacemos
Hong
Janeiro
Kar@@
Libertad
Marco
Marie
Mundo
Napoleón
New
Odi@@
Ori@@
Perman@@
Permíteme
Ponlo
Prepar@@
Presta
Quienquiera
Quédense
Reci@@
Rey
Roberto
Sali@@
Sed
Seré
Singapur
Solamente
Soviética
Steve
Sócrates
Tar@@
Tim
Tobías
Tomaré
Tomemos
Traje
Tuviste
Venecia
Vengan
Vinieron
Visité
Volví
Yokohama
abdu@@
abiertos
absorbe
aclam@@
aconsej@@
adaptarse
adelant@@
adlo
afer@@
afueras
agarr@@
agujeros
ah
albor@@
alizó
almas
alter@@
alternativas
ama@@
ambu@@
amelo
apagaron
apare@@
aparecer
aprendas
aprenden
arcoíris
arriesgado
aseguró
asesinados
asiáticos
aten@@
aterrador
ató
ató@@
atún
automáticamente
automóviles
autopista
autoriz@@
avances
aya
ayuden
azot@@
azu@@
baratos
barri@@
bendición
besando
bicho
bieron
bisexual
ble@@
boli@@
bombas
borra@@
brillan
bé@@
cabr@@
caen
cales
cambie
campamento
cantes
caos
capitalismo
caracter@@
cari@@
cará
caz@@
cenado
cenizas
chate
chicle
ciado
ciegos
cil@@
citas
clar@@
claras
codo
colgar
coman
compañías
compleja
compres
conclusiones
cono@@
consciencia
conservador
consola
convencer@@
cooperación
corren
crezca
criatura
criminales
crió
cuad@@
cuadrado
cubiertas
cubiertos
cuel@@
cuente
cuestion@@
cuestionario
darás
decían
desal@@
desapar@@
describe
describió
desean
desen@@
desnuda
despejado
desta@@
detal@@
determinación
devor@@
dictador
dieras
discriminación
disfrazado
disfruto
distingue
diversas
doblar
doctora
doscientos
dremos
dón
ecer
echando
eh
elige
elo@@
embaraz@@
emocionada
empezaste
empujó
encontraremos
endida
endí
enfermó
engaño
enseñan
entendemos
entiendan
entó
escapado
escondite
escribi@@
espinas
estableció
estados
estadísticas
estando
estrope@@
estuviese
exacto
excepcional
excursión
exigió
experimentado
extr@@
filete
filtr@@
fo
formal
forman
fotógrafo
freg@@
fábricas
físicamente
ganaste
ganso
gate
gesti@@
gre@@
grueso
guay
habrían
haciéndolo
hechas
helada
hidr@@
hier@@
hil@@
iPad
incertidumbre
inf@@
inquieto
inscri@@
inspiración
intentaba
introdu@@
invitada
iste
j
jirafa
ladrar
lastimado
lejano
leve
liebre
limpios
lleg@@
logo
longitud
lágrima
mación
maldi@@
manual
mascul@@
masticar
matan
mataría
matemático
mbr@@
mear
mentes
merecía
mir
miran
misa
mojadas
montones
morado
mudo
muera
muestran
muevas
mágico
músicos
nadan
nervi@@
norte@@
noti@@
nucleares
obstáculos
ofendido
oli@@
olvidamos
olvidaste
olvido
ológico
opina
opuesto
orador
oras
ortografía
ou@@
oy@@
oyes
pariente
pastillas
pediré
pediste
pelar
peluca
pendiente
pes
picó
poetas
ponente
practi@@
practica
practicando
preciso
predi@@
predijo
premi@@
presentarte
pretende
privacidad
producido
profesión
propuso
provoca
próximos
pudi@@
pulgas
pupitre
pur@@
puño
quebró
quedaría
ram@@
raramente
rea
realista
reando
reciben
recur@@
reflexionar
religioso
reo
república
responsables
retro@@
revent@@
rezando
robots
ruidoso
ruta
sangra
sate
satisfecha
secas
secuestrado
serias
serios
servir@@
señores
simples
simpática
sita
socio
sonrieron
sopor@@
stada
stri@@
sucederá
sucedería
superficial
supiste
surgió
suscri@@
suspendido
table
tagalo
talentosa
taller
tase
telescopio
temblando
tendr@@
tenso
teo
ter
tidas
titud
tomaste
topé
trabajé
traducir@@
tran@@
tratas
tripulación
tronco
turnos
tuviéramos
ubi@@
usual
vacuna
valores
vase
vendré
viajado
viajero
visitamos
viuda
vivas
viví
volante
voluntarios
volvía
votó
vuelvan
yogur
yos
zon@@
ám@@
éndolo
éndote
éticamente
ónimo
1.@@
15@@
21
80
Acabamos
Acabas
Agrad@@
Apresúrate
Aquiles
Au@@
Ayudé
Añade
Bajos
Bebes
Big
Bro@@
Bú@@
Caminé
Claus
Cogí
Comencemos
Cometí
Compró
Corrí@@
Creéis
Cuídate
César
Darwin
Deci@@
Dejad
Den@@
Desea
Dinamarca
Dinos
Dispar@@
Doctor
Du@@
Duele
Edison
Encontrarás
Entre@@
Escribió
Espíritu
FBI
Fir@@
Go@@
Guau
Haces
Harry
Hazte
Ho@@
Hon@@
Inteligencia
Kong
Lar@@
Luis
Madre
Mar
Mer@@
Mercurio
Mir@@
Nagoya
Oigo
Or@@
Otra
Pasaron
Pekín
Perdimos
Pes@@
Pese
Pokémon
Quedaos
Quédese
Rep@@
Rob@@
Roja
Salgamos
Sean
Sigamos
Sobre@@
Sospecho
Suzuki
Sá@@
Tailandia
Tem@@
Traduce
Us@@
Val@@
Venden
Vendí
Ver
Volverá
XIX
Yahvé
Yamada
Yoko
Zamenhof
a-@@
abarro@@
abdominales
aboli@@
abolir
absoluta
acabará
aceitunas
acepto
acera
acomo@@
acostumbró
adic@@
admira
afición
aga@@
ahogando
alab@@
alb@@
alienígenas
alimentan
aliza
alquil@@
aluminio
amistoso
ampli@@
ane
anhel@@
anochecer
anormal
anteayer
anuncios
anzas
aparecieron
aprecio
aprendes
apuñaló
argentino
arrepentirás
arrepiente
arrojar
arti@@
aríamos
asta
asustados
atacado
atacar
atascado
atropelló
atómica
automovilístico
autóno@@
avance
aví@@
bajaron
barrer
bañarme
baños
beber@@
bebes
besara
bin@@
bio@@
biol@@
bledo
bolsas
británica
brus@@
bró
brújula
burló
buscaba
buscar@@
buses
bí@@
caban
cafe@@
calefacción
camas
cambiaré
cambié
caminata
capitalista
capturar
capturó
capítulo
caramelos
casamiento
cemos
cepil@@
chame
champú
chance
checo
científica
ciervos
cionalmente
cismo
climático
clásico
cocido
cocinó
coj@@
colas
columnas
combate
comerte
comestibles
comparado
competi@@
compla@@
compor@@
concer@@
conciertos
conduces
confesar
confiable
confiado
confundas
conscientes
consecuencia
construyeron
consumi@@
cooper@@
coque@@
coreana
costaba
costar
costar@@
creatividad
creerle
creerme
cruzados
cubre
cuidando
culpes
culto
cump@@
cuna
cuánta
darías
decidir@@
decirnos
decírtelo
decís
definitiva
dejaba
dela
delant@@
depen@@
depender
derre@@
desa
desarrollado
desarrollar
descan@@
deshacer
deshon@@
desliz@@
desperdici@@
despi@@
despidió
detallada
dibujando
dibujos
dibujó
dic@@
dica
dictadura
dif@@
dinosaurio
dirig@@
dirige
disfrutando
divertidas
dividir
dot@@
dragones
década
dígame
eca
echaron
edores
educa@@
elabor@@
elemento
eligieron
empeoró
emperador
empiezo
encanto
encarcel@@
encontrará
encu@@
ene
eng@@
engordado
engordar
enojo
enormemente
enseñarte
entendimiento
enterado
entrado
entrega
enzo
equivoqué
ertas
espadas
espar@@
especialidad
esperaban
establecer
estacion@@
estornu@@
estreme@@
estres@@
estudie
estuvieran
estuvimos
et
eterno
eu@@
evitarlo
examinó
excepciones
exig@@
expan@@
expectativas
explicaciones
explicarme
explicaré
explí@@
exposición
fabuloso
fallo
familiari@@
femen@@
ferrocarril
ficar
filas
financiera
flotando
fru@@
fuertemente
gador
ganara
gancia
gastar@@
gatitos
gemelas
geografía
ges
gram@@
granjeros
gro
gro@@
guardias
guitarrista
halcón
hambrienta
hayamos
hervir
histó@@
hobby
homosexual
hongos
humilde
ico@@
identificación
identificar
ignorante
impact@@
import@@
importan
inamente
inan
indiferente
individual
indí@@
ingenua
inju@@
injusta
insinu@@
insultó
intentas
interesados
intr@@
inundaciones
inventado
invité
isteis
jac@@
jada
jal@@
jera
jita
jugará
ke
ku
laciones
lagar@@
lanz@@
las@@
lavarse
lechuga
len@@
les@@
letr@@
liberó
lidad
llamen
llar
llevarlo
llevarte
lloran
lluvias
locali@@
magn@@
maletín
malvado
mandado
mandar@@
manejando
mari@@
maté
mbre
medir
mejora
mejoró
melancolía
mem@@
meme
mend@@
merec@@
meti@@
micos
microscopio
mió
moj@@
moleste
monedero
mortales
mosle
mostré
motivación
motores
muertas
multi@@
multipli@@
murciélago
musicales
mágica
músculos
nadaba
nadador
nar@@
natación
neblina
necesitábamos
negativo
nicos
nocturno
nocturnos
numerosas
observa
ocur@@
ofreci@@
onar
ore@@
organizado
oscurezca
oto
otor@@
p.m.
pación
pacífi@@
pagando
pagará
paguen
palest@@
paraba
parques
partieron
pase@@
pateó
patético
pau@@
peinado
pelu@@
pene
perd@@
perdi@@
perdonará
perdonaré
pereza
persiguiendo
persiguió
pino
pit@@
poderes
poli
pollera
pondr@@
ponemos
ponte
pop
pos
pregunt@@
prescri@@
presiones
prestaré
primas
prometida
prometiste
propietario
protest@@
provienen
psicó@@
publicado
publicidad
pulmón
quedaras
quejaba
quemos
quisieras
quitas
racismo
radio@@
rat@@
reac@@
realizado
recapitu@@
recomendar
recordado
refer@@
refleja
refr@@
refugiados
regu@@
regulares
regularidad
religiones
reparado
reserv@@
resfrío
resu@@
revolo@@
riñón
roso
rumano
rápidos
ré@@
régimen
rón
sabiendo
sad
salada
salta
sardinas
secador
secos
seguimos
selec@@
sello
separa
serv@@
servirá
ses@@
señaló
shock
silenci@@
sintiendo
situaciones
soborno
sodio
solucion@@
sombras
sopla
soportarlo
sores
sostenía
stame
sticas
stico
sufri@@
suger@@
sugi@@
superiores
superó
supli@@
sustantivos
susurró
séptimo
sín@@
tale
tario
tartamu@@
tarán
telefónico
temp@@
termino
testamento
tete
tina
tis
tomada
tones
tostada
traigo
trajiste
traslad@@
tud
v
valo
vas@@
vencer
ventajas
ventanilla
veían
vientos
violeta
virgen
virtu@@
visado
vistió
vitamina
vivieron
vivirá
vodka
volverse
vomitar
votaron
vul@@
zaste
átomo
íaco
ídos
ógico
órgano
ótica
35
65
70
Adondequiera
Adop@@
Af@@
Almor@@
Almorzamos
Ano@@
Antiguamente
Arro@@
Bai@@
Bajo
Bang
Bé@@
Cab@@
Cabilia
Camino
Celebr@@
Cerca
Che
Chi@@
Cier@@
Comamos
Confi@@
Corrió
Corta
Creen
Cuida
Cuán
D
Dado
Dejame
Dejemos
Del
Denme
Dimos
Discúl@@
Disfrutamos
Déjanos
Dígan@@
EEUU
Eché
Encantado
Encendí
Enséñ@@
Entendiste
Esperanto
Esperen
Espérame
Estabais
Exi@@
Extrañ@@
Fing@@
Fran@@
Gabriel
Gira
Habl@@
Hagan
Helen
Hey
Holmes
Há@@
Hágalo
Ignor@@
Inspi@@
Intento
Islas
Ko@@
Leván@@
Llegará
Llor@@
Magdalena
Miller
Min@@
Ministro
Nació
Narita
Nevó
Newton
Not@@
Nuja
Obama
Odia
Oliver
Pa@@
Parec@@
Park
Países
Plutón
Pobre
Podrás
Podrían
Polo
Prefieres
Pregunta
Prohibido
Pul@@
Quise
R
República
Resultó
Salgo
Santo
Saturno
Seguí
Sentémonos
Señ@@
Sonó
Sor@@
Sudáfrica
Suél@@
Súbete
Terminamos
Tira
Tráigame
Use
Utili@@
Valentín
Vende
Vendo
Vendrá
Venus
Vietnam
Vista
Wikipedia
XX
abrirla
abro
aburro
acantilado
aces
acordó
activos
acuesta
adió
administración
adqui@@
adí
afortunada
agradecerle
ahuy@@
alidades
alivio
aloj@@
amada
ambicioso
ancestros
andan
anunci@@
apuñal@@
armenio
aro
arreglando
artes
ascenso
asemeja
asombrosa
aspi@@
aspir@@
astrónomos
astuta
atacaron
aterrizar
atleta
atraen
atur@@
au
auténtica
avent@@
avergüenzo
averió
avisar
ayudaremos
aéreo
bai@@
balas
barr@@
baste
bau@@
beneficio
besé
boletos
boli
botes
brasileña
brillando
budismo
burles
caca
cache@@
calamar
calcul@@
calientes
cambies
camion@@
canguro
capitales
capri@@
carpintero
caré
casara
casará
cases
castillos
catástrofe
causas
cebolla
censur@@
cent@@
chab@@
chapu@@
chatarra
chaval
chero
chilló
chir@@
cielos
cionario
ciosa
citos
coinci@@
colabor@@
colgado
coloni@@
comen@@
cometiendo
compartimos
compensar
comprara
comprensible
concentración
concre@@
conectado
cones
conflictos
consecu@@
conservar
consideró
consigues
constitución
contagiosa
contienen
contin@@
contratado
convencerlo
coronavirus
cortesía
creati@@
creativa
creerá
cruda
cré@@
cto
cuadrada
cubrir
cuidadosos
cuidara
cular
culp@@
cuén@@
cuñado
cál@@
cómodas
dación
dea
decepcionó
decides
defen@@
defini@@
dejamos
delegados
demo@@
dente
derrite
derrotado
descalzo
descon@@
desconcertado
desconocidos
describir@@
descubrí
desempleado
desesperada
desnudos
desorientado
destruida
desvan@@
dict@@
didas
dieran
dignidad
dimitir
discutido
disfraz
disfrutado
disfrutan
disfrutó
disposición
dispu@@
disuadi@@
diversidad
divertirme
document@@
domé@@
duermas
echarme
eches
eché
eficiente
electrones
eléctricos
embrujada
empap@@
empezamos
empezará
empeño
encantador
encantados
encargo
encontrarla
encontraría
ender
endieron
enemiga
enfadados
enfo@@
entendieron
enteré
enveje@@
enviaré
erce
ere@@
erle
ern@@
ertos
erupción
escen@@
escoger
escolares
esconde
escondi@@
escribas
escribieron
escribirle
estacionamiento
estima
estru@@
eves
evol@@
exactitud
experiment@@
experimentos
expulsado
exter@@
extraordin@@
extrañé
ezca
ezco
facultad
fagot
faltas
faltó
familiarizado
fantasía
fav@@
fem@@
ficado
finge
fingiendo
fino
firmemente
florero
fluidamente
fobia
fondos
formu@@
frac@@
fregadero
frescos
fumas
fundada
fundó
futur@@
fó@@
fórmula
fós@@
garme
gast@@
gastando
gatita
gica
glo@@
global
globos
gotas
graduación
gramaticales
gramos
gras@@
hablarme
hacerla
hada
hagáis
hermanito
hipo@@
horne@@
hubieran
humedad
humill@@
icos
illos
imparcial
impecable
imper@@
imperi@@
impermeable
impi@@
impide
incurable
indignado
inesper@@
inexplicable
infarto
infección
informó
ingenieros
inglesas
iniciar
inicio
inmen@@
insiste
inta
intensa
intentaron
interpretación
interrump@@
interrumpas
invento
iones
iva
jamos
jardinero
jate
jero
joyería
jug@@
junta
juzgues
ke@@
ketchup
labio
labor
ladas
laguna
lamentarás
lastimarte
lavas
li
libremente
lida
ligeramente
limonada
litro
llamara
llanto
llenas
lleves
llo@@
llá@@
lucharon
lú@@
mados
maduras
magnífica
manteca
mantel
mantenerte
mantu@@
maquil@@
maravilla
marea
masti@@
masturb@@
mates
meditación
mencionar
mendigo
mentales
mentar
mentí
mereces
mete
miseria
misterios
molestado
mosquito
muchísimos
muralla
musulmana
máxima
móviles
navaja
negociaciones
neutr@@
nit@@
noslo
notar
novias
numerosos
obligatorio
observación
occidentales
ofender
oler
olvidadizo
olvidarlo
olvidaron
oni@@
org@@
organizar
originales
orilla
orinar
orio
oría
osi@@
osidad
oía
pagaré
pame
patin@@
patrón
pegar@@
pela
perdedor
persuadi@@
pertenencias
pese
pier@@
pierdes
pio
planeas
plano
playas
pleno
polacos
pomo
portero
potable
predicción
prefi@@
preocupaciones
presentimiento
preval@@
probador
prometes
pronombre
propaganda
quemar
querrá
quir@@
quitarme
rab@@
rabo
rancho
rascacielos
rayas
raíces
rece
recom@@
recordaba
recortes
recuperación
refiere
reflexión
refu@@
regalé
registro
regresará
rellenar
remera
repetirlo
repi@@
repisa
report@@
reservado
resist@@
respec@@
retirar
reto
rever@@
revolu@@
rezar
riqu@@
rme
robada
rocío
rodeada
romano
rompiste
ronco
ruidos
sabéis
salarios
sandía
sanit@@
saque
saqué
scaras
sedu@@
sembró
sentirme
seremos
sesos
sex@@
sico
sidad
silbar
silenciosamente
sintieron
sinvergüenza
sivamente
sivas
sivos
siéntese
socialista
sole@@
soltar
soluciones
sometido
sorprendi@@
sorprendidos
sorprendí
sospechaba
sospechosa
soñé
soñó
stará
subestimes
subir@@
sucediera
sufrido
sul@@
supervivencia
suspendió
susto
tano
tarás
tembl@@
tendrías
teorías
terco
teri@@
teros
teñ@@
teó@@
timo
tista
tiéndose
tolerante
tomaría
tontas
trabajes
tradicionales
traductores
trai@@
trans
transformó
transparente
traté
travieso
tribu
trueno
tró@@
turca
turcos
tuyas
ud
uda
uigur
unci@@
urgentemente
vainilla
valioso
vean
velo
venció
viajo
vieras
vini@@
visitantes
vistas
vitaminas
vor@@
vuelves
vuél@@
ván
whisky
ya@@
zanahoria
zorros
ácti@@
árabes
ésimo
íralo
ófono
órganos
000@@
14@@
150
88
A.
Actu@@
Acá
Admi@@
All@@
Aprendimos
Apun@@
Apúrate
Arabia
Avísame
Ayuda
B.
Bel@@
Blan@@
Bra@@
Bush
Campeonato
Cerré
Chicos
Cien
Comenzó
Compraron
Compro
Consí@@
Copa
Cuento
Deb@@
Debí
Dejen
Desayuné
Descubrí
Detente
Dibú@@
Dilo
Disfru@@
Dob@@
Don@@
Echa
Esco@@
Escoge
Escucho
Estuvieron
Favor
Florida
Gané
Gasté
Harías
Hor@@
Hora
Hueles
Háblame
Imperio
Inglés
Internacional
Ja@@
Jesucristo
Juegas
Kaz@@
Keiko
Kennedy
Llegas
Llévate
Logr@@
Lá@@
Mac@@
Mad@@
Mierda
Mozart
Naciones
Necesitás
Nilo
Obe@@
Pagaré
Parti@@
Paso
Paula
Pide
Posiblemente
Prob@@
Pude
Quita
Ram@@
Recoge
Regresa
Revi@@
Rosa
SIDA
Sac@@
Saca@@
Salud
Sam@@
Scott
Seamos
Siendo
Sin@@
Ste@@
Sucedió
Supe
Tendrá
Ter@@
Terminaste
Toki
Torre
Trataré
Usualmente
V
Vení
Verdaderamente
Viajar
Viniste
Vu@@
Wilson
abandonan
abducido
abolida
abordar
abriera
absten@@
abundante
acababa
acabaron
acari@@
aconsejo
acos
acostarse
acostumbrarme
acosté
actores
acumul@@
adecuadamente
admit@@
adoran
ago
agotando
agradables
agradecer
aja
ajes
ajustar
ak@@
alber@@
alivi@@
aliviar
alojar
alrededores
alucin@@
am
americanas
amplio
amé
anfitrión
anime
ante@@
antigüedades
anto
anto@@
aparcamiento
aparenta
aparentemente
apetec@@
aprendemos
apresurado
apuro
apuros
arañ@@
arbusto
ardiendo
argu@@
arreglo
arrestó
arri@@
arroj@@
arroyo
asegurarme
asen
asign@@
asoci@@
asombr@@
asumir
asumió
ataques
atar
ater@@
atoria
atraer
atrevo
atu@@
audí@@
aumenta
auriculares
australiano
averiado
aé@@
bacterias
bancarrota
baratas
bate
bañar
bebía
ber
besarla
bienvenidos
bimos
bom@@
bombones
botones
bras
bro
brome@@
bucear
budista
burlaron
básica
cachorros
cago
calcetín
callada
callejón
calurosa
cambiarlo
cambiarse
canilla
cansó
cantado
cardí@@
carreras
casero
casilla
católica
católico
cayendo
cazan
cerezos
cerrando
certificado
cham@@
chant@@
chemos
chón
cier@@
cilla
ciru@@
civiles
clá@@
codos
cogieron
colgando
colon@@
columna
combinación
comenzarán
cometen
comodidad
competición
competir
comporta
comportarse
compu@@
comun@@
comunicar
concedió
concor@@
conectar
confundió
conocéis
consolar
conspi@@
consulte
contemp@@
contribuciones
conversaciones
coordin@@
cop@@
copiando
cordero
cordones
corr@@
corrupción
cosiendo
creéis
creés
cristales
cultiva
cumpl@@
curiosos
cuscús
cuñada
cállate
cáscara
cón@@
dan@@
darlo
decepcionar
decidimos
decl@@
defecto
defraud@@
dejaras
delicada
delicado
deliciosas
demandas
dentes
denunci@@
desayunado
descal@@
desear@@
desmor@@
desol@@
despegar
desperdi@@
desperdiciar
despertarme
despierte
destro@@
desventajas
desvi@@
detenerlo
detenga
dibu@@
digit@@
digno
dij@@
dilig@@
dimientos
directorio
discos
disgustado
disparos
disper@@
disputa
dividida
dividido
divorció
dióxido
dolorosa
dormir@@
dormirse
dosa
dude
dul@@
duros
dímelo
eada
ecería
echaba
eclipse
edlo
ee
egas
ejas
electro@@
elevado
elle
embrollo
emente
emáti@@
encantó
encen@@
encerró
enchuf@@
enciende
encías
enes
enfu@@
engaña
enre@@
enro@@
entendería
entendiste
entran
entraste
entusias@@
entusiasmado
envejec@@
equivocadas
equivocarse
erizo
erlas
eru@@
esc@@
escalo@@
escaparon
esconder@@
esconderme
esconderse
escondidos
escondí
escrib@@
escribes
escribiera
escribirme
escribiste
escribía
escuchan
escuche
eslo@@
espant@@
esperen
espina
espléndida
estornudar
estrecha
estropeado
estudiaba
eva
evalu@@
eventos
examinar
excepcionalmente
exigente
expedición
extremos
eza
fall@@
fantástica
fascinantes
fen@@
fenómenos
feroz
fijado
floja
fonos
foros
fraude
fresa
frescas
frito
frágil
fundamento
furro
fuéramos
fé@@
fú@@
gallego
ganancias
gané
gara
garanti@@
garte
gasolinera
gem@@
gobernador
gobi@@
gobierna
gon@@
gono
gra
graciosa
granada
grises
guió
habituado
hablaría
habré
haci@@
hacés
halla
hambruna
hemisfer@@
hiciese
hiciéramos
hierve
hinchado
hipócrita
hospitalidad
hueco
hunde
hí@@
ideales
idén@@
ien@@
igu@@
igualmente
imagino
imanes
impresionar
imprud@@
incluido
increíbles
indica
indicar
individuos
influenci@@
informar@@
ing
inga
inició
inmortal
instant@@
intentamos
intentaré
intentaría
intente
inv@@
inversión
investigadores
invitaste
ja@@
jab@@
jese
jueguen
jugué
justificar
jón
ku@@
ladores
ladr@@
lamentable
langostinos
lanza
lau@@
lectores
levantan
levantes
lingü@@
lito
lizó
llamarla
llegaba
llegaremos
lleguen
llevarla
llevaría
lluvioso
locales
lograron
loso
luchó
lumin@@
madrastra
madur@@
mara
marcas
marchado
marina
masculino
maste
matemáticos
mati@@
mato
mayúscula
mb@@
mecan@@
mecá@@
medicación
mejore
melas
menospreci@@
menta
mentiría
mentiste
mera
merecen
metales
meteor@@
mirarlo
mito
monta@@
morder
mostrado
mueble
mundos
mué@@
mática
naciste
navideña
neas
necesarios
negativa
nerviosos
nevó
niñera
noción
obsole@@
obtiene
ocultó
ocuparme
odiado
ofensivo
ofrecer@@
ordin@@
ovni
p
pac@@
paci@@
pagaron
pagaste
pagos
pagué
palma
palos
pandemia
parano@@
parezco
parlantes
parto
pasadas
pasajero
pasarás
pastel@@
patriota
pedía
pelando
peligros
peluche
percep@@
perdidos
perdonó
perejil
perfectos
perseverancia
pierdo
pillado
pillaron
pilo@@
pingüino
placeres
planeaba
plantado
plantar
platillo
plu@@
podrido
polución
polí@@
popularidad
portar
preguntan
preguntaré
prejuicios
prende
prepararme
prestarle
presumir
previ@@
primaria
privilegio
profesion@@
programación
proporcion@@
proverbio
proyec@@
psiquiatra
ptica
puer@@
pulmones
pulsar
puntillas
puré
pusi@@
pálida
pétalos
quedaste
quemé
quero
quienquiera
quin@@
racional
raciones
raras
ray@@
recibimos
reclam@@
recomen@@
referencia
refiero
reflejo
regre@@
regular
rehú@@
relacionado
relacionados
relativamente
remedios
rencor
repite
reportero
representan
reproductor
reptiles
resbaló
rescate
resistencia
respetuoso
resultaron
resultaría
revelar
reyes
reímos
rifle
robar@@
rugby
ruidosos
rábanos
ríamos
ró@@
sabroso
sacudió
salgamos
san
sanguiju@@
saques
sec@@
sector
seguidas
seme
sentarnos
seo
sever@@
severo
sexy
sicos
sigui@@
silab@@
silb@@
sirvi@@
situada
siéntate
sobrado
sobresaliente
sobrevivieron
sonri@@
sorprendentemente
sospechas
staron
subtítulos
suceden
suces@@
sudar
sueña
suizo
susp@@
sólida
tabla
tardar
tari@@
tengáis
tensa
tenue
terminaste
terr@@
test@@
tirse
tividad
toallas
tolerar
toquen
traducidas
traeré
trajeron
tranquilidad
tratan
traía
trompeta
trop@@
tré@@
tuoso
técnicas
técnico
témonos
ubica
udado
und@@
unido
unirse
unión
urbana
usamos
use
vaga
valen
valentía
vate
veintidós
vence
vers@@
vicio
vidad
vinos
violenta
visitan
visitaste
visito
volv@@
volvemos
volviste
válido
vámonos
zaré
zmente
Ártico
áni@@
áti@@
éli@@
énfasis
ét@@
íb@@
ú
-dijo
10.000
10@@
195@@
199@@
28
400
95
Acepté
Acostumbr@@
Alberto
Ama
Andá
Aprove@@
Argel
Bar@@
Beth
Bi@@
CDs
Callate
Cer@@
Charles
Coca-Cola
Comencé
Comparado
Confes@@
Confieso
Confía
Consumes
Cruz
Cuenta
Cul@@
Có@@
Cómete
Derr@@
Descans@@
Disfruto
Divi@@
Díganme
Edad
Empiezo
Encontraron
Encu@@
Engañ@@
Enví@@
Escú@@
Estarías
Exactamente
Exprí@@
Felicidades
Fin@@
Ford
Francamente
Funciona
Galileo
Habiendo
Hablan
Hacen
Henry
Ir@@
Isaac
Islandia
Jessie
Ka@@
Ku@@
Kyoto
Liberen
Lidia
Llá@@
Logré
Lárgate
Magnus
Marruecos
Mas@@
Media
Mez@@
Mirad
Miren
Miró
Muchísimas
Muiriel
Murieron
N
Nadar
Nepo
Neptuno
Occid@@
Olga
Olvídalo
Orden@@
Otro
Oyes
Oímos
Parecen
Pascua
Pensás
Perdiste
Permane@@
Pido
Pién@@
Presidente
Primer
Párate
Querías
Reconozco
Reina
Rellen@@
Resulta
Revolución
Ron@@
S
Sabíamos
Sally
Sandra
Sara
Seis
Sevilla
Sientes
Siete
Solíamos
Te@@
Terminemos
Tim@@
Titanic
Tor@@
Traducir
Tre@@
Unas
Universo
Vayan
Vendemos
Vendrás
Verdad
Viena
Vivía
Vo@@
Volvi@@
Vot@@
Váyanse
Wang
XXI
abanico
abrazar
abren
absur@@
aburrió
accesorios
aceleró
acercarse
acerque
acertijo
ach@@
acimiento
acog@@
acompañaré
acompaño
acord@@
acost@@
acostarte
acuer@@
acuesto
acusando
adaptó
admiro
adrede
adverbios
advertido
afectado
agachó
agon@@
agotador
agotó
agresivo
ahogado
ahogarse
ajena
alam@@
aleg@@
alegremente
alejó
alemanas
aler@@
alg@@
alito
almacén
almuer@@
alos
ambiental
amisto@@
amó
analgé@@
anar@@
andén
ange@@
ansiedad
antemente
anteri@@
antici@@
antigüedad
anunció
apaci@@
apasionadamente
apoyar
apoyes
aprendo
apretar
aprobará
apunta
argelino
armonía
arrastró
arregla
arrestaron
arruinado
asegura
asistieron
asistió
astu@@
asustarte
at
atado
atajo
aterrori@@
atracción
atrapar@@
atrevió
autoestima
autores
avanzada
avanzado
avergonzada
avestru@@
ayo
azos
babo@@
balanc@@
bata
bauti@@
baña
beba
bendiga
besaron
besarte
besaste
bidas
bielor@@
bir
blan@@
blemente
bofetada
bombil@@
bos@@
bran
brillantes
brillar
burbu@@
burl@@
burlarse
busco
bú@@
cacahuates
cad@@
caigo
calabaza
calentando
calificaciones
calificado
calmente
camisetas
campesino
candidatos
cansa
capturado
capu@@
capítulos
caracoles
característica
cargos
carpa
carros
casan
case@@
cautiv@@
cavando
cede
cejas
celda
celebración
celo
cenamos
cepill@@
cepillando
cería
cesa
chin@@
choque
chulo
cicatrices
ciclo
cientas
cifras
cil
cione
cirá
civil
ck@@
claros
cló@@
cocino
coherente
colap@@
colonia
comedi@@
comedia
compares
complicadas
conducía
conduzcas
conferencias
confías
conocidas
conocés
conocían
conozcas
conseguirlo
conseguirte
consentimiento
considerablemente
consideras
consolar@@
conta@@
contagioso
contara
contenedor
convencida
corras
correspondencia
corrieron
costaría
coste
costo@@
creían
criada
criticar
cruces
crueles
crías
cuidados
cuidaré
culpas
culpó
cultivo
cultivos
dalt@@
dañado
deando
deberíais
debéis
debían
defin@@
definir
dejaran
dele@@
deletrear
deliber@@
deliciosos
democr@@
demostrado
demuestra
dencia
dental
dentistas
dependienta
dera
deriva
dero
desaf@@
desam@@
desayunando
descifrar
despec@@
despensa
despidan
desplo@@
destinado
destornillador
desvaneció
detenerme
difieren
digna
dijimos
diplomático
dirás
dismo
disteis
diversos
dme
docenas
domesti@@
dosis
doso
drá@@
duch@@
dudes
duelo
dueños
décadas
ebri@@
eco@@
eda
edora
ego@@
electricista
elogi@@
elogio
elor@@
email
emocion@@
empar@@
empezaba
empres@@
enamoradas
encaja
encerrado
endiendo
enfado
engañan
engañes
engre@@
enloque@@
enoja
entenderás
entenderías
entendiera
entro@@
entusi@@
erais
erna
erno
erro
errónea
escar@@
escucharon
escur@@
esen
espaci@@
espec@@
específica
esperándote
espesa
espin@@
espu@@
estabais
estallar
estaríamos
estor@@
estropeó
estructuras
estudiaste
estupendamente
estupideces
etapa
europe@@
exag@@
excelentes
experimentar
explique
expor@@
expuls@@
extrover@@
f
fans
farmacéutico
fas@@
fasti@@
favorable
fenómeno
fera
fidelidad
fieles
figu@@
fij@@
fijó
firmar@@
flaco
flore@@
forme
foro
forzó
francesas
fron@@
frustr@@
fu
fumadores
futbol
galleta
ganan
ganarse
ganse
gays
gena
gentileza
genu@@
geometría
giera
gigantes
gila
gobiernos
gorrión
gotea
gradualmente
gramaticalmente
granos
gratitud
guera
géneros
habernos
habili@@
habitualmente
hablaban
hablabas
hablaré
hablase
hacernos
haceros
had
har
heredó
hidro@@
hiere
hip@@
hipocresía
histori@@
historietas
holgaz@@
hondo
horneó
horror
huéspedes
hígado
ible
ico
ignora
ignorantes
igüé
ilegales
illo
imp@@
impacientes
imprimir
impuesto
inau@@
incendi@@
incomo@@
increment@@
incómoda
indicarme
indiferencia
indig@@
industrial
infantiles
infr@@
ingenio
injustamente
injusticia
inmaduro
inmediata
inolvidable
instinto
instintos
intentan
interfi@@
interminable
intervino
introdujo
inund@@
invernadero
involucrados
inyección
irritante
ión
jacta
jale
jeans
joven@@
justamente
laboral
landia
laptop
leñador
liberado
limones
llamados
llegarán
llenar
llevarnos
lli@@
lloras
locu@@
log@@
lun@@
lógico
mad
maldita
manej@@
manifestación
mantengo
mantuvieron
manzano
maní
maratón
maravillas
marchar
marci@@
mares
marinero
mastur@@
matarte
materno
meditando
menti@@
mentirosos
mercancía
mesas
micr@@
microondas
mida
mides
minas
minifalda
mirarme
mire
mista
mite
mod@@
molestarme
monar@@
montado
monó@@
mordida
mortalidad
mpi@@
mular
murmurando
mutuo
negar@@
neuro@@
nevado
nidad
niñito
nocturna
noruego
ní@@
nó
obe@@
obligados
observó
obstinada
obstáculo
oca
od@@
odiar
oficin@@
oficio
ofrecieron
ok
omi@@
onó
operar
opongo
oportuno
opri@@
opuestos
orbit@@
organizada
ori
orios
oscureciendo
oscuros
ostras
oto@@
oí@@
oímos
oírme
pacientemente
pagas
pajar@@
palideció
palmada
parados
paranoico
pararme
paras
parcialmente
partículas
past@@
patr@@
pegarle
pein@@
peine
percató
perci@@
perdona
perdóname
perjudicial
permitiré
perpetua
persistente
persu@@
persuadir
perver@@
pescando
piensen
pipa
pis
piz@@
pizca
pizzas
plantó
plo@@
pobl@@
pod@@
pollos
ponerla
porción
porquería
portamos
precaución
pregún@@
preocupe
preparadas
presas
presentado
presionó
pretendo
prioridad
probabilidad
probando
progresos
prohibida
prometedor
prono@@
propi@@
proporciona
propuestas
prot@@
protagon@@
protec@@
prudente
psico@@
publicó
puentes
puñado
pú@@
públi@@
quedaban
quedaros
quedase
quejan
quejándose
quilos
quinta
quitarse
quito
raci@@
rada
ratito
razonar
recen
recesión
recibieron
recipiente
red@@
reduce
reforma
refugi@@
regalar
relajarse
religiosos
rellen@@
relám@@
rem@@
reme
remor@@
remoto
reparación
reparó
repleto
repor@@
rescató
reservas
respiro
respondas
restr@@
retroc@@
reunir
rido
rival
rla
rle
roman@@
rotas
ruidosa
rup@@
ry
rá@@
ríes
saban
sabremos
sacarme
sacaste
sación
sacu@@
salchi@@
salgan
saltando
salvavidas
sangrar
satis@@
satisfac@@
satisfactoria
sede
sediento
seguras
seguí
sela
sens@@
sensibles
separadas
separar
servidor
serían
serías
severamente
sexto
sh@@
show
siembr@@
sigas
significan
silbato
silencioso
siles
sinfonía
sirviente
sobrepeso
solitaria
sombreros
sonado
soport@@
soporta
sospechosos
sostiene
soñaba
spera
stante
starte
stiendo
sto@@
suministros
superado
suspi@@
sílabas
símbolos
sóli@@
tablas
taburete
tacaño
tango
tanos
tap@@
taras
tardó
taria
tarios
tatar@@
templos
temprana
tenerlo
tenos
teriores
terminaron
termines
termómetro
tero
terror@@
tetas
tiburones
tigo
tira
tirme
tis@@
tocas
tormentas
torn@@
torpe
tra
tradiciones
traerme
trajes
tranquilamente
tranquilos
transfer@@
transmi@@
trig@@
triunfo
trom@@
tron@@
trono
tropezó
tubo
turismo
tuviese
tés
tían
udos
um
unció
unir
unirte
univer@@
urero
urr@@
utilizando
valiosa
valiosos
valor@@
vamente
vayáis
venti@@
ventilador
vertió
vesti@@
videojuego
vido
vigor
vigoroso
vio@@
virtudes
visitando
visitarte
visual
volado
voluntariamente
vomitó
zan@@
zapatillas
Ésas
ál@@
áspera
él@@
ícula
ífico
ína
ísimas
ísimos
ñendo
ógicamente
órbita
óxido
úes
úne@@
ü@@
​
&gt;
0.000
1000
190@@
198@@
1990
33
36
Abandonó
Aceptamos
Acer@@
Actúa
Adelante
Adivin@@
Agar@@
Agarra
Agre@@
Amazonas
Ando
Anteayer
Anti@@
Antártida
Apunta
Aquello
Aquél
Armenia
Asegúrese
Aver@@
Averigu@@
Bru@@
Caminando
Carol
Charlie
Clar@@
Comen
Comeré
Comió
Consiguió
Consul@@
Contest@@
Convers@@
Cosas
Cumpli@@
Cál@@
Dadme
Decidieron
Decidme
Decile
Dejamos
Diga
Dio
Disney
Diviértete
Díselo
EE
Ed@@
Eiffel
Elizabeth
Emi
Emilia
Encontró
Entendí
Entramos
Escuchamos
Escuchaste
Escúchame
Estudió
Faltan
Fuego
Ganó
Genial
Hag@@
Hamlet
Hanako
He@@
Hilton
Hiroshima
Hombre
Ian
Imposible
Increíble
Invité
Jerry
Jill
Jimmy
Jugué
Julio
Kan@@
Ke@@
Kim
Lamentamos
Lava@@
Lech
Leyó
Linux
Llamaron
Llegaremos
Lloré
Llámalo
Límpi@@
Mari
Marilyn
May@@
Mediterráneo
Menudo
Miguel
Milán
Moisés
Mona
Mostrame
Muéstreme
Nacional
Naoko
Nomás
OK
Observa
Ohio
Ojo
Olví@@
Olímpi@@
P
Partido
Pasemos
Pat@@
Paz
Pensar
Perten@@
Perú
Praga
Prefer@@
Preferirías
Pretendo
Pri@@
Prometió
Pru@@
Prué@@
Pruébate
Póngase
Quer@@
Querían
Quisi@@
Quit@@
Real
Rel@@
Repite
Respira
Rev@@
Revisa
Roger
Rápido
Sachiko
Saldr@@
Salvador
Sato
Sch@@
Sem@@
Senti@@
Shi@@
Sigan
Sil@@
Silencio
Sol@@
Sosten@@
Sube
Subimos
Suele
Suje@@
Supongamos
Supuse
Sus@@
Tam@@
Tan@@
Tenían
Teresa
Terminó
Texas
Tom@@
Tomar@@
Tomaste
Toyota
Tranquilo
Tro@@
Tu@@
Tí@@
Uruguay
Usamos
Vais
Varias
Vemos
Venezuela
Visitamos
Vivió
Ví@@
XV@@
Yemen
abandonaste
abot@@
abrace
abre@@
abreviatura
absorción
abstracta
abundantes
aburriendo
acabamos
acadé@@
académico
acces@@
aceptan
acompaña
acordaste
acostumbrarás
acre@@
acredi@@
actúan
acumu@@
acus@@
adelgazar
adla
admirar
aduras
adversidad
advertencia
advertencias
aer@@
afecto
afectó
afeita
afilada
afin@@
afirmó
afli@@
afortunados
afri@@
africano
afrontar
agarré
agradan
agrade@@
ahorrado
alegrará
alergia
algas
alia
aliado
alim@@
alimentación
almacen@@
almuerza
amarga
amistosa
amplia
aniquil@@
anual
ao
apague
aparecen
aparecerá
apasionado
aprovec@@
apto
apuesta
apuestas
archi@@
ardu@@
are
argent@@
ariamente
arpa
arregle
arrestada
arriesga
ascend@@
aseo
asesinatos
asesinó
asfixi@@
asociación
aspiradora
astr@@
asustan
atacados
aterr@@
atrajo
atraído
atrevas
atropella
ausent@@
ausentes
australi@@
avanzar
avaricia
ayuntamiento
añade
banderas
bayas
bañando
bañarse
bellos
bendi@@
bia
bibliotec@@
bida
bidos
billar
binarie
biografía
blog
bocado
bolas
bole@@
boxe@@
bron@@
bárbar@@
básicos
búhos
cabi@@
cacahuetes
cachorrito
cagar
calcu@@
calienta
callados
calzado
camarones
cambiaste
camellos
caminamos
camiones
campanas
canas
cancelada
cand@@
candado
canela
cantidades
caracol
cardi@@
cariñ@@
carlo
carni@@
catarro
catálogo
cayera
cedieron
celulares
cemento
cente
centígrados
cerebral
cerezo
chaba
chances
chef
chofer
cicli@@
ciosos
ck
clarinete
clasi@@
cle@@
clic
cobertizo
cobre
cocinado
coco
cojo
colador
colapsó
colmo
comandante
combatir
combinan
comenzará
cometo
cometí
comience
comis@@
comparable
comparación
compañ@@
compañera
compensa
competente
comprendió
comunidades
concluyó
condenaron
conducción
condujera
confundí
confusa
congelada
congreso
conmoción
conocieras
conocías
conquistar
const@@
consumado
contaba
contam@@
contarme
contempor@@
continuamente
continúan
contradi@@
contribuyó
controla
controlarse
convencí
conversando
convirtieron
copas
copiar
correctos
corres
corresponden
corrigió
cortarme
corte@@
cortes
cose@@
cosechas
costado
cotidiana
coño
cra@@
cracia
creerla
creído
critica
cruz
cuarta
cubrió
cuidadosa
cuidarte
culparte
culturales
cuneta
curó
cáis
célula
céntrico
cían
dañar
deas
debili@@
decapit@@
decepciones
decida
declarado
declarar
defi@@
definición
degrad@@
dejarle
dejarías
dejase
dencial
dencias
dentífrico
dependen
dependiente
derrotó
desacti@@
desaparece
desaparecer
desastres
desayunó
descansa
descompuesto
deseó
desgar@@
desi@@
desocupada
desorden
despiad@@
despistado
despla@@
destrucción
detectar
detectives
detesta
deva@@
devolveré
devorado
devuelto
deó
diab@@
diecinueve
diferenci@@
difi@@
dimensiones
dimisión
disciplina
discre@@
discutimos
dispone
divorciaron
dobló
doras
dormirme
dormían
dramaturgo
dri@@
ducharme
ducho
duración
dure
dá@@
dándole
eaba
eado
echamos
económicas
económicos
edición
edo
educados
educar
egan
egipcios
egos
egoí@@
elegir@@
emigr@@
emocionados
empapado
empeñ@@
empleada
encargaré
enchufe
encienda
encogió
encontraban
enfades
enfríe
engañando
engañoso
enmar@@
ensuci@@
entan
entenderle
entendéis
enteras
enteró
entrando
entrenando
enviaron
epi@@
epí@@
erradicar
escalado
escapa
escombros
escondas
escondieron
escorpi@@
escribirlo
escucharme
escucharte
esforzó
espan@@
españolas
específico
espejos
esperabas
esperaron
espinacas
espléndido
estafa
estan
estatura
estias
estrategia
estudiara
eternamente
europeo
evita
evitando
exhaust@@
existido
expansión
expi@@
explorar
explotar
extraordinaria
extrema
facili@@
fallado
falsi@@
faltar
fascista
fastidia
fec@@
finlandés
firmado
flamen@@
flexible
fono
footing
fore@@
form@@
formada
formó
fracasar
frecuentes
fregar
fro@@
frustrado
fume
fundamentales
fíes
gale
galletitas
garantiza
gas@@
gasté
gaviotas
gemela
generales
generar
generosa
geni@@
gh@@
golpeando
gordos
gorro
graduarse
gramatical
gratu@@
graz@@
guerrero
gustara
habiendo
habit@@
habitu@@
hablará
hablás
habrán
habrás
habrías
habértelo
hacha
hacéis
hala@@
helicópteros
hemor@@
heno
hipopó@@
hipótesis
histórico
honestos
horizon@@
horr@@
hostia
hubieses
hubiéramos
huella
huelo
humanas
huérf@@
iceberg
ición
ima
importación
importado
impres@@
impresion@@
improvi@@
inaceptable
incapacidad
indeciso
indefen@@
indiscre@@
individu@@
inero
infin@@
informes
infra@@
inge
iniciativa
insatisfecho
inseguro
instal@@
instalar
instaló
insultos
inte@@
intelec@@
intentos
interfer@@
interrumpir
intimi@@
inténtalo
invas@@
irrita
irían
islandés
islá@@
israel@@
ití
jaros
jiste
jió
jor@@
jubiló
judía
juegue
jugábamos
juntar
kanji
lagos
lamentar
lavabo
lavan
lazo
lealtad
lecho
leerla
legible
lesbiana
let@@
levantaron
levántate
ley@@
leyera
licen@@
lider@@
limita
limpieza
lla@@
llado
llamarlo
lloro
lloviera
lluvi@@
lodo
logrará
lograste
lones
lón
magnífico
manada
mandarín
mandíbula
manguera
manifestantes
mantenerme
mantenimiento
mapas
maravillosas
marcharte
marchit@@
margen
mascarilla
matarla
matarlo
materias
mau@@
mbres
mecánica
medioambiente
mejorará
melocotones
memorizado
mensual
mentos
merced
mese
meta@@
mexi@@
mezclar
midad
miraban
mirado
misteriosa
modelos
modi@@
molestarte
molesten
molestó
monje
morimos
movido
much@@
mudarme
mudaron
muela
muestras
mueven
multilingüe
mur@@
muros
mus@@
my
nac@@
nar
nata
navegador
necesarias
neerlandés
nega@@
neo
neos
neur@@
nidos
nio
niñ@@
nomás
normalidad
notable
novatos
o-@@
obligaciones
obligatoria
oboe
obr@@
ocupación
ocupar@@
ocuparé
ocurriría
océanos
ofre@@
ofrecer
oje@@
oles
oliva
olvidarme
olvidas
olímpi@@
oma
onas
onio
ope
orientación
oruga
oslo
paces
pagamos
palillos
pandas
panor@@
pantalón
paquetes
para@@
paraca@@
pararon
parecida
pará@@
pasados
pasaré
pases
patadas
patri@@
pañal
pecas
pegaj@@
pelean
pelliz@@
peluquero
peluquería
penas
penetr@@
pent@@
percibido
percibir
perdemos
perderse
perdonarme
pere@@
perez@@
perla
permitirse
persi@@
perturb@@
pesadas
pescadores
pest@@
picado
picas
piden
piedad
pillar
pintada
piro@@
pistolas
plancha
plantando
plati@@
poderosos
podri@@
polen
políglota
pon
porno
portó
poseen
positiva
positivos
precipicio
preferible
prenda
prendido
preocupas
preocupen
preocupéis
preparatoria
presentaron
prim@@
privados
proce@@
procedimiento
profesoras
profeta
programador
prohí@@
prometí
promover
pronombres
proposición
protegerte
proto@@
prácticas
pudieran
puestamente
pulpo
puntuación
puñ@@
párrafo
pérdidas
pésima
pón@@
quedaremos
quemado
quep@@
quisición
quisiste
quitando
ramos
raptado
rase
rasgu@@
rebaño
reclu@@
recoge
rect@@
recurso
redondo
regresado
regó
relajante
repararlo
repeti@@
repos@@
repu@@
requi@@
rese
resistente
respal@@
respetado
respir@@
respira
responda
respondiste
responsabilidades
resuel@@
reti@@
retirado
retirarse
revela
revelado
revisó
rezó
reí
rinocerontes
rios
romance
ronron@@
rubias
rudo
s.
sabrosa
sacado
sake
saladas
salado
salva
salvarla
sanos
santa
scalo
sco@@
secar
secre@@
secu@@
secundario
seg@@
seguidores
selas
semejanza
senci@@
sentencia
sep@@
separación
separó
sepul@@
severa
señ@@
señas
sierra
sigamos
sigan
significante
simios
simpáticos
simultáneamente
sinceramente
sinceras
sinónimo
sobrio
sociable
socialismo
sofo@@
solu@@
spi@@
sticado
subieron
submar@@
subí
sue@@
sufren
sugerencias
sui@@
suici@@
suponer
sust@@
sustantivo
suyas
sé@@
sólido
tacos
tad@@
tanque
tarlos
tarro
tecno@@
telef@@
temporalmente
tenedores
tequila
terrestre
tictac
tiles
tiremos
tiri@@
tirnos
tiñó
tocarlo
tomaba
toneladas
tortas
torturado
toso
tosos
tragar
traj@@
transportar
tranvía
tratados
tribu@@
trico
tripa
triángulo
trot@@
truenos
tuales
tulipanes
udas
uncia
unirme
universitaria
uras
usados
usarla
usaste
valía
varones
varón
vencer@@
venida
veno
venían
veranos
verb@@
verga
verlas
versos
vese
violación
visibles
visitaba
visitante
visitar@@
visitaron
visitaré
visu@@
viv@@
volaba
volverán
vulgar
vulnerable
válida
váter
vér@@
yace
yegua
zaban
zones
º
Échale
Ú@@
áb@@
ábaco
áctica
ái
ámica
ámoslo
ánea
ánica
ésos
ístico
ólico
úe
…
&lt;
0,@@
1.000
100@@
1939
1974
197@@
2023
27
31
39
Abrió
Abró@@
Acepta
Acércate
Ahorita
Albert
Aliment@@
Alquilamos
Aléjate
Amamos
Andrómeda
Apar@@
Aparte
Aprenda
Aproximadamente
Apár@@
Aquellas
At@@
Atraves@@
Bajé
Beber
Bri@@
Bur@@
Bá@@
CNN
Cairo
Cali@@
Can@@
Cantemos
Cariño
Cerrá
Che@@
Coma
Come@@
Compraré
Comprueba
Conocemos
Conocen
Conseguimos
Contemp@@
Cop@@
Cristo
Cuelga
Cuidaré
Cómprame
Cú@@
Debéis
Declaración
Dejar
Dejaré
Dejaste
Demasiado
Der@@
Desayuno
Deseas
Desgraciadamente
Despi@@
Despiértame
Detrás
Dev@@
Dibuja
Diego
Digas
Digo
Discutimos
Disfruta
Disfruté
Duermo
Dámelo
Ecuador
Elegimos
Elena
Empezaremos
Empezaron
Empi@@
Empú@@
Enci@@
Encuentro
Enero
Enfr@@
Enseñar
Enseño
Envíame
Escribid
Escribir
Escríbeme
Estonia
Eu@@
Exam@@
Fal@@
Far@@
Fra@@
Fría
Fíjate
Física
Ganar
Ganaron
Gre@@
H
Hablaba
Hacia
Ham@@
Haremos
Huyó
Identi@@
Imag@@
Intentaba
Inténtalo
Ir
Irás
Ismael
Je@@
Jerusalén
Jor@@
Juegan
Karen
Ken@@
Lavé
Llo@@
Lloro
Mantu@@
Manténgase
Martín
Mc@@
Mejor@@
Melanie
Met@@
Millones
Monroe
Mostr@@
Má@@
Necesitaré
Necesitáis
Negro
Nepomniachtchi
Nixon
Nor@@
Norteamérica
Oc@@
Ocu@@
Ocul@@
Ocur@@
Océano
Okinawa
Opino
Ordena
Palestina
Pat
Paulo
Perder
Poca
Pod@@
Pona
Pongo
Practi@@
Premio
Preparé
Preten@@
Primera
Probé
Pré@@
Pua
Pusi@@
Pásen@@
Pí@@
Q@@
Quedan
Querrías
Recién
Resol@@
Respeto
Respondió
Reyes
Roosevelt
Saber
Saluda
Salú@@
Saqué
Satanás
Sen@@
Sim@@
Sir@@
Sobrevivi@@
Sue
Suelta
Taiwán
Tak@@
Tardé
Ted
Tomen
Ton@@
Trabajan
Trabajó
Tri@@
URSS
Uganda
Unidas
Vienen
Vinimos
Vuel@@
Váyase
Wal@@
Wood
aband@@
abandonaré
abe
abecedario
abolido
abstinencia
abstuvo
aburres
acabes
acampar
acatar
accidentalmente
acepté
acercaba
aclarar
aconsejé
acontecimiento
acróbatas
actualización
acuarelas
acuerdes
acumulado
acurru@@
acusaciones
acusación
adar
adel@@
adelanta
adelga@@
adicta
adizo
adjetivos
adjunto
adle
advi@@
aficiones
afirma
agradecemos
agricultura
ah@@
aires
ajedrecistas
alcanzarlo
alcohólica
aleat@@
alimentando
alimenti@@
almac@@
almorzó
amarte
amen@@
amigable
ampi@@
amue@@
anal
analizar
ancha
ancés
andu@@
ango@@
angusti@@
anillos
animados
anor@@
ans
antas
antelación
antepasados
anunciado
aparatos
apareciera
apartó
apertura
aplaudió
apodo
aposta
aprenderás
apresuró
aprovech@@
aproxima
apruebo
apurado
arduamente
armar
arrebat@@
arreglár@@
arrepentir
arrepintió
arresto
art@@
asado
asal@@
ascendido
ase@@
asegu@@
asegurarse
asegúrate
asent@@
asesin@@
asesinaron
asesinos
ash@@
aso@@
asteroide
astronautas
atal
aterrorizado
ativas
ativos
aton@@
atreve
atropel@@
auda@@
autodidacta
autoridades
autorizado
aventón
ay
ayudaba
ayudaste
azgo
bailaba
bailó
bajado
bal
balo
barbacoa
bastantes
bebieron
berenjena
berg
blando
bli@@
bloqueado
boa
bode@@
bol
bor
bota
bronca
brujas
brujería
bruscamente
brusco
buce@@
buen@@
buque
buscamos
busqué
básicamente
básicas
básico
cabal@@
caben
cabina
cabre@@
cadu@@
caerse
caes
cafés
calefactor
calentar
calmar@@
calo
calorías
caluro@@
camar@@
camarera
cambiamos
caminas
campeona
campera
campus
cani@@
canoa
cansadas
cansé
cantaban
cantara
características
cargado
carica@@
carpeta
cartel
categoría
caña
ceb@@
cebras
celebramos
celebrando
celebró
ceno
centavo
centavos
ceps
certeza
cesto
chados
champán
chapo@@
charcos
chense
chirri@@
chivo
chon@@
cidades
cip@@
circul@@
circun@@
cis@@
citado
ciudadana
civili@@
civilizaciones
cle
clo@@
cobar@@
cober@@
cobi@@
cocinas
codifi@@
coinciden
col
colaboración
colec@@
colinas
colocado
colocar
colocó
comb@@
comba@@
combustión
comería
comiera
compartió
compens@@
compi@@
complejas
completas
comprarte
compulsivo
comunican
comunicarse
conced@@
concentrarse
concep@@
concluir
condi@@
conducido
conduzca
conexiones
conf@@
confec@@
confu@@
confunden
confían
conmovido
conquista
conseguimos
conseguía
considerable
considerados
considerando
constelación
constituye
construye
construyen
contabilidad
contenía
conti@@
contradecir@@
contradic@@
contrataron
conversión
convin@@
corpulento
corrido
corrompe
cortando
costas
costillas
cotille@@
creador
crean
creando
crecieron
crezcas
cruci@@
crudos
ctivo
ctora
cuadrados
cubeta
cuervo
cula
culos
culpabilidad
culpando
cultiv@@
cultor
cum@@
curr@@
curre
curry
custo@@
cuyos
célebre
dactilares
dadores
daje
dalos
danés
daremos
debieron
deca@@
decirse
deció
decorar
dedicar
dedora
dedores
defec@@
defenderse
defiende
definido
dejarla
dele
deletre@@
demandó
demócrata
deo
departam@@
depend@@
deprimida
depósito
derribó
derritiendo
derritió
derrotar
desafortunadamente
desaparición
desarrolla
desbor@@
descansando
descarga
descendencia
descompuso
desconcer@@
descubren
deseamos
deseas
desemboca
desesperación
deshacerse
despacho
despedi@@
despedidos
desplu@@
despo@@
destrozado
destruye
diabetes
diabético
dialectos
diarrea
dicó
did
die
difunto
digesti@@
dijeras
dilla
dillo
dilo
dimensión
dimiento
direct@@
discreto
disculparte
discusiones
discutieron
discutió
diseñado
disgust@@
dispuesta
distante
ditos
divertiste
divertí
diviertas
divina
divirtieron
diámetro
dob@@
doblando
doct@@
domésticas
dorada
dormi@@
dormitorios
duraz@@
déjalo
dóneme
earse
ebr@@
ecas
echan
eciendo
economi@@
ecuaciones
educativo
egue
ejecutado
elec@@
electo
elfos
embarazo
embotellamiento
embre
emocional
empeora
empieces
empujar
enamorarme
enamorarse
encontremos
enfermeras
enfr@@
enfri@@
enjuag@@
enlo
enorgulle@@
enrique@@
enseñaste
enseñe
enterraron
enton@@
entregué
entretenimiento
entristece
entume@@
entusiasmados
enviados
enviando
enviarle
envuelto
envía
enérgi@@
eos
equivalente
erizos
escand@@
escarabajos
escogió
escritas
escrí@@
escuchamos
escupió
esfera
esforzado
esia
espagueti
espectadores
espiritual
espos@@
espé@@
esquiando
esta@@
estab@@
estal@@
estamente
estancia
estatuas
estofado
estornudó
estrangu@@
estre
estribos
estudiamos
estudies
estímulos
etes
evito
evitó
exagerar
excesivo
exclamó
existente
existiera
exoplanetas
exponer
extraer
extraterrestre
extrañamos
ey@@
ezas
eño
fabricado
factores
fallos
falsedad
falsos
faltaba
fanático
farr@@
fax
feli@@
femenina
feri@@
ficiente
ficios
fijo
file
filipino
fiscal
flechas
florecen
flotar
formaron
forzada
forzar
franque@@
frecuente
frenar
frigo
frotó
frutillas
fugaz
funcionaba
fundador
fundament@@
fundió
furiosa
furry
fusión
fá@@
físicas
físicos
gam@@
ganamos
ganancia
ganaría
ganlo
garant@@
garantizo
gase@@
genas
genios
geología
ger
gias
gin@@
giste
gn@@
golon@@
golosinas
golpeado
golpes
grabada
graste
gratuita
gratuito
gritos
grosera
gráficas
guardaespaldas
guieron
guis@@
guiso
gur@@
gura
gusano
gusanos
gustar@@
gustarle
gustaron
gí
haberos
hado
ham
hartos
hechizo
hembras
heroína
hi
himno
historial
homosexuales
honestas
honrado
hormiga
horribles
horror@@
hospitali@@
huecos
hía
húmeda
icono
identi@@
idéntico
iglesias
il
imagina
imaginado
imaginario
imaginarme
imperio
impredecible
incapaces
incau@@
incompetente
incremento
independi@@
indescripti@@
indican
indign@@
indios
indis@@
industrias
iner@@
inesperadamente
inevi@@
inferi@@
infi@@
infinita
infinitamente
inflación
informar
informática
informáticos
infrin@@
ingeniera
ingeniería
ingo
ingrediente
inmenso
inmune
inqui@@
inquie@@
institu@@
instru@@
instrucción
intelectual
interesó
interrumpirme
interrup@@
intersección
interven@@
introvertido
intu@@
invencible
inventada
inversiones
invertir
inyec@@
iris
irresponsable
ismos
itario
itores
itu@@
ité
iza
izo
jaleo
jame
jarabe
jardinería
jarnos
jimos
jodiendo
judo
jueces
jugada
juntan
juntarse
klingon
lacrimó@@
ladró
lami@@
last@@
latina
latir
lavaba
lavarropa
lavé
legado
legi@@
legis@@
lesionó
lev@@
levantando
libra
ligente
limitaciones
limpiara
limpie
lingüístico
litera
literal
litros
liza
llamaban
llamaría
llegaré
lló
losa
lumbr@@
lunar
ly
maciones
madas
maestras
maj@@
maleducado
malinterpre@@
malvaviscos
mamente
mangos
mapache
maquin@@
marcharse
marcial
margar@@
margarina
marion@@
maris@@
masacre
mascar@@
matas
materialista
mayúsculas
mecano@@
med@@
mediados
melanc@@
melocotón
mendi@@
mentación
mentirte
merecido
mesero
metes
mexicano
mia
mienta
migración
mimado
mine
mineral
minero
minorías
miso
misterioso
mobiliario
molestan
molestas
morirme
morirás
mostaza
mostrador
mudar
mudé
muelle
mulo
munici@@
mán@@
médula
món
nacen
naran@@
nat@@
naufra@@
navideños
necesitado
necesitarás
negarlo
negociar
ner@@
nicamente
nitrógeno
nostalgia
nostálgico
notablemente
numer@@
náhuatl
obedece
obsequi@@
obstinado
obtuve
oci@@
octavo
oculista
oculto
odiaban
oficialmente
ofrecen
ole@@
ombligo
online
ono@@
oport@@
optimismo
organismos
organizó
orto@@
oscureci@@
oscureció
oyen
oyendo
oyeron
pague
paja
pajarito
palabrotas
paneles
panza
parara
pararse
parecería
participantes
pasatiempos
patata
patinaje
patines
pañuelos
pegadi@@
pegué
peli
pelot@@
pensab@@
pensaban
perfec@@
perfectas
persa
perseguido
pertenecer
pesas
peti@@
pidiera
pijamas
pilchas
pillo
pioneros
pisar
planeamos
planeo
planificación
plata@@
pochoclo
podrida
polle@@
portazo
portuguesa
portón
porvenir
posesión
pospuesto
potente
prado
pre
predicciones
prejuicio
preocupaba
prepa
preparación
prescin@@
presentarme
presidencia
prestados
priv@@
procrastin@@
profundos
progre@@
prometer
promo@@
prosperidad
próspero
psíqui@@
publicada
pudiese
pulgadas
pér@@
píl@@
públicas
púrpura
quete
quia
quisquilloso
quitaron
quitarte
quites
quité
quédate
quía
racistas
rapidez
reaccionar
recado
recer
rechaza
recibiste
recic@@
recientes
recogerme
recogiendo
recomienda
reconocer@@
record@@
recorrer
recuerde
recuerdes
recuperarás
reformas
regalado
regando
regreses
rehenes
relevante
remol@@
rendirme
reportes
representante
reprobó
rescat@@
rescatar
restri@@
resuelve
retrete
reunido
reunimos
revisando
rez
rida
ridicu@@
rindo
roba
robados
roncar
ropas
rui@@
ruleta
rumorea
sacando
sacas
sacudirse
sagr@@
saldría
salmón
salpicó
saltamontes
saluda
salve
sand@@
santos
saron
sculo
secretario
sendero
sensa@@
sensibilidad
sentenciado
senti@@
sentirás
servar
seáis
sible
siembra
sigilosamente
significar
silbando
silvest@@
simp@@
simpatía
sinago@@
sirena
situado
sió
sobornar
sobr@@
sobren@@
sobrinos
sofi@@
solicitar
sombr@@
somno@@
sonaba
sonreía
sonrojó
sonríes
soplaba
sostienen
sostuvo
soñador
stra@@
stración
stros
stru@@
stu@@
subas
subida
sucesor
sud@@
suegro
sueltes
sueñ@@
sugerir
sugiero
sun@@
supre@@
suspendieron
susurr@@
sá@@
sílaba
súbitamente
tacto
taló
tamaños
tantes
tato@@
teca
temblaba
temperamento
tentes
teras
terminando
territorios
teñido
th
ticamente
tiem@@
tientes
tirada
tirano
tirle
tocan
todo@@
tolero
tomara
ton
topó
torció
tore@@
tornillo
tortilla
tortura
torturaron
tosas
traerá
traes
traición
tranqui@@
transforma
transmitir
transporta
traten
tray@@
tremenda
tremendamente
trimestre
trin@@
trit@@
trivial
tubería
tumb@@
típica
tóxico
ubicación
ubicado
ucraniano
ueba
ukelele
unicornio
universitarios
urgencia
uros
usto
utilizada
vaciones
vació
vagabun@@
val
valdr@@
vales
vals
vampiros
vanidad
var@@
vasto
velo@@
veme
venas
vendemos
vendrías
venenoso
venís
veres
verso
vertical
veíamos
viajan
vicios
vietnamita
villancicos
villano
vin@@
visitarle
volvamos
votación
votado
vías
wa@@
yera
yidis
zcamos
zumbido
Ábre@@
Éstas
álido
ándo@@
ándola
ángulos
ánico
éc@@
émosle
ésima
íd@@
íe
ír
ísticos
ñones
ógicas
ógrafa
ólogos
órtate
úas
00.000
1,@@
1950
1980
1989
2.@@
2000
2011
2012
3.000
30@@
32
48
Abor@@
Aborrezco
Acuérdate
Afganistán
Agu@@
Agua
Agárrate
Ahorra
Aires
Alab@@
Alej@@
Alquil@@
Ameri@@
Amigo
Amor
Andrea
Ania
Anota
Ap@@
Apareció
Aristóteles
Asistí
Atención
Atrapé
Aví@@
Ay@@
BBC
Bajen
Bas@@
Bebemos
Bell
Ben@@
Bienvenidas
Bil@@
Bol@@
Bon@@
Buscamos
Bébete
Camarero
Canal
Cantamos
Captur@@
Carl
Cenicienta
Cogió
Colec@@
Cometiste
Compara
Compartimos
Comple@@
Comprendí
Coméis
Conduce
Conducir
Conocía
Considera
Continúe
Contra
Contribu@@
Conté@@
Costó
Cra@@
Crecí
Cri@@
Cuar@@
Cuéntanos
Cógelo
Cóm@@
DNA
Damas
Daniel
Daré
Decidimos
Decime
Definitivamente
Dejadme
Dejo
Desayunamos
Despiér@@
Detroit
Detén
Ding
Dondequiera
Dormimos
Dormiste
Duer@@
Dulces
Durmió
Dígale
Eleg@@
Empu@@
Encuentra
Enseguida
Eris
Escal@@
Espa@@
Esperar
Esqui@@
Estudiad
Euro@@
Evita
Fanta
Firme
Frank
Fre@@
Ganamos
Gar@@
Gente
Ger@@
Gire
Grita
Hablaron
Hablaste
Hacé
Hashimoto
Helsinki
Hombres
Hágame
Hércules
III
Imagínate
Is@@
Ito
Jac@@
Jean
Joder
Juli@@
Jur@@
K
L
Lan@@
Latinoamérica
Lejos
Len@@
Lituania
Llamaste
Llamen
Llamá
Llevaré
Llorar
Llovía
Lástima
Léelo
M
MP3
Maestro
Magos
Marcos
Marta
Matar
Maté
McDonald
Medi@@
Mil@@
Mina
Miramos
Mr
Muerte
Mánd@@
Natur@@
Neg@@
Nieva
Niños
Noche
Nochevieja
OVNI
Ol@@
Oxford
Palacio
Panamá
Paraguay
Parte
Pará
Pasado
Pasará
Patri@@
Pedimos
Pensó
Perdieron
Perdóname
Personalmente
Piedra
Pien@@
Piense
Pier@@
Piotr
Pis@@
Pit@@
Plant@@
Podía
Ponle
Poné
Por@@
Pos@@
Prefi@@
Pregunté
Prot@@
Pudiste
Quedarse
Raramente
Recibimos
Recibió
Reco@@
Reconocí
Renunci@@
Repe@@
Resu@@
Retro@@
Robin
Rojo
Rumania
Rín@@
Rómp@@
Saldré
Salta
San@@
Sat@@
Segui@@
Sentate
Serías
Signifi@@
Siria
Soli@@
Sostén
Stephen
Subí
Sudamérica
Sufro
Suger@@
Sujé@@
Supón
Sál@@
Tal@@
Testamento
Tocas
Traeme
Traiga
Tranquilízate
Trató
Tur@@
Tá@@
U
Veis
Viajo
Viajé
Vig@@
Vio
Vir@@
Vivís
Volamos
Vuelva
War@@
William
X.
Yo@@
_
a.m.
aba@@
abad
abades
abandonados
abdomen
abil@@
abilidad
abilidades
abofe@@
abogada
abrevi@@
abrirse
abru@@
abueli@@
abuso
acabando
acabaste
acampada
aceptara
aceptará
acercando
acompañarme
acompañará
acompañe
acordé
acostar@@
acostumbra
acostumbras
acreditación
actitudes
acumuló
acusada
adecuados
adhes@@
adivina
admiraba
admiran
adol@@
adon@@
adopta
adoptaron
adorables
adulta
aeropuertos
afe@@
afirmación
agarrar
agencia
agradar
agradecida
agujas
ahorcó
aislado
ajedrecista
ajetreado
ajusta
alac@@
albañiles
alcantarilla
alcanzaron
alcohólico
alegró
algoritmo
alivia
alizando
allas
alum@@
alza
amaz@@
ame@@
amenazas
ames
ampu@@
amuleto
anci@@
ancla
and
andro@@
anglo@@
anilla
anj@@
anotar
ansiosa
anticoncep@@
antisemita
anzu@@
anécdota
apago
aparcado
aparcó
aparezca
aparición
apio
aplausos
aplazado
app
aprecia
apreciar
aprenderá
aprendieron
apres@@
aprieta
aprobada
apropi@@
aprovechó
apu@@
apuntar
apó@@
arca
arist@@
aritmética
arm@@
arma@@
armados
armi@@
arquitec@@
arra@@
arrendar
arrepentido
arriesgar
arriesgó
arruina
artística
arándanos
asegurado
asesinar
asistiré
asombro@@
asquer@@
astrología
asustar
atac@@
atem@@
aterri@@
aterrizaje
atl@@
atraviesa
atrevi@@
aturdido
audita
aus@@
ausentó
austr@@
auto-@@
automovilí@@
automática
autén@@
autó@@
auxiliar
auxilio
auxilios
avanza
avanzó
aven@@
averiguarlo
avisp@@
avispa
awa
ayudaras
ayudarás
ayudase
baches
bailar@@
bambú
banana
bananas
bandas
bandido
baraja
barbaridad
barriga
bas
batall@@
batallas
bati@@
batió
bañaba
belo
belén
beneficia
bert
besarme
best@@
bichos
biendo
biera
bisabuelo
biste
bistec
bita
bito
bitos
blan
bloque
bocadi@@
bocadillo
bolu@@
bombarde@@
bragas
brasilero
brasileños
brindis
brisa
bromear
bronce@@
bronceado
brócoli
buf@@
bulli@@
burla
buscarlo
búlgaro
cacahuete
cagando
caigas
cala
calentamiento
callaron
calló
calmar
calzones
caló
camale@@
camelo
camines
campesinos
cancha
cangre@@
cansando
cantaron
carca@@
carcajada
carden@@
cardio@@
cargada
cargó
carnos
carri@@
casaré
caspa
castellano
castigados
catalán
categorías
causada
caver@@
cañón
cederá
celosos
ceniza
centen@@
cerebros
cerezas
cerraste
chavo
chera
chocolates
chubasquero
ciempiés
ciente
científi@@
cierres
cionaron
cionista
cioné
circulación
ciríli@@
cisne
coca@@
cocodrilos
cogi@@
coleccionaba
colegios
colonización
comadreja
comamos
comeré
comiences
comod@@
comparar
compartirlo
comparto
compe@@
competiciones
complac@@
complicados
comportó
compran
comprarla
comprará
comunistas
concur@@
condado
condena
condenada
conectadas
conectados
confin@@
confundida
conoc@@
conoci@@
consejero
consiga
constantes
consti@@
consuelo
contaminada
contaría
contestado
continua
continuo
contribución
contuvo
contártelo
conveniencia
convers@@
convertir
conviene
coron@@
corporal
corpus
corrección
corregir@@
corrup@@
corruptos
cortarte
corteza
cosita
coños
creados
creciente
crecía
creencias
creyente
cruasán
crust@@
crío
ctos
cuadernos
cualidades
cuan
cubos
cuelga
cuen@@
cuentan
cuesti@@
cuestiones
cuidan
cuide
cuido
culparme
culparía
cultivar
curado
curva
cálculo
cár@@
cé@@
círculos
cómics
cómodamente
dal
dal@@
danos
dante
dat@@
dañinos
deba
debiera
dece
decepcionada
decidas
deciden
decír@@
dedicado
dedu@@
dejarlos
dejéis
delantera
delincuencia
delincuente
delirio
delitos
delo
deman@@
democrático
dentadura
dependencia
depositó
depre@@
depresión
derramada
derri@@
derrumb@@
desacuerdo
desafin@@
desafortunado
desarrolló
desató
desayunas
desayuné
descarri@@
descendientes
descubierta
descuidada
descuido
dese
desee
deses
deshacerme
deshacernos
deshonesto
desiertas
desilusionado
desmantel@@
despiertas
despiér@@
desple@@
despre@@
determinado
determinar
detest@@
detesto
detiene
devolv@@
devolviera
devolvieron
deza
diagon@@
dibuja
dicha
digáis
dillas
diminu@@
diplomática
diremos
discapacitados
discoteca
disfrutarlo
disgusta
disminuye
disminuyendo
distas
dividió
divino
divir@@
divorciar
divorciarse
diá@@
dobl@@
doblaje
documental
doli@@
dolido
donó
dormilón
dormiste
doro
dosos
dotes
dra
dram@@
drome
dudoso
dudé
duer@@
duramente
durmieron
dárselo
décimo
déj@@
eamos
ebere
eci@@
eciera
ecos
efectiva
eficaces
efici@@
egipcio
ejemp@@
ejemplares
electrónica
elegiste
elig@@
elija
elogios
elá@@
embarazadas
embo@@
emboscada
embri@@
embu@@
empa@@
empezara
empinada
emplea
enamorarte
encantaban
encantada
ence
encial
enciclopedia
encontrados
encontrarán
encontraré
encuentros
encuesta
enfadarse
enfermas
enfrenta
enfrentar
enfriado
engendra
enigma
enseñaron
ensu@@
enséñame
enta@@
entales
entendías
enteramente
enterar
enterrada
entrara
entregado
entrevi@@
enviarlo
enviarme
envidio
enz@@
eo@@
equilibr@@
equivocó
eridos
erra
erróneo
escabulló
escamp@@
escarcha
escaso
esclava
escocés
escondernos
esconderte
escritora
escritores
escéptico
escú@@
esenci@@
espacios
especializ@@
especta@@
espeluznante
esperantistas
esperaremos
espon@@
esponja
est
establecido
estacionó
estampilla
esteroides
estirar
esto@@
estornudando
estra
estrelló
estren@@
estricta
estros
estupefac@@
estándar
evacuar
evange@@
evapor@@
eventu@@
exagerando
excesivamente
excur@@
exhibición
exigencias
exitosos
expen@@
experta
explotación
expresan
expresarme
expresarse
extendido
extinguido
extinguieron
extremi@@
facial
falto
famosas
farsa
fas
fat@@
feas
fel@@
fes
ficada
ficti@@
figuras
fili@@
fing@@
firmaron
flir@@
flor@@
flujo
fogata
fotográfica
fotogénico
frambu@@
frasco
fre
fres@@
fumes
funcionamiento
fér@@
fóbico
gabinete
galería
ganaré
garantizar
garemos
geme
generaciones
generaliz@@
genialidad
gestión
gia
gible
gigantes@@
gilipollas
girando
giras@@
gire
giré
gl@@
goci@@
golfista
grabadora
grabar
gramo
granjas
groserías
gráficos
guapas
guardaré
guardo
guemos
guitarras
guiñó
guár@@
güeña
habitada
hablador
habláis
habérmelo
hacías
hallado
hebre@@
hembra
heredero
hisp@@
hispano@@
hogares
hoje@@
hombre@@
homen@@
homó@@
honores
horizontal
hornea
horneando
hosti@@
hubiésemos
huerto
human@@
humillado
háblame
húme@@
húngara
iPhone
ica
identificado
ies
igual@@
ilas
iluminada
ilusiones
imperdonable
importas
importe
importó
imposibles
impotente
impresionada
impresionó
imprudente
inapropiado
incentiv@@
inci@@
incrementar
incu@@
incumbencia
independientes
indicó
indirect@@
individuales
indul@@
inesperados
infa@@
infelices
ingenioso
ingenu@@
ingu@@
ingü@@
inicia
iniciales
inmigrante
innov@@
inquiet@@
insensato
inseparables
insol@@
instalaciones
insultado
intelecto
intensidad
interesaba
intimid@@
intoler@@
intolerancia
intolerante
intoxi@@
investigaciones
investigador
invitarme
invitarte
invito
irla
irrelevante
irresistible
ites
izado
izó
jaba
jadas
jalo
jaste
jeras
jet
jico
judaísmo
juvenil
juzgado
jé
ker
ladrillo
lamentaba
langostas
lasti@@
leal
legí@@
lengu@@
lentos
ler
lesion@@
lesionado
levante
liberar
libertades
libreta
limitar
limonero
lin
list@@
litos
liviano
llantas
llate
llorés
llovía
localizar
locas
logos
lograrás
logías
lojban
lombri@@
lti@@
lucen
luciérnag@@
lustr@@
lé@@
líderes
líquidos
maba
madr@@
madru@@
madrug@@
madrugar
maldad
maldito
malgastes
malhumorado
malig@@
malv@@
mama
mandaron
mandaré
mandos
mane@@
manif@@
manifest@@
manipular
mantenga
mantienen
manuscrito
manzanos
manía
maravillosamente
maravillosos
march@@
marcharme
marcharon
mareo
marinas
masaje
mayo@@
mayonesa
mecánico
medicin@@
medieval
medimos
mejoras
mencionado
meras
mercadillo
mercados
metiendo
metiste
metálico
mezc@@
miau
mic@@
midos
militar@@
minifaldas
minorit@@
minúscu@@
miradas
miren
mirlo
mití
mix@@
modernas
monas
mono@@
monum@@
morder@@
moreno
morirá
moría
moslo
mov@@
moviendo
muchísima
mudamos
mudanza
muelas
muerdo
mueres
muertes
mueva
muri@@
murmur@@
mági@@
mármol
mático
mé
méteme
nai@@
nal
natalidad
naturalmente
navideñas
near
necesitabas
necesitáis
necesitás
negaron
neol@@
neumonía
neumáticos
nevada
ney
nobles
nombraron
nuera
náuseas
núcleo
obedeci@@
obligar
observado
obses@@
obsesion@@
ocuparse
ocuparte
ocurriera
odor@@
ojeada
olvidando
olvidarte
olvidará
ombre
onia
optimistas
opía
oral
orar
orgullosas
oria
oridad
originó
ormente
orígenes
oscurecido
ote
otorga
padece
paella
paisajes
palíndro@@
parabrisas
paran
parciales
parecieron
parecéis
parlament@@
parlan@@
paré
pasa@@
pasarlo
paseando
patito
patriotismo
pecador
peculiares
peda@@
pedirlo
pelaje
pelirroja
pendejo
pensaron
per
percaté
perdería
perdidas
perdonamos
perdonara
perdonarle
perdone
perfeccionista
perilla
perio@@
permites
perplejo
perseguir
persigue
pertenezco
pertin@@
peru@@
pesan
pescó
pi
pidi@@
pincel
pion@@
pipí
pito
planchó
planos
platicar
plural
poblado
pocilga
polares
ponernos
porno@@
portado
portes
posi@@
posti@@
posó
preciosos
preguntaste
premos
preocupan
prepararnos
preparándose
preparé
presenta
presentarle
presidencial
presun@@
primar@@
privadas
proble@@
profetas
profun@@
profundi@@
promin@@
promoción
propa@@
proporcionan
propuesto
protege
protegen
protestas
proteína
provee
proverbios
provincia
provisiones
provocado
proyectos
prue@@
pruebo
próxim@@
psicol@@
pterosaurios
pudri@@
puntiagu@@
puntualidad
puramente
quebrar
quechua
quemaron
queramos
queridos
queros
quete@@
qui
quillo
quitado
quitamos
radica
radical
ral@@
rall@@
rastre@@
ratos
raya
rear
reas
rebanada
rebo@@
reca@@
rece@@
recepción
recetas
recibiendo
recolect@@
recomi@@
recordaré
recorrió
recuer@@
recuperado
recámara
redujo
reemplazar
refería
refi@@
refresco
refuerzos
regado
regresaron
rehus@@
reinado
rejas
relacion@@
relato
relev@@
relleno
rendir
reno@@
renovar
renuncia
repasar
repentino
repitió
repli@@
reposar
republicanos
repuesto
reservada
resfriar
respirando
resplan@@
retó@@
reunieron
reunirse
revis@@
revólver
reía
reído
rid@@
rilla
ritos
rivales
rizado
riéndose
robé
rodea
rodeaban
rome
románticas
ronca
roncando
rosado
ruin@@
rusas
rutas
sabiamente
sabore@@
sacapuntas
sacarle
saci@@
sacri@@
saldré
saliste
saludaron
sanguínea
sapo
sarcasmo
sastre
satisfactor@@
satisfactorio
satélites
sco
secuencia
secundarios
seguían
sencillas
sentadas
sentirte
sentiría
seros
serville@@
sexualmente
señor@@
shi@@
sibles
siembras
sig@@
sili@@
simili@@
simpati@@
sindica@@
sinónimos
sis
ski
sky
sobrante
sobres@@
sobreviven
sobrevivido
sobrevivientes
sociedades
solito
solías
sombrilla
sonre@@
sonrisas
sonro@@
sorprender
sospechar
sper@@
stein
sterio
stete
stin@@
stor@@
strado
strame
stán
subirse
subra@@
suceso
suelta
suer@@
suicid@@
sujetos
suministr@@
sup@@
supera
superioridad
supervivientes
sura
sure@@
surgen
suscrito
sér@@
síntesis
tac@@
tailandés
tala
talentos
taran
taro
tartas
tas@@
taselo
tat@@
tatu@@
tazón
tejido
telas
tembló
temer@@
tempestad
tempor@@
temían
tendió
tenme
terapeuta
terrestres
terrorista
terse
tesoros
testimonio
tibia
tierno
tij@@
tija
tiraron
tiras
tocara
tolerancia
tona
top@@
toqué
toquéis
tormen@@
tornillos
torres
tosiendo
totalidad
trabajaban
tradi@@
traduciendo
traductora
traduzco
traicionaste
trajera
tranquiliz@@
transgénero
transmiten
trasladó
trastes
tratamientos
travi@@
trepar
triunfará
triz
tros
tráeme
ts
tta
tuerto
tuosa
turb@@
turístico
tuvi@@
tá
tár@@
tías
ucrani@@
ultra@@
une
unida
universidades
unto
usadas
usé
valija
vani@@
vegano
vej@@
vejiga
venderlo
verdaderas
verificar
verán
vestía
veter@@
vicioso
vidades
vientre
vig@@
vinagre
violentamente
virtual
visitara
visitará
vivan
vivienda
vivientes
viviera
vivís
vocales
volador
voladores
volcó
volun@@
volverte
vomit@@
votantes
votos
vu@@
vuel@@
vídeos
vó@@
w
wi@@
yamos
yan
zante
zapat@@
zcas
zombis
zurdo
Ángela
Érase
áculos
ánimos
áreas
ásemos
áñame
ão
érica
és-@@
ésemos
ículos
ídete
íficos
ígu@@
ímos
íntima
íntimos
íritus
ógrafo
ómano
ónicos
úl
úlla
únicas
12@@
1492
186@@
1945
1992
200@@
201@@
2020
2021
45
75
8.@@
911
Abraham
Acér@@
Agár@@
Ah@@
Ahor@@
Ak@@
Akiko
Andalu@@
Andr@@
Andy
Ankara
Apple
Ariel
Atlán@@
Ayu@@
Barack
Bast@@
Bat@@
Baya
Beb@@
Bes@@
Biden
Br@@
CO
Canc@@
Cari@@
Cast@@
Cat@@
Cathy
Char@@
Cla@@
Columbia
Conf@@
Cur@@
Cuí@@
DVD
Desayun@@
Diana
Dibu@@
Eng@@
Eric
Expl@@
Fun@@
Galicia
García
Georgia
Greene
Hans
Haumea
Haz@@
Helena
Histor@@
Hitler
Houston
Idi@@
Instagram
Ira@@
Isabella
Itali@@
Jef@@
Jeff
Joh@@
Just@@
Karl
Kato
Kenji
Ki@@
Lean
Leonardo
Lev@@
Liisa
Lin@@
Lis@@
MS
Marc
Marcus
Masha
Mur@@
Must@@
Mí@@
Nat@@
Ogawa
Oleg
Peli@@
Perdon@@
Pharamp
Pisa
Pl@@
Pla@@
Plat@@
Pol@@
Rafael
Recu@@
Repent@@
Respe@@
Rol@@
Ronaldo
Ró@@
Santiago
Sar@@
Serbia
Soci@@
Sofía
Sost@@
Stefan
Street
Super
Susie
São
Takahashi
Tango
Tes@@
UU
Ul@@
Ur@@
Vancouver
Vasili@@
Vati@@
Vay@@
Wil@@
XXX
Xi@@
Yoshi@@
Zar@@
ac
acel@@
acio
aconte@@
acri@@
ade@@
adje@@
adul@@
aero@@
agra@@
ajas
aki
alcohóli@@
ambigu@@
anca
andes
andro
ang
angu@@
anun@@
apro@@
aristo@@
armon@@
arrog@@
asin@@
astróno@@
aten
atura
audio
auti@@
avalan@@
ax@@
aza@@
bag@@
banjo
batas
beme
bien@@
bisab@@
blado
blas@@
box@@
brasil@@
caball@@
calam@@
calami@@
campe@@
cancer@@
carav@@
casu@@
cata@@
catal@@
católi@@
cav@@
ceros
chan@@
chap@@
chur@@
cian
cid@@
cigar@@
ciles
cimo
cintur@@
cister@@
ciudad@@
click
clon@@
codi@@
cof@@
compon@@
compos@@
confis@@
confron@@
consid@@
conson@@
constel@@
contamin@@
contradict@@
contrase@@
conveni@@
convir@@
corpo@@
correg@@
cosmos
country
cua
cuadr@@
culpe
cun@@
curio
cán@@
cí
cón
dear
decide
deco@@
defend@@
dense
dent@@
depil@@
dequiera
deras
descifr@@
desem@@
desig@@
desilu@@
desorient@@
det@@
deterior@@
dev@@
devast@@
dian
dibuj@@
difer@@
dificul@@
dig@@
diploma
disfraz@@
dle
dney
dosci@@
dre@@
drin@@
dín
e4
e5
eced@@
eder
edra
ees
efica@@
elve
emergen@@
emite
enciclo@@
enig@@
enséñ@@
entras
entrist@@
entu@@
erci@@
erdo
erg@@
erismo
esar
escol@@
escuchar@@
escé@@
esfuer@@
espiri@@
estrat@@
estro@@
estupen@@
eter@@
euro
eve
exam@@
exci@@
expul@@
extre@@
eyes
eña
factor
fan
federal
femin@@
feos
fer
fertiliz@@
fest@@
fi
fici@@
ficit
files
fista
flori@@
fos
frust@@
ful@@
fusible
gante
gavi@@
ged
genoci@@
gimna@@
gno@@
golo@@
guil@@
gáis
heli@@
hermo@@
hibern@@
hir@@
homi@@
honor@@
hormi@@
hurac@@
hué@@
iPod
idades
ido@@
ifi@@
igü@@
ileg@@
ili@@
impu@@
inada
inal
incid@@
incl@@
incur@@
industri@@
infiltr@@
ingada
ingeni@@
inno@@
innumer@@
inoc@@
insom@@
integr@@
intersec@@
intest@@
into
invo@@
ion@@
ire
irregular
judicial
juicios
ka@@
kin@@
kiwi
labi@@
labor@@
ladi@@
ladri@@
lame
lamiento
land
lanes
lechu@@
len
leo@@
liar
lib@@
ling@@
lingua
manipu@@
maravi@@
matri@@
mañ@@
mbra
mech@@
melo@@
memor@@
menos@@
mensa@@
menstru@@
mercan@@
mería
metr@@
metría
metáli@@
migrat@@
miko
mili@@
ministr@@
minton
mites
municipal
muscular
mó@@
nacion@@
nate
nea
ner
nes@@
neutral
nia
nis
noble@@
nostál@@
ocurri@@
olo
omelet
omni@@
orde@@
orient@@
osis
our@@
panel
parado@@
particip@@
particular@@
paste
pate
pati@@
pav@@
pavi@@
payas@@
paña
pec@@
pecemos
peculiar
pedias
pelir@@
perfor@@
perfu@@
perple@@
personifi@@
petri@@
planifi@@
pm
podcast
poe@@
pollu@@
porcel@@
pren@@
presid@@
preven@@
primir
pring@@
priori@@
produc@@
propó@@
pru@@
ps
psia
pulmon@@
pí
ques@@
queta
quie@@
quila
quilombo
rapi@@
religi@@
remuner@@
rent@@
reuni@@
revol@@
reír@@
ri
rique@@
ron
rub@@
sable
sabot@@
sacer@@
satisfe@@
sci@@
scu@@
sedi@@
semi@@
serve
simo
simpli@@
sincer@@
sinfon@@
singular
sof@@
sp@@
spe@@
sped
stien@@
stoso
subi@@
subur@@
super
sáb@@
tail@@
talen@@
taros
tarot
terri@@
testi@@
tex@@
thi@@
ticket
tiliz@@
tismal
tobil@@
tocino
tora
tour
tractor
traducirla
traduzca
traduzcas
tragos
tragó
transbordador
transmite
transmitido
trastorno
traves@@
tril@@
trim@@
triple
triunfa
trivi@@
trofeos
trol@@
trope@@
tropical
trulla
tuberculosis
tubre
tum@@
tumbó
tun@@
turn@@
técnicos
tíos
udan
uflas
ulu
umbral
unieron
up@@
usur@@
uza
vacilar
vacíos
vajilla
valijas
valió
valos
vanidoso
varonil
vato
vegetari@@
vein@@
vencerás
vencidos
vencí
venda
vendes
vendida
vendí
vendía
venenosa
venenosas
veni@@
vent@@
ventoso
veredicto
vergon@@
vertebr@@
vestíbulo
veterinaria
vide@@
viej@@
vigilado
vikingos
viniese
visiones
visitarlo
visitaría
visor
vistos
vivamos
volaban
volaron
volaría
volteó
volvi@@
vueltos
vá@@
váy@@
vín@@
xenófo@@
xico
yar
yate
yecto
yentes
yerno
yes
yoga
zara
zarme
zaría
zate
zombi
zor@@
zum@@
zumb@@
ºC
Ánimo
Í@@
áceos
ácida
ácidos
ámos@@
ándoles
áneamente
áneos
ápo@@
ármela
árnoslo
árqui@@
ç@@
égame
élite
éndete
éndo@@
éndonos
éntesis
ép@@
érmenes
ícu@@
ículo
ídmelo
ífi@@
ínsula
írselo
ñada
ócrata
ófano
ólica
óloga
óndigas
óstico
últiples
úmbate
ún@@
úne
úpate
€
&amp;
--
119
180@@
1933
1941
194@@
1956
1969
1972
1976
1984
1998
1999
2004
2006
2008
2014
25@@
3,@@
3000
42
89
9.@@
Abo@@
Absolu@@
Adiv@@
Adri@@
Akira
Ala@@
Alaska
Albania
Alexander
Amanda
Ander@@
Apri@@
Apú@@
Arm@@
Arnold
Arri@@
Artificial
Augusto
Avi@@
Bali
Biwa
Bowl
COVID-19
Cambridge
Cap@@
Cele@@
Celsius
Centr@@
Cho@@
Complete
Conoc@@
Consegu@@
Const@@
Constitu@@
Curi@@
Dam@@
Davis
Deber@@
Deep
Demasi@@
Demo@@
Dep@@
Dil@@
Disney@@
Disneyland
Don
Edi@@
Elvis
Emper@@
Extr@@
FIDE
Federal
Felipe
Fern@@
Filiberto
Frank@@
Ga@@
Gal@@
Gast@@
Glenn
Graham
Green
Hal@@
Heather
Hollywood
Hyogo
Ido
Improvi@@
Inclu@@
Institu@@
Investig@@
Jason
Jessica
Johnny
Kal@@
Kathy
Ko
Koko
Kylie
Kyushu
Lat@@
Lava
Lego
León
Liren
Ll@@
Lojban
Lola
Lucas
Lé@@
López
MA@@
Mancha
Mantén@@
Markku
Mateo
Mes@@
Messi
Mini@@
Minogue
Mol@@
NASA
Nag@@
Naomi
Ner@@
Nick
Nintendo
Ok
Organiz@@
Orwell
Parra
Pep@@
Person@@
Philidor
Potter
Putin
Ra@@
Resist@@
Resul@@
Richard
Rick
Rio
Rápi@@
Sadako
Sapporo
Sarah
Sayoko
Scrooge
Sel@@
Sherlock
Shibuya
Shishir
Sici@@
Skype
Som@@
Sop@@
Sovi@@
Soñ@@
Stal@@
Sub@@
Sud@@
Susana
Sysko
Tai@@
Taiwan
Tel@@
Tir@@
Tommy
Tracy
Tran@@
Trang
U.@@
Uni@@
Vac@@
Vegas
Vie@@
Yam@@
Yuri
Z
Zamboanga
Zeus
aa@@
abomin@@
acerti@@
acon@@
admini@@
ado@@
aga
agan
air@@
ajetre@@
ajos
alcal@@
alco@@
alfo@@
alon@@
amig@@
amist@@
amon@@
ance
anch@@
anon@@
ant
anti-@@
antial
aní
apor@@
arbitr@@
arco@@
armar@@
arrepi@@
arro
articu@@
aránd@@
astero@@
atamente
atar@@
ato@@
atus
atón
aut@@
autom@@
avo
aw@@
aza
ballet
bast@@
bias
bibliot@@
bit@@
bombar@@
bran@@
bras@@
brero
bug
bul@@
bulo
bun@@
bí
cabili@@
cadores
cadá@@
camiento
candi@@
cap
capitali@@
carbon@@
care@@
casti@@
casual
caviar
cel
cere@@
ceso
chara
chita
chorizo
cid
circunst@@
cis
clam@@
claustro@@
clo
cm
coloniz@@
combusti@@
compren@@
compuso
configu@@
confli@@
cong@@
conju@@
conmo@@
contagi@@
continental
cor
corpor@@
correc@@
covi@@
crucial
cuidad@@
cías
cóp@@
dador
dase
data
decre@@
delincu@@
dentí@@
deposit@@
derrib@@
desilusion@@
diagno@@
diagonal
dimensional
dio@@
diplom@@
discapaci@@
discrimin@@
distor@@
distr@@
dormil@@
drama
dula
ebre
ecido
eck@@
econó@@
ede
eder@@
edonia
ef@@
eja
elen
elu@@
ema@@
eman@@
embro@@
emer@@
emin@@
empan@@
empanadas
empi@@
empla@@
endar
ended
enem@@
enj@@
ens
entamente
entreten@@
entro
enza
epidem@@
equip@@
erec@@
erró@@
esperanti@@
espl@@
estam@@
estan@@
estate
están@@
ever@@
exclam@@
excu@@
exha@@
existi@@
exqui@@
extingu@@
extravag@@
exu@@
fabu@@
fam@@
favor@@
ferre@@
ferro@@
ficaciones
filósof@@
flau@@
flexi@@
fli@@
fot@@
fraz@@
frica
gab@@
gel
gh
gli@@
glori@@
glu@@
gluten
graciadamente
graf@@
grafías
gráfica
guardi@@
haiku
ham@@
hero@@
higi@@
hind@@
hipócri@@
hiragana
ho
homo@@
honorable
hus@@
ideo@@
igh
igo
ili
ilu@@
impe@@
impostor
inate
inces@@
ind@@
indeci@@
inflam@@
inflexible
invali@@
invaluable
isbol
istán
ite
itor
izos
izqui@@
jec@@
jen@@
jim@@
kanjis
kilo@@
kimono
kin
koala
kus
lango@@
lateral
lavarro@@
lear
lear@@
legend@@
legu@@
ler@@
lete
leto
linter@@
liqui@@
live
livia
lor@@
lum
lám@@
mafia
magne@@
mantis
manuel
maras
matrim@@
medio@@
menes
mense
mensu@@
metá@@
migr@@
mm
moderni@@
modest@@
mple
mun@@
muni@@
mutu@@
mú@@
nam@@
natur@@
nin@@
noctur@@
ocular
olvidadi@@
omin@@
omit@@
ondas
ono
ony
opera
ot
pali@@
papaya
papel@@
part@@
parta
pasaj@@
pea
penicil@@
perca@@
persist@@
person@@
pertur@@
peta
ping
planc@@
podr@@
pong
pongamos
poni@@
poster@@
precau@@
prepare
presiden@@
presti@@
presume
prime
privi@@
proced@@
promet@@
pron@@
prostitu@@
prud@@
psi@@
pti@@
ptico
punk
pus
puzzle
puñe@@
párate
q@@
quet
quial
quina
quini@@
racial
radios
rap
read@@
reconci@@
redon@@
relu@@
remem@@
reper@@
reple@@
resig@@
respirat@@
restaur@@
retr@@
reí@@
ristas
rou@@
rover
rug@@
rí
saldr@@
sanguí@@
scen@@
semej@@
semá@@
series
set
sh
shi
shopping
sill@@
singular@@
sinu@@
situ@@
sién@@
smo@@
sonata
spec@@
sque@@
stal@@
stales
state
steri@@
stieron
stop
stre@@
subscri@@
sudo@@
surf
só@@
tablemente
tador
tazo
tece
tempest@@
tenor
terminal
tha
til@@
tima
tinas
titas
tito
tos@@
trab@@
transpor@@
trap@@
trau@@
trauma
tremen@@
tris
tudes
tumor
ty
tér@@
uela
ueve
ultras@@
unicor@@
unidades
untos
urgen@@
uten@@
uts
vampi@@
vaqu@@
veles
videos
violini@@
viru@@
volcan@@
volu@@
vulner@@
wa
yente
yle
yon@@
zap@@
zy
¨
Án@@
Ó@@
áce@@
ájate
átil
értelo
és@@
ísticas
óli@@
ónimos
óticos
úm@@
úni@@
úrese
ús
─
-M@@
00@@
03
10,000
123@@
180
1865
189@@
1921
1957
1963
1970
1975
1983
2-@@
2.5
2001
2002
2015
256
26@@
29
3.5
43
456
53
54@@
6-@@
66
700
72
776
85
86
97
Abra@@
Academ@@
Adver@@
Al-@@
Ali
AlphaZero
Alzheimer
Android
Angola
Antoine
Ao@@
Apro@@
Ari@@
Arthur
Atlanta
Atrap@@
Aviv
Az@@
BC
BI
Ban@@
Batman
Beat@@
Beijing
Bernie
Bieber
Bin
Bonaparte
Borges
Boris
Bot@@
Bou@@
Budapest
CIA
Carla
Carmen
Cay@@
Cel@@
Charlotte
Chu@@
Cir@@
Contin@@
Conver@@
Costa
Cristiano
D.
DE@@
DN@@
Dal@@
Damiano
Dana
Dar@@
Declar@@
Degas
Del@@
Delhi
Descartes
Devu@@
Dig@@
Dormi@@
Dosto@@
Dra@@
Dubai
Dum@@
Duolingo
Edu@@
Eduardo
Elisa
Ellen
Emet
Emmet
Emp@@
Eri@@
Escucha@@
Esteban
Estu@@
Exper@@
Express
Fant@@
Febr@@
Firefox
Fl@@
Flavio
Flor@@
Fred@@
Fri@@
GPS
Gam@@
Garry
Ge@@
General
Glo@@
Goethe
Gra@@
Gran@@
Guadal@@
Guam
Gustavo
Hak@@
Hamilton
Harrison
Hawking
Hen@@
Hiro@@
Hiroshi
His@@
Hmm
Homo
Ichi@@
Ikeda
Imperial
Industrial
Isab@@
J
JavaScript
Jen@@
Jenny
Joan
Jon
Jordan
Jud@@
Justin
Kabu@@
Kaoru
Kasparov
Kazu@@
Kelly
Kemal
Kevin
Kiev
King
Kumi
L.
La@@
Lad@@
Lady
Larry
Lei@@
Leonid
Les@@
Liber@@
Lili@@
Lily
Liszt
Lou@@
Louis
Luci@@
Luk@@
Luke
Luxem@@
Ly@@
Lyn@@
Mai@@
Mam@@
Manila
Manuel
Martin
Masao
Masaru
Medellín
Mej@@
Mem@@
Mich@@
Milton
Minecraft
Miroslav
Mis@@
Mont@@
Muhammad
Mumbai
Murphy
Nagano
Net@@
Nikko
Nina
OE@@
Obser@@
Of@@
Orle@@
Oscar
Pal@@
Pancracio
Parks
Peters@@
Petunia
Piz@@
Presi@@
Prin@@
Proust
Quite
RA@@
Ray
Reg@@
Rein@@
Rob
Salg@@
Salv@@
Samsung
Samuel
Sancho
Sas@@
Sasayama
Saud@@
Schopenhauer
Schubert
Scotland
Sebasti@@
Sec@@
Shin@@
Shinano
Siberia
Spi@@
St@@
Stan@@
Super@@
Supre@@
Sur@@
Sú@@
Tamori
Tay@@
Tele@@
Terr@@
Terrible
The
Tho@@
Times
Tirana
Tokyo
Translate
Truman
Un@@
Valencia
Victoria
Vinci
Watson
Whit@@
Wi@@
Wik@@
Windows
Yard
Zel@@
Zhuangzi
Zuckerberg
abais
abrup@@
academia
ache
acro@@
adecu@@
adillas
adiv@@
admirable
afron@@
agawa
ago@@
al-@@
alcoholi@@
alman@@
almo@@
ambulan@@
américa
ancos
andante
andi
anfitri@@
angular
antos
any@@
argel@@
ari
armen@@
arra
arregl@@
arter@@
aseg@@
ashi
ataca@@
atari
atiempos
ator
atí
atía
audio@@
aur@@
ayun@@
az
bab@@
bac@@
ball@@
balon@@
barbar@@
basti@@
bato
bear
bed
bete
bico
bido
bikini
bién
blin@@
boles
bots
brandy
bros
but
bón
caca@@
cadi@@
calle@@
carp@@
castellan@@
catalo@@
cedes
celebri@@
cem@@
cencia
centi@@
cerem@@
champi@@
chec@@
cheme
chester
chin
chocol@@
chol@@
cible
cifr@@
circular
civiliz@@
cles
clones
clu@@
cogni@@
combine
como@@
comodi@@
compati@@
compen@@
computa@@
coni
conse@@
consegui@@
conso@@
consoli@@
consum@@
coral
cose
cosquil@@
coti@@
creí@@
creíble
crimin@@
crip@@
cular@@
culo@@
cure
curru@@
cómpli@@
d4
dara
deces
deleg@@
dependi@@
descubi@@
descui@@
diag@@
diana
did@@
die@@
dill@@
disculpar@@
dista
doctr@@
dy
eba.@@
ebla
ecto
edas
edr@@
egip@@
eira
elem@@
eléctri@@
emas
embr@@
enan
endo@@
endos@@
ener@@
enju@@
enlo@@
ent
enten
entía
equival@@
erradi@@
erry
ers
escri@@
espect@@
estant@@
estatu@@
esterol
estrict@@
estruc@@
evacu@@
evo
exhau@@
exhi@@
expl@@
extradi@@
ezo
fade
fami@@
fasci@@
fear
fero@@
ferry
ficiales
figur@@
film
frey
fro
fursona
futbo@@
gaciones
galle@@
garé
gastes
gebra
gel@@
gela
geno
gent@@
gi
gico
gim@@
gol@@
gorri@@
grafo
grafos
grand@@
greso
grotes@@
guaca@@
guacamole
guap@@
gue@@
guiendo
haba
hacker
hal@@
hici@@
holo@@
host@@
hot
hú@@
húngar@@
ian
idamente
ie
impertin@@
impo@@
impre@@
incre@@
indefini@@
indivisible
indu@@
inexcusable
informa@@
informal
ingos
inmedi@@
inser@@
interest@@
intern@@
intru@@
intui@@
invertebr@@
involu@@
irrever@@
it
itamente
jalá
japon@@
jardin@@
jeros
jogging
kar@@
kebab
ker@@
kie
km
kon@@
lace
larg@@
lemente
leopar@@
lesbi@@
liberal
lie
ligencia
livi@@
lle
logan
maduro
magi@@
mahjong
mame
manu@@
manufac@@
manuscri@@
manz@@
masac@@
maso@@
materi@@
mea
meg@@
mez
mic
micros@@
migra@@
misteri@@
molecu@@
molé@@
moment@@
monot@@
more@@
moso@@
motel
moto@@
motos
muda
muj@@
musi@@
muñ@@
már@@
narr@@
nau@@
no-@@
note
oasis
obes@@
obvi@@
oca@@
occid@@
odies
oh
ok@@
oligar@@
olo@@
om
omas
onal
one@@
otea
otr@@
owa
pal
pantal@@
pari@@
patra
pear
pecé
peg@@
peli@@
perpetu@@
persuasi@@
pesi@@
piens
pió
place
plat@@
play@@
ple
ples
pobre@@
pollas
pool
pose
poses@@
pra@@
precede
prefec@@
premon@@
preocu@@
prestigi@@
prima@@
prodi@@
promis@@
propie@@
prosper@@
proteg@@
pré@@
ptimo
puertos
pulse
pupil@@
quez
quier
rati@@
reban@@
recep@@
rectangular
redund@@
reflexi@@
refriger@@
regional
rel
remedi@@
remot@@
rendir@@
renov@@
republi@@
repugn@@
resisti@@
rich
right
rigi@@
riko
ring
ris@@
ristina
rit@@
ritual
roomba
rtió
ruido@@
rum@@
sang@@
sax@@
scal@@
scri@@
segur@@
send@@
seren@@
seri@@
shire
sica
signific@@
sil
sima
sindi@@
sk
slo
sm@@
sob@@
sofía
solsti@@
soluble
sora
sospecho@@
spero
spray
stal
sterdam
stir
stol
stores
stras
streme
stro@@
subsi@@
sum@@
superfici@@
susur@@
tades
talos
teleno@@
telé@@
tender
tente
terior@@
tic-@@
tif@@
tigable
tili@@
timi@@
tin
tirás
toris
tornado
tragedi@@
trastor@@
tre
troll
trás
tsunami
tuber@@
tural
turbul@@
ude
uma@@
ur
urg@@
uri
uri@@
uro@@
ushi@@
ust@@
vaj@@
vege@@
vel
vemente
vencia
venidas
verdad@@
vere
vergonz@@
verti@@
ves@@
viable
vict@@
vidri@@
vigilante
viola
vuvuzelas
was@@
way
wer
xima
zbe@@
zhou
zi@@
zn@@
zodi@@
zugzwang
ß
ágil
ápi@@
árbar@@
áticamente
érco@@
értete
éx@@
ígeno
ísmo
ñón
ócr@@
ófo@@
ö@@
úbli@@
údame
ún
₂
ます
,000
....
.C.
1.5
149@@
1988
7.5
77@@
@
AC@@
AD@@
AT@@
Aaron
Accid@@
Air@@
Aj@@
Alex@@
Alister
Alpha
Alé@@
Ama@@
Andre@@
Andrew
Angela
Angeles
Ani@@
Antigu@@
As@@
Aten@@
BM@@
Benjam@@
Benjamin
Bien@@
Black
Bre@@
CO@@
Camar@@
Chuck
Compare
Compra@@
Cook
Correc@@
Cro@@
D.C.
Dani@@
Def@@
Depar@@
Descar@@
Det@@
Divide
Dul@@
Dun@@
Edward
Ei@@
Erdogan
Esca@@
Espé@@
Esther
F
FIFA
Ferdinand
Fo@@
Franco
Gen@@
Gener@@
Golden
Got@@
Grace
Greg@@
Gust@@
Had@@
Har@@
Hawaii
Hill
Him@@
Himal@@
Hin@@
Hotel
Hur@@
Indonesia
Ing@@
Inst@@
Interlingua
Introdu@@
Introduce
Iraq
Jaco@@
Jan@@
Jes@@
Joseph
Julie
Kyo@@
LG@@
LGBT
Lennon
Leon
Lib@@
Lidi@@
Lim@@
Lor@@
Lun@@
Maj@@
Matsu@@
May
Med@@
Mel@@
Memori@@
Micro@@
Miss
Mom@@
Mongo@@
Musk
Nicar@@
Nig@@
Nov@@
On@@
Once
Op@@
Ot@@
PC
PDF
Paki@@
Pau@@
Pek@@
Perfec@@
Permí@@
Pizza
Portugu@@
Profes@@
Q
Que@@
Ramad@@
Red
Regre@@
Respi@@
Rodri@@
Royal
Sahara
Sep@@
She@@
Shh
Sho@@
Sig@@
Solar
Sospe@@
Square
Suel@@
Superman
The@@
Time
Tit@@
Trans@@
U.
USB
United
Vari@@
Viv@@
W
West
Wo@@
XI@@
Yan@@
You@@
Young
Zu@@
abdi@@
ablo
acamp@@
accid@@
accident@@
ace
acondi@@
acta
activ@@
acuar@@
administra@@
aeroplan@@
afortun@@
age
ague
ai
ak
ako
albañ@@
ald
aleza
alérgi@@
amento
andra
antil
aper@@
aprue@@
ard@@
arth
asem@@
ashi@@
asol@@
aster@@
astro@@
atracti@@
atrop@@
ats
auri@@
avari@@
averi@@
ays
ayu@@
ayuno
bad
balance
bam@@
bana
band@@
bean
bel
bern@@
bet
bile
bilidades
bilingü@@
binocu@@
bipolar
bits
blia
blu@@
bofe@@
bomb@@
bour@@
boy
brate
busto
by
by@@
calab@@
calce@@
camping
cardin@@
cardo
carr@@
cate@@
cates
cendental
certifi@@
chale
cher
chof@@
cialmente
cipe
cky
clim@@
closet
comadre@@
comesti@@
comien@@
competen@@
confer@@
consci@@
consumes
contrab@@
contrade@@
contremos
controversial
core@@
credi@@
cristi@@
cta@@
ctores
cual@@
cubi@@
cuerdo
cute
cuñ@@
cy
dable
daos
decep@@
decora@@
define
depos@@
dere@@
ders
descend@@
deser@@
design@@
desma@@
deter@@
dial
dicos
dicto
dies
dign@@
discipl@@
distur@@
disu@@
divor@@
doc@@
dog
dra@@
dren
dren@@
débi@@
e-@@
e-mails
eba
econo@@
eiko
eite
ek
electr@@
electri@@
els
embotel@@
emerg@@
enc@@
endimos
enf@@
enomen@@
enses
entor@@
equ@@
erras
erup@@
escabull@@
escase@@
esclavi@@
escucha@@
escán@@
esio
espa@@
este@@
estras
excel@@
exces@@
exhibi@@
experim@@
extermin@@
exá@@
face
fantas@@
far
ferrocarri@@
ff
fil
fir
fis@@
fla@@
fles
football
fuer@@
fugi@@
fundam@@
fór@@
g-@@
gae
gares
gaz@@
genti@@
gili@@
grad@@
gradual
gram
grat@@
gravita@@
grin@@
gual
hai@@
hambri@@
hap@@
hara
hay@@
hec@@
hei@@
heit
hem@@
here@@
hist@@
hob@@
hom@@
homosexu@@
hospit@@
ial
iencia
iento
igame
ign@@
ignore
igos
ilandia
iler
imiento
imple@@
impredeci@@
ince
inete
infer@@
infli@@
ingl@@
ington
inher@@
inse@@
insi@@
instin@@
instructor
integri@@
inventor
invest@@
investi@@
invite
iri
itali@@
jeme
karate
kelp
kers
kim@@
kins
ks
lador
land@@
lantes
lase
lash
lay
lec@@
leza
ligi@@
like
lines
ling
ll
llu@@
loga
lor
lot
ls
lín
mach@@
madores
malnutri@@
mand@@
mater@@
medicinal
medioc@@
meloco@@
meros
mery
millon@@
minable
ming
minim@@
minu@@
mni@@
molecular
monitor
mprame
muev@@
murmu@@
musulman@@
mán
nap@@
narra@@
nav@@
neme
nev@@
ning@@
nomin@@
nut
náu@@
obedi@@
obo@@
oce@@
ofi@@
og@@
ond
onna
opo@@
organ@@
oru@@
oti@@
otos
ots
ould
our
over@@
ox@@
oy
pacio
paint
palab@@
partimos
pean
pen
penal
pende
peni@@
pensa
pensable
permafrost
perpe@@
persecu@@
persever@@
perspe@@
picnics
pied@@
pistol@@
poker
polar
popu@@
portugu@@
post-@@
postor
pota@@
preced@@
preser@@
prev@@
priva@@
prop@@
provin@@
prést@@
psiqui@@
pub
puri@@
quar@@
queer
quitos
quéis
rac@@
rale
razos
re-@@
record
reh@@
rel@@
reli@@
remo@@
remodel@@
reser@@
responsabili@@
resume
rev@@
revolver
rice
riel
rinocer@@
rir
robe
roe
ror
rosos
rs
samurai
sau@@
sauce
see
sensato
sho@@
shu
sier
sign@@
sillos
simul@@
simultá@@
sio
sional
sla@@
sobresali@@
soda
soft
sop@@
sorpr@@
spo@@
squ@@
steam@@
stol@@
ston
stro
strong
suce@@
surge
tablet
tabure@@
taca@@
tamento
tang@@
tbol
tedi@@
tel
telep@@
teles
televisi@@
tenden@@
teria
terías
tes@@
th@@
ther
ther@@
thy
tibur@@
tiembre
tines
tio
tire
tomos
tranquil@@
tres@@
tribun@@
trices
tt@@
tube
tuna
tz
táni@@
tún@@
ual
udson
ue@@
uelos
uestra
ung
unze
uran
urge
use@@
usya
ut
ut@@
vagina
valdi
valu@@
varo
vejec@@
veli@@
veri@@
verifi@@
vibr@@
vibra@@
victori@@
vil
vill@@
ville
vir
virtió
vitis
vre
walkie-talkie
wart
we@@
wing
wn
wns
yager
yama
yev@@
za@@
zapa@@
zi
zur@@
ª
°
Ál@@
Ár@@
ánd@@
áñ@@
ército
érdate
ículas
ífica
ígenes
ínate
ísi@@
ógeno
č@@
ę@@
ł@@
π
た
の@@
#@@
&@@
.00
.5
.A.
2,000
20,000
4-@@
5,000
56
Aca@@
Achil@@
Adam
Adol@@
Afortun@@
Aga@@
American
And@@
Ans@@
Aqu@@
Ara@@
Asu@@
Bal@@
Bay
Bir@@
Blue
Bun@@
Cai@@
Canada
Chin@@
Christ@@
Christi@@
Christian
Cin@@
City
Civil
Cock@@
Coke
Cola
Cristi@@
Crossing
Dan@@
Din@@
Dol@@
Econo@@
Ele@@
Entien@@
Esperanti@@
Eura@@
Eve
Eventu@@
FID@@
Fer@@
Fi
Flo@@
Fol@@
Francis
Fí@@
G
Gali@@
Geor@@
Gr@@
Grand@@
Hablar@@
Happy
Hat@@
Hici@@
Himalayas
Hip@@
Hol@@
Háb@@
Ig@@
Imagine
Int@@
Ishmael
Ital@@
Ivan
Jú@@
Kin@@
Kis@@
Kit@@
Kur@@
Lament@@
Lem@@
Liter@@
Llu@@
Lár@@
Man
Mind
Mississippi
Moz@@
NO@@
Nao@@
Nar@@
Natural
Nep@@
Nev@@
Organ@@
Ox@@
PC@@
Pap@@
Pho@@
Photo@@
Ple@@
Point
Premi@@
Prohi@@
Pyth@@
Querr@@
Rich@@
Rock
Roman@@
Rus@@
Santi@@
Segun@@
Sei@@
Sha@@
Shou@@
Sir
Sli@@
Slo@@
Sophi@@
Sta@@
Star@@
Sugi@@
Sul@@
Switch
T-@@
Tato@@
Tax@@
Test@@
Tha@@
Tok@@
Tranqui@@
Tranquil@@
Tru@@
Ty@@
UU.
Valent@@
Verdad@@
Vin@@
Vini@@
Viol@@
Vladi@@
Wa@@
Wall
Wat@@
We@@
What@@
WhatsApp
Will
Wow
Zam@@
abani@@
abdominal
abili@@
absolu@@
abstr@@
aby@@
achi@@
ack
adem@@
af
afortunadamente
ager
ahu@@
aje@@
ajed@@
alf@@
algo@@
algorit@@
alien@@
aliení@@
ally
amateur
ament@@
ami
aming
amás
ander
andy
anfi@@
angel
anismo
anse
ants
anécd@@
ark
arranc@@
arras
asignatur@@
asis
ation
atravi@@
attle
aud@@
aul
auxili@@
avergüen@@
avoi@@
avy
ayla
azú@@
bacteria
bags
baseball
basi@@
bat
bees
beli@@
berenj@@
bi
bid
bie
bike
bili@@
bin
bla@@
bolí@@
bon
bones
box
brasile@@
bren
británi@@
brió
bula
bull@@
burn
but@@
bús@@
cakes
call
campes@@
cantar@@
capit@@
caram@@
carcin@@
card
carro@@
casts
causes
cauti@@
celebra@@
celer@@
cello
cend@@
centa@@
center
chase
chat
chel@@
cher@@
chimen@@
chores
chubas@@
cilmente
cipl@@
ciruj@@
cista
clubs
coart@@
coberti@@
coco@@
cohe@@
coin
coincid@@
colegi@@
coll@@
compul@@
contex@@
controversi@@
cookies
cord
cord@@
cos@@
crack
cruel@@
ctu@@
ctúa
cuchil@@
culares
cup@@
curidad
cy@@
cúl@@
d-@@
dai@@
decir@@
demon@@
dena
deos
depar@@
desast@@
desc@@
dex@@
ding
dis
disponi@@
dogs
dolor@@
dorm@@
dote
dou@@
dromes
dru@@
ds
due@@
durmi@@
díos
eces@@
edero
edral
een
em
embaj@@
embru@@
emper@@
empo
enchu@@
endor@@
engend@@
enor@@
enterio
episo@@
equipa@@
eral
eramente
ernes
ert
escor@@
espeluzn@@
esplén@@
ess
estímu@@
ette
euro@@
excep@@
expecta@@
expedi@@
exper@@
eyó
faci@@
factor@@
facul@@
fame
fant@@
fantá@@
fau@@
feros
fia
fic@@
ficio
fiero
filip@@
fins
fish
flat@@
ford
fort
fraud@@
freel@@
freezer
gadi@@
gal
gall@@
gawa
geles
gelo
gene
geo@@
gers
gest@@
get
gin
gote
gres
grá@@
gs
guerr@@
guit@@
güen@@
hambr@@
han@@
hand@@
hang
haste
hat@@
hed@@
heroí@@
his
hobbies
hol
hol@@
hos
hubi@@
hum@@
hume@@
iP@@
ic
ice
ide
imag@@
imbé@@
inde@@
inea
inexpli@@
ing-@@
ingre@@
ings
ins
interrog@@
intérpre@@
inven@@
isra@@
ist@@
jam
jecu@@
jería
jue@@
jui@@
kee
kg
kil@@
kiw@@
l-@@
lake
landa
lap@@
lean
leibol
lers
let
lidi@@
lim@@
link
lip@@
little
liver
lob@@
long@@
longit@@
loo
ltimamente
ly@@
lápi@@
mage
malhu@@
manager
manes
mantel@@
marr@@
mart
match
med
mediocre
memente
mer
meri@@
ming@@
minori@@
miser@@
mol
monstru@@
moron
mosta@@
motocicle@@
mountain
mouth
mpli@@
ms
mud
muest@@
multilingü@@
míni@@
name
navide@@
neamente
net
neumon@@
nie
nil@@
noob
noru@@
notebook
ny
né
od
ods
off
ones@@
ong
onto
opi@@
orate
ore
orgullo@@
orian
orida
orig@@
ors
oscu@@
oscure@@
ose@@
ost@@
oth
ous@@
ov
ov@@
ow
pacho
panad@@
paque@@
pedest@@
peligr@@
peligro@@
pend@@
pene@@
periodi@@
perió@@
perni@@
perío@@
ph@@
pien@@
play
pobla@@
políglo@@
pony
popo@@
pper
presen@@
prin@@
profes@@
pud@@
pue@@
pueb@@
puntu@@
párra@@
quid
qué@@
races
ray
regar@@
remar@@
reme@@
requ@@
rer
responsabi@@
retire
reven@@
revo@@
rezco
rib@@
ries@@
rist@@
román@@
rot
rum
rural
rus
rápi@@
sabi@@
sador
sando
sandwich
sangu@@
sardin@@
saurios
scar@@
sch@@
segun@@
seller
semos
sensi@@
sexu@@
sey
sha@@
shima
shit@@
shop
shows
shu@@
sie
siem@@
siera
siti@@
sive
sk@@
smartphone
snor@@
snow@@
som@@
sou@@
space
spaghetti
st
stan
sten@@
ster@@
stime
stock
strate
stre
stron@@
sts
subst@@
substitu@@
suced@@
swag@@
sy
sánd@@
sía
tabl@@
tamiento
tant@@
tau@@
tenta
tento
teor@@
territor@@
tha@@
the@@
thor@@
tillo
tion@@
titudes
tiv@@
to-@@
tocin@@
toi@@
tonel@@
tonio
top
tore
town
transmit@@
transpar@@
trib@@
triun@@
tter
ty@@
títulos
ua
ue
uelo
ues
um-@@
unda@@
undo
unior
usk@@
vaca@@
vana
ved
victi@@
vie@@
vigor@@
vik@@
voluntari@@
vom@@
vuvuz@@
vy
waf@@
wai@@
war@@
web@@
well
wer@@
win@@
wind@@
ww@@
xen@@
xon
ye@@
yn
yogurt
yoko
yor
yotes
you
ze
zen
zen@@
zer
zer@@
zes
zz@@
´
º@@
áculo
álisis
ámara
â@@
ä@@
è@@
ércoles
íli@@
ízate
ómetros
úrate
ā@@
ń
ō
ַ@@
ל
―
‘
’
♘
み@@
#
*
-fi
..
.m.
0,000
0.@@
0s
1,000
3,000
=
AI
AS@@
Aardvar@@
Adi@@
African
Air
Al-Say@@
Algeria
Allah
Alz@@
Amazon
America
Antar@@
App
Arabi@@
Argent@@
As
Aseg@@
Asist@@
Astron@@
Atl@@
Basi@@
Bei@@
Belar@@
Bl@@
Black@@
Blo@@
Boys
Buda@@
Bulgar@@
CD@@
Califor@@
Campe@@
Canadi@@
Carl@@
Cat
Chec@@
Chick@@
Chr@@
Compu@@
Consu@@
Control
Cuán@@
Cy@@
Cyri@@
Dad
Dad@@
Dav@@
Davi@@
Deli@@
Describe
Dinner
Dino@@
Done
Drag@@
Dragons
Drive
Duck
Dude
Dy@@
EU
Earth
Emi@@
Esp@@
Europe@@
Eurovision
Ever@@
Examine
FI@@
Ferr@@
Ferris
Fili@@
Fle@@
France
Franci@@
Fres@@
Fru@@
GP@@
Gabri@@
Gir@@
Goo@@
HI@@
HIV
Harri@@
Haw@@
Hel@@
Hot
Hun@@
Hy@@
I.
ID
ID-@@
ID@@
In
Indi@@
Industri@@
Inte@@
Invest@@
Jer@@
Jerusal@@
Jesus
Ji@@
John@@
Juda@@
Kaby@@
Kazak@@
Kyu@@
L.A.
LGB@@
LO@@
Lau@@
Life
Light
Little
Lock
Long
Lost
Mach@@
Magellan
March
Mark@@
Mayu@@
Mañ@@
Men
Merry
Milan
Moder@@
Mom
Much@@
Mus@@
Napoleon
National
Nik@@
Note
November
Nuclear
OVN@@
Only
Ou@@
PM
Pac@@
Pagu@@
Palace
Paris
Peter@@
Phar@@
Phi@@
Picas@@
Plu@@
Pluto
Pok@@
Poli@@
Pope
Posi@@
Prime
Publi@@
Quechua
Qué@@
Rab@@
Rafa@@
Rain
Republi@@
Russia
Sachi@@
Saint
Scar@@
Sci@@
Second
Shanghai
Sher@@
Singapore
Sof@@
South
Spen@@
Star
Steph@@
Sto@@
Str@@
Stre@@
Sum@@
Sun
Sw@@
Tana@@
Th@@
Thai
Tien@@
Tig@@
Tou@@
Trab@@
Twi@@
UR@@
US
US@@
Under@@
Union
Univer@@
Vasilissa
Vien@@
Vote
Wars
Web
Wiki@@
Willi@@
Win@@
Wis@@
Wol@@
Won@@
World
Wri@@
X-@@
You
Zero
aban@@
abo
abra@@
abuses
acanti@@
aceit@@
ach
achac@@
aches
acles
acter@@
activi@@
acusa@@
addi@@
ade
admire
adre
ads
ady
aes@@
agram
ain
air
alcantar@@
aldo
alien
also
alterna@@
ameri@@
ams
ancho@@
ancial
anec@@
ange
anges
angha@@
ania
antem@@
antigu@@
anxi@@
any
anás
apeu@@
appeal
apuñ@@
ar-@@
ardo
area
argue
arin
aro@@
arrea
arrepin@@
art
ary
ash
asig@@
ass@@
assu@@
aster
asure
atch
ater
ath
ath@@
atro
aturas
aty
avirus
aware
ax
ayama
back
bacter@@
bad@@
badminton
bag
bak@@
ball
bancar@@
bang
bap@@
bats
bble
bby
beat
bed@@
bee
beer
beg
best
beta
bibli@@
bicicle@@
bies
biles
bitamente
bless
blue@@
boar@@
board
boo@@
book
bore
bores
botel@@
brea@@
bridge
brun@@
brí
brúju@@
bs
bucks
bul
bullying
burg
bury
busti@@
bye
bías
bú
búlgar@@
bús
c-@@
ca-@@
cacahu@@
cachor@@
cadillo
cake
calef@@
calend@@
cami@@
cance
cancer
cano@@
canti@@
capitu@@
cares
carto@@
cast
cat
categ@@
cater@@
cator@@
cause
cavi@@
ce-@@
ced
cent
centu@@
centí@@
cerebr@@
certe@@
certi@@
cerve@@
cet
chal@@
champagne
cheese
child@@
chips
chit@@
chitec@@
chop@@
cies
cker
cket
ckey
claust@@
co-@@
coa
cock@@
code
coher@@
coins
college
comic
comics
commit
compete
complete
concede
concier@@
consequ@@
continue
copies
cora@@
core
corpul@@
cot@@
craft
crates
cros@@
crow@@
cruas@@
crush
cta
ction
culosis
cut
cuán@@
céle@@
cómo@@
dacti@@
dadi@@
dalena
dam
dato
de-@@
decer
declare
decline
ded
defe@@
delici@@
democra@@
deni@@
dep@@
depó@@
desay@@
dge
dial@@
diap@@
dict
dieci@@
dile@@
dimen@@
diplo@@
dise@@
dislikes
ditch
dn
dogan
domici@@
done
donos
drag
dragon
dragon@@
dred
drive
due
eable
earía
eba@@
eclip@@
eden
eds
efs
elga
eling
elite
ell
ellan
ellan@@
elli@@
emails
embos@@
emen
emis@@
empos
ences
encio
ened
engan
enjoy@@
enosas
enter
entry
ents
erda
ergy
errors
escapes
esh
españ@@
estall@@
estampil@@
estrate@@
estúpi@@
etc
eton
ev
even
ever
examine
excesi@@
expla@@
express
ezos
faces
fall
false@@
farma@@
farmac@@
femini@@
fero
field
fies
fing
fire
fishing
fit@@
fixi@@
foot
for
fortun@@
frequ@@
frigor@@
ft
fts
furson@@
fut@@
fín
gang@@
garage
gaz
geons
gets
gg@@
gger
ggle
gho@@
gic
gigant@@
gile
gimen
gira@@
girl
gle
gni@@
gnidad
good
grammatical
grap@@
graphic
grass
ground
guarda@@
gueti
guila
gul@@
gulli@@
gun@@
guro
gurt
gy@@
hall
hamburger
hand
hard
hardware
harmon@@
hat
hate@@
heavy
helicop@@
hello
helps
her
hes@@
him@@
hire
hit
hjong
hombr@@
home@@
hor
horri@@
hot@@
huev@@
huéspe@@
hé@@
ical
icon
id@@
ignores
ilan@@
ils
im
imperdon@@
impro@@
imá@@
in-@@
incertidu@@
inches
inera
inger
ingual
ink
inmigr@@
inolvid@@
insepar@@
inseparable
insu@@
int
inueve
invol@@
ior
ires
irrit@@
irs
isa
ish@@
iso@@
ison
ist
ital
iter
iti
its
ity
jó@@
kel@@
ken
ken@@
kes
ket
kets
key
kit@@
kitty
ky
lam
lario
lary
later
leads
lef@@
lei@@
lement
lera
libre@@
lip
lips
lister
locker
logi@@
lom@@
loose
lorry
lose
loud
low@@
luci@@
lución
lus
lux@@
lywood
límpi@@
líne@@
líqui@@
m.
mai@@
mail
male
malmente
mania
marin@@
marke@@
mast@@
master
maternal
meable
melan@@
met
million@@
mily
miner@@
minio
mobili@@
moment
mon
motor@@
mouse
mph
must@@
máxim@@
mérica
mética
naranj@@
nature
nego@@
negr@@
nei@@
ners
ness
net@@
neu@@
new@@
nic
nifi@@
nill@@
nitro@@
non
non@@
not
notes
novel@@
ná@@
nú@@
núcle@@
observe
occur@@
ocra@@
octa@@
offshore
oil
oming
onable
ons
open
opinion
optimi@@
orit@@
oru
oter
ous
out
ove@@
pain@@
palin@@
pand@@
panes
papa@@
paper
paradi@@
parag@@
patron@@
peculi@@
ped
pedia
pee
people
perio
person
persons
persuade
perí@@
pet
phan
phe@@
phy
pin
pinas
pine@@
pipe
pite
player
plen@@
poes@@
point
poll@@
porri@@
posite
pot
pp@@
pper@@
ppi
ppy
predic@@
preg@@
prepares
presúrate
pret@@
pretty
princi@@
principi@@
prision@@
probab@@
prog@@
prohib@@
provi@@
prácti@@
prín@@
ptero@@
pts
pued@@
puls@@
pupi@@
queen
quer
questa
quinas
quis@@
quisquil@@
quite
r.
raft
rain
rami@@
rasca@@
rases
rat
real@@
recomien@@
recí
ree
regular@@
relax
relo@@
reminis@@
rent
repent@@
resta@@
restaurant
restres
retre@@
rian
rible
rid
ride
ridi@@
ries
rob
roc@@
roll
root
rose
row
rugía
ruin
rumo@@
rush
s-@@
sacapun@@
sage
sane
script
se-@@
seguri@@
sel
sell
sentenci@@
sfera
shar@@
she@@
sic
side
sile@@
silen@@
simi@@
sinas
singer
singu@@
sir
sley
slo@@
so-@@
soccer
sotr@@
source
spa@@
speci@@
species
spin
spiri@@
spon@@
ss@@
ssa
stable
staff
stag@@
stam@@
station
sters
steza
stima
sting
stole
stone
study
stur@@
subway
suc@@
sue
sufici@@
sula
supervi@@
sure
sw@@
swal@@
sweater
sy@@
talidad
tape
tation
team
tech@@
ted@@
teen
telesco@@
temper@@
temple
terapeu@@
tero@@
tesor@@
tests
than
than@@
thank
the
then
ths
tic
tickets
tie
tien@@
tig@@
time
ting
tion
tional
toilet
tom
tomorrow
tonic
torto@@
tortu@@
total@@
tou@@
tphone
trav@@
tree
trem@@
trick
trol
trun@@
tsun@@
tte
turales
tures
turi@@
tw@@
tware
udad
uega
ugh@@
uk@@
ulti@@
umbr@@
ums
undar@@
under
under@@
unifor@@
union
universi@@
unque
unt
ups
ura@@
urai
ures
urin@@
urs
uscri@@
ute
uti@@
vable
varon@@
vast
vatos
vay@@
vecind@@
veh@@
venes
vengan@@
venidos
ventud
vera
verses
very
vestru@@
vice
video@@
vietnam@@
villanci@@
vis
vita@@
volcano@@
votes
wad@@
wahili
wait
wal@@
wan@@
ware
water@@
wealth
wee@@
ween
wei@@
wel
what@@
whiskey
whistle
wig
win
wis@@
wom@@
xim@@
xista
y-@@
yec@@
yel@@
yer
yi@@
ying
yogu@@
you@@
ys
zaje
zeria
zombies
À@@
Ñ@@
Ó
à
ában@@
ántate
árbi@@
å@@
æ@@
énico
éter
éu@@
éutico
ê
ê@@
ë@@
ì@@
íri@@
íso
íz
ógi@@
ómo
óno@@
ós
ô@@
úan
úju@@
úpi@@
ć
č
đ@@
ě
ī@@
ł
ń@@
ō@@
œ@@
ř
ŝ
ş@@
š
ū@@
ź
ž
ǎ@@
ə
ˈ@@
а
א@@
ע@@
ồ@@
ứ
‎
‽
₪
₫
№
→
☭
♗
⨯
⸘
、
あ
し@@
た@@
っ@@
て
の
ま@@
む
ア
マ@@
リ@@
何
便
形
用
言
連
音
？
